{
  "version": "1.0",
  "truncation": null,
  "padding": {
    "strategy": "BatchLongest",
    "direction": "Right",
    "pad_to_multiple_of": null,
    "pad_id": 2,
    "pad_type_id": 0,
    "pad_token": "[pad]"
  },
  "added_tokens": [
    {
      "id": 0,
      "content": "[start]",
      "single_word": false,
      "lstrip": false,
      "rstrip": false,
      "normalized": false,
      "special": true
    },
    {
      "id": 1,
      "content": "[end]",
      "single_word": false,
      "lstrip": false,
      "rstrip": false,
      "normalized": false,
      "special": true
    },
    {
      "id": 2,
      "content": "[pad]",
      "single_word": false,
      "lstrip": false,
      "rstrip": false,
      "normalized": false,
      "special": true
    }
  ],
  "normalizer": null,
  "pre_tokenizer": {
    "type": "ByteLevel",
    "add_prefix_space": true,
    "trim_offsets": true,
    "use_regex": true
  },
  "post_processor": null,
  "decoder": {
    "type": "ByteLevel",
    "add_prefix_space": true,
    "trim_offsets": true,
    "use_regex": true
  },
  "model": {
    "type": "BPE",
    "dropout": null,
    "unk_token": null,
    "continuing_subword_prefix": null,
    "end_of_word_suffix": null,
    "fuse_unk": false,
    "byte_fallback": false,
    "ignore_merges": false,
    "vocab": {
      "[start]": 0,
      "[end]": 1,
      "[pad]": 2,
      "!": 3,
      "\"": 4,
      "$": 5,
      "%": 6,
      "'": 7,
      "(": 8,
      ")": 9,
      "+": 10,
      ",": 11,
      "-": 12,
      ".": 13,
      "/": 14,
      "0": 15,
      "1": 16,
      "2": 17,
      "3": 18,
      "4": 19,
      "5": 20,
      "6": 21,
      "7": 22,
      "8": 23,
      "9": 24,
      ":": 25,
      ";": 26,
      "?": 27,
      "@": 28,
      "a": 29,
      "b": 30,
      "c": 31,
      "d": 32,
      "e": 33,
      "f": 34,
      "g": 35,
      "h": 36,
      "i": 37,
      "j": 38,
      "k": 39,
      "l": 40,
      "m": 41,
      "n": 42,
      "o": 43,
      "p": 44,
      "q": 45,
      "r": 46,
      "s": 47,
      "t": 48,
      "u": 49,
      "v": 50,
      "w": 51,
      "x": 52,
      "y": 53,
      "z": 54,
      "¡": 55,
      "¤": 56,
      "§": 57,
      "¨": 58,
      "©": 59,
      "ª": 60,
      "«": 61,
      "¬": 62,
      "°": 63,
      "±": 64,
      "¶": 65,
      "º": 66,
      "»": 67,
      "¼": 68,
      "½": 69,
      "Â": 70,
      "Ã": 71,
      "Ä": 72,
      "Å": 73,
      "Ç": 74,
      "â": 75,
      "Ġ": 76,
      "Ģ": 77,
      "ģ": 78,
      "Ĥ": 79,
      "Ħ": 80,
      "ĭ": 81,
      "į": 82,
      "İ": 83,
      "ı": 84,
      "ĵ": 85,
      "Ķ": 86,
      "ĺ": 87,
      "Ļ": 88,
      "ļ": 89,
      "ľ": 90,
      "Ŀ": 91,
      "ŀ": 92,
      "Ł": 93,
      "ł": 94,
      "Ń": 95,
      "ch": 96,
      "en": 97,
      "er": 98,
      "Ġd": 99,
      "ich": 100,
      "Ġs": 101,
      "ei": 102,
      "Ġw": 103,
      "ie": 104,
      "st": 105,
      "Ġm": 106,
      "Ġh": 107,
      "Ġt": 108,
      "Ġi": 109,
      "Ġg": 110,
      "ein": 111,
      "Ġa": 112,
      "om": 113,
      "as": 114,
      "Ġn": 115,
      "Ġich": 116,
      "Ġb": 117,
      "Ġtom": 118,
      "es": 119,
      "te": 120,
      "Ġha": 121,
      "Ġk": 122,
      "an": 123,
      "icht": 124,
      "un": 125,
      "Ã¼": 126,
      "Ġz": 127,
      "Ġdas": 128,
      "ar": 129,
      "Ġf": 130,
      "ir": 131,
      "Ġv": 132,
      "Ġnicht": 133,
      "hr": 134,
      "Ġge": 135,
      "Ġein": 136,
      "in": 137,
      "ll": 138,
      "Ġdu": 139,
      "Ġzu": 140,
      "Ġist": 141,
      "Ã¤": 142,
      "Ġsie": 143,
      "Ġdie": 144,
      "Ġl": 145,
      "Ġsch": 146,
      "Ġau": 147,
      "Ã¶": 148,
      "gen": 149,
      "ach": 150,
      "au": 151,
      "Ġer": 152,
      "Ġhab": 153,
      "Ġes": 154,
      "de": 155,
      "on": 156,
      "ge": 157,
      "Ġwir": 158,
      "ÃŁ": 159,
      "or": 160,
      "it": 161,
      "Ġun": 162,
      "sch": 163,
      "ten": 164,
      "re": 165,
      "Ġhat": 166,
      "Ġver": 167,
      "Ġwar": 168,
      "em": 169,
      "et": 170,
      "Ġihr": 171,
      "Ġin": 172,
      "Ġan": 173,
      "den": 174,
      "sen": 175,
      "ier": 176,
      "Ġder": 177,
      "ter": 178,
      "Ġso": 179,
      "ag": 180,
      "der": 181,
      "al": 182,
      "ann": 183,
      "eu": 184,
      "el": 185,
      "Ã¼r": 186,
      "Ġj": 187,
      "Ġwie": 188,
      "um": 189,
      "eh": 190,
      "Ġp": 191,
      "Ġauf": 192,
      "ig": 193,
      "och": 194,
      "Ġwas": 195,
      "ben": 196,
      "us": 197,
      "Ġdass": 198,
      "Ġhabe": 199,
      "lich": 200,
      "Ġden": 201,
      "eine": 202,
      "Ġmir": 203,
      "Ġmit": 204,
      "Ġda": 205,
      "ck": 206,
      "ehr": 207,
      "Ġsich": 208,
      "hn": 209,
      "ber": 210,
      "mm": 211,
      "eit": 212,
      "Ġwo": 213,
      "Ġbe": 214,
      "iel": 215,
      "Ġmar": 216,
      "Ġfr": 217,
      "Ġges": 218,
      "Ġst": 219,
      "fen": 220,
      "Ġmich": 221,
      "ern": 222,
      "omm": 223,
      "Ġgeh": 224,
      "Ġhaben": 225,
      "Ġkann": 226,
      "Ġr": 227,
      "Ġsein": 228,
      "ut": 229,
      "Ġwer": 230,
      "Ġeine": 231,
      "ur": 232,
      "Ġsp": 233,
      "ind": 234,
      "Ġdies": 235,
      "Ġaus": 236,
      "ahr": 237,
      "Ġmari": 238,
      "Ġo": 239,
      "Ġund": 240,
      "ung": 241,
      "Ġwi": 242,
      "Ġal": 243,
      "Ã¶n": 244,
      "enn": 245,
      "chen": 246,
      "Ġmaria": 247,
      "Ġnach": 248,
      "Ġall": 249,
      "Ġsind": 250,
      "Ġwei": 251,
      "Ġmein": 252,
      "ft": 253,
      "Ã¼ber": 254,
      "isch": 255,
      "Ġnoch": 256,
      "at": 257,
      "le": 258,
      "Ġhast": 259,
      "Ġuns": 260,
      "Ġbr": 261,
      "Ġbi": 262,
      "Ġbin": 263,
      "etz": 264,
      "ĠfÃ¼r": 265,
      "ste": 266,
      "Ġeinen": 267,
      "ĠkÃ¶n": 268,
      "Ġre": 269,
      "Ġdir": 270,
      "Ġmach": 271,
      "Ġhier": 272,
      "ĠkÃ¶nn": 273,
      "Ġum": 274,
      "agen": 275,
      "Ġvor": 276,
      "Ġals": 277,
      "ehen": 278,
      "anz": 279,
      "Ġsoll": 280,
      "Ġvon": 281,
      "ro": 282,
      "and": 283,
      "Ġviel": 284,
      "Ã¤t": 285,
      "Ġdem": 286,
      "Ġdich": 287,
      "be": 288,
      "ĠÃ¼ber": 289,
      "hl": 290,
      "cht": 291,
      "am": 292,
      "ssen": 293,
      "ommen": 294,
      "Ġgl": 295,
      "mmer": 296,
      "Ġeu": 297,
      "tet": 298,
      "Ġsehr": 299,
      "Ġbes": 300,
      "Ġnie": 301,
      "rei": 302,
      "was": 303,
      "ĠweiÃŁ": 304,
      "Ġwill": 305,
      "Ġet": 306,
      "Ã¶r": 307,
      "Ã¼ck": 308,
      "Ġihn": 309,
      "bt": 310,
      "Ġim": 311,
      "Ġwird": 312,
      "ĠmÃ¶": 313,
      "Ġen": 314,
      "Ġetwas": 315,
      "Ġbei": 316,
      "Ġar": 317,
      "Ġwenn": 318,
      "se": 319,
      "chte": 320,
      "Ġmus": 321,
      "ld": 322,
      "fe": 323,
      "Ġtun": 324,
      "Ġwoll": 325,
      "Ã¤n": 326,
      "Ġlie": 327,
      "eute": 328,
      "Ġgef": 329,
      "Ġschon": 330,
      "il": 331,
      "Ġwarum": 332,
      "ol": 333,
      "Ġeuch": 334,
      "ĠdaÃŁ": 335,
      "Ġhaus": 336,
      "Ġsag": 337,
      "acht": 338,
      "Ġbist": 339,
      "Ġschw": 340,
      "Ġle": 341,
      "Ġglau": 342,
      "Ġkein": 343,
      "ĠhÃ¤t": 344,
      "ra": 345,
      "âĢ": 346,
      "und": 347,
      "ĠmÃ¼": 348,
      "Ġmehr": 349,
      "Ġgew": 350,
      "ĠwÃ¼r": 351,
      "Ġbl": 352,
      "Ġmeine": 353,
      "ing": 354,
      "che": 355,
      "zu": 356,
      "ort": 357,
      "mal": 358,
      "Ġdar": 359,
      "Ġschl": 360,
      "assen": 361,
      "Ġgut": 362,
      "all": 363,
      "Ġimmer": 364,
      "Ġman": 365,
      "etzt": 366,
      "Ġtr": 367,
      "Ġab": 368,
      "Ġkl": 369,
      "Ġbit": 370,
      "kt": 371,
      "ges": 372,
      "Ġwerde": 373,
      "test": 374,
      "ken": 375,
      "Ġheute": 376,
      "Ġgesch": 377,
      "imm": 378,
      "ĠwÃ¼rde": 379,
      "Ġfre": 380,
      "kommen": 381,
      "sten": 382,
      "ser": 383,
      "Ġarb": 384,
      "iert": 385,
      "eid": 386,
      "Ġent": 387,
      "Ġwerden": 388,
      "Ġger": 389,
      "Ġkeine": 390,
      "Ġgehen": 391,
      "ĠmÃ¶chte": 392,
      "Ġwur": 393,
      "ien": 394,
      "Ġzur": 395,
      "Ġdein": 396,
      "Ã¶s": 397,
      "Ġvers": 398,
      "is": 399,
      "Ġbitte": 400,
      "Ġhabt": 401,
      "uch": 402,
      "ass": 403,
      "orgen": 404,
      "Ġam": 405,
      "Ġlan": 406,
      "hen": 407,
      "agt": 408,
      "hm": 409,
      "Ġje": 410,
      "ĠwÃ¤": 411,
      "ost": 412,
      "br": 413,
      "Ġmachen": 414,
      "Ġbrau": 415,
      "Ġzeit": 416,
      "Ġverl": 417,
      "Ġgern": 418,
      "Ġnichts": 419,
      "bl": 420,
      "Ġsagen": 421,
      "Ã¼n": 422,
      "ot": 423,
      "Ġhatte": 424,
      "ĠkÃ¶nnen": 425,
      "Ġste": 426,
      "gt": 427,
      "onn": 428,
      "Ġwurde": 429,
      "lle": 430,
      "Ġfranz": 431,
      "ke": 432,
      "ĠfranzÃ¶s": 433,
      "ĠfranzÃ¶sisch": 434,
      "Ġschu": 435,
      "Ġget": 436,
      "age": 437,
      "Ġnur": 438,
      "wei": 439,
      "Ġwirk": 440,
      "Ġdrei": 441,
      "Ġdiese": 442,
      "Ġunter": 443,
      "ige": 444,
      "Ġihnen": 445,
      "Ġmuss": 446,
      "ade": 447,
      "he": 448,
      "Ġkomm": 449,
      "Ġmal": 450,
      "Ġjetzt": 451,
      "of": 452,
      "Ġgest": 453,
      "Ġzum": 454,
      "Ġwirklich": 455,
      "Ġalle": 456,
      "ger": 457,
      "ieren": 458,
      "gel": 459,
      "Ġdieses": 460,
      "Ġhin": 461,
      "ahren": 462,
      "Ġgem": 463,
      "Ġwieder": 464,
      "Ġgesagt": 465,
      "Ġher": 466,
      "Ġganz": 467,
      "Ġmorgen": 468,
      "ĠhÃ¤tte": 469,
      "aus": 470,
      "Ġviele": 471,
      "Ġhel": 472,
      "Ġgen": 473,
      "Ġalles": 474,
      "af": 475,
      "Ġbost": 476,
      "Ġboston": 477,
      "Ġseine": 478,
      "Ġoder": 479,
      "Ġgi": 480,
      "angen": 481,
      "Ġwe": 482,
      "Ã¼h": 483,
      "ne": 484,
      "uÃŁ": 485,
      "zen": 486,
      "Ġwahr": 487,
      "Ġgeld": 488,
      "Ġjem": 489,
      "Ġhause": 490,
      "Ġber": 491,
      "ht": 492,
      "Ġhelfen": 493,
      "Ġtoms": 494,
      "esen": 495,
      "ĠmÃ¼ssen": 496,
      "Ġgro": 497,
      "os": 498,
      "inn": 499,
      "bst": 500,
      "ert": 501,
      "ik": 502,
      "ĠgroÃŁ": 503,
      "Ġfl": 504,
      "Ġwissen": 505,
      "rechen": 506,
      "Ġdeine": 507,
      "Ġniem": 508,
      "Ġwel": 509,
      "ug": 510,
      "Ġspiel": 511,
      "Ġgel": 512,
      "Ã¤r": 513,
      "Ġsagte": 514,
      "Ġglaube": 515,
      "Ġander": 516,
      "Ġeinem": 517,
      "Ġkenn": 518,
      "pf": 519,
      "ochen": 520,
      "Ġgerne": 521,
      "Ġkannst": 522,
      "ingen": 523,
      "Ġgerade": 524,
      "Ġpro": 525,
      "Ġkau": 526,
      "Ġmag": 527,
      "ĠâĢ": 528,
      "Ġgr": 529,
      "Ġaber": 530,
      "pr": 531,
      "Ġmary": 532,
      "ĠhÃ¶r": 533,
      "Ġihm": 534,
      "achte": 535,
      "men": 536,
      "rie": 537,
      "Ġaut": 538,
      "ran": 539,
      "unden": 540,
      "Ġwollte": 541,
      "Ã¤ch": 542,
      "Ġneu": 543,
      "Ġauch": 544,
      "igen": 545,
      "Ġbesch": 546,
      "Ġeinmal": 547,
      "Ġsehen": 548,
      "Ġbis": 549,
      "heit": 550,
      "ad": 551,
      "Ġihre": 552,
      "Ġgeht": 553,
      "ab": 554,
      "unde": 555,
      "Ġdes": 556,
      "ze": 557,
      "ster": 558,
      "Ġgesehen": 559,
      "Ġfin": 560,
      "ĠwÃ¤re": 561,
      "Ġgu": 562,
      "bend": 563,
      "Ġblei": 564,
      "Ġkommen": 565,
      "Ġtag": 566,
      "Ġarbeit": 567,
      "Ġeiner": 568,
      "mit": 569,
      "eiten": 570,
      "immer": 571,
      "ffen": 572,
      "Ġverst": 573,
      "ap": 574,
      "Ġgemacht": 575,
      "Ġleben": 576,
      "ĠfrÃ¼h": 577,
      "Ġlange": 578,
      "inder": 579,
      "Ġsa": 580,
      "Ġunser": 581,
      "ion": 582,
      "Ġbuch": 583,
      "Ġbesser": 584,
      "eil": 585,
      "Ġgibt": 586,
      "Ġhal": 587,
      "Ġpass": 588,
      "ick": 589,
      "Ġe": 590,
      "Ġspr": 591,
      "llt": 592,
      "tag": 593,
      "ÃŁen": 594,
      "zt": 595,
      "Ġdoch": 596,
      "str": 597,
      "ĠzurÃ¼ck": 598,
      "uhr": 599,
      "schen": 600,
      "Ġdieser": 601,
      "Ġwillst": 602,
      "Ġletz": 603,
      "Ġessen": 604,
      "Ġeinf": 605,
      "Ġgetan": 606,
      "Ã¶rt": 607,
      "Ġsei": 608,
      "Ġsel": 609,
      "Ġhei": 610,
      "Ġauto": 611,
      "auf": 612,
      "Ġjahr": 613,
      "Ġwann": 614,
      "Ġob": 615,
      "uchen": 616,
      "anden": 617,
      "gend": 618,
      "Ġgestern": 619,
      "hal": 620,
      "ater": 621,
      "Ġei": 622,
      "Ġabend": 623,
      "Ã¤l": 624,
      "Ġbet": 625,
      "Ġkam": 626,
      "ler": 627,
      "Ġwaren": 628,
      "Ġkinder": 629,
      "gessen": 630,
      "det": 631,
      "Ġhil": 632,
      "Ġgek": 633,
      "Ġlassen": 634,
      "Ġeinfach": 635,
      "Ġdort": 636,
      "Ġmacht": 637,
      "Ġange": 638,
      "Ġniemand": 639,
      "Ġfreund": 640,
      "Ġsicher": 641,
      "Ġentsch": 642,
      "Ġsprechen": 643,
      "igt": 644,
      "ahl": 645,
      "ief": 646,
      "Ġir": 647,
      "ungen": 648,
      "Ġdr": 649,
      "Ġkonn": 650,
      "Ġmen": 651,
      "Ġhof": 652,
      "hne": 653,
      "her": 654,
      "Ã¤u": 655,
      "tern": 656,
      "tr": 657,
      "gl": 658,
      "ichtig": 659,
      "oll": 660,
      "Ġpl": 661,
      "Ġwollen": 662,
      "alien": 663,
      "gn": 664,
      "Ġseinen": 665,
      "Ġseid": 666,
      "gst": 667,
      "Ġweg": 668,
      "Ġins": 669,
      "Ġzie": 670,
      "Ġschne": 671,
      "ehmen": 672,
      "Ġkommt": 673,
      "ast": 674,
      "sst": 675,
      "Ġzwei": 676,
      "amm": 677,
      "ĠschÃ¶n": 678,
      "tw": 679,
      "utter": 680,
      "ff": 681,
      "ÃŁt": 682,
      "Ġaustr": 683,
      "ĠâĢŀ": 684,
      "gangen": 685,
      "Ġlern": 686,
      "Ġmeinen": 687,
      "ĠkÃ¶nnte": 688,
      "âĢľ": 689,
      "Ġaustralien": 690,
      "bei": 691,
      "ver": 692,
      "blem": 693,
      "Ġschule": 694,
      "ess": 695,
      "ĠglÃ¼ck": 696,
      "ĠfÃ¼": 697,
      "Ġbest": 698,
      "Ġmon": 699,
      "Ġsollen": 700,
      "iz": 701,
      "achen": 702,
      "ĠkÃ¼": 703,
      "Ã¤ft": 704,
      "Ġkeinen": 705,
      "Ġpa": 706,
      "Ġproblem": 707,
      "Ġvater": 708,
      "Ġdenke": 709,
      "Ġwor": 710,
      "me": 711,
      "geben": 712,
      "Ġgeb": 713,
      "Ġru": 714,
      "Ã¤hl": 715,
      "schl": 716,
      "Ġgar": 717,
      "Ġwus": 718,
      "Ġuhr": 719,
      "Ġoft": 720,
      "immt": 721,
      "Ġzimmer": 722,
      "Ġlei": 723,
      "glich": 724,
      "allen": 725,
      "Ġrecht": 726,
      "Ġkonnte": 727,
      "ang": 728,
      "Ġdur": 729,
      "Ġdan": 730,
      "sam": 731,
      "llen": 732,
      "ĠgehÃ¶rt": 733,
      "Ġjemand": 734,
      "Ġschein": 735,
      "ielle": 736,
      "pt": 737,
      "Ġmann": 738,
      "Ġging": 739,
      "von": 740,
      "leich": 741,
      "Ġdachte": 742,
      "ielleicht": 743,
      "cher": 744,
      "Ġged": 745,
      "Ġvielleicht": 746,
      "Ġerf": 747,
      "dem": 748,
      "ru": 749,
      "Ġerk": 750,
      "Ġirgend": 751,
      "Ġallein": 752,
      "Ġhund": 753,
      "Ġerw": 754,
      "Ġfahr": 755,
      "Ġschrei": 756,
      "Ġsollte": 757,
      "Ġzus": 758,
      "Ġhilfe": 759,
      "Ġfrage": 760,
      "Ġbleiben": 761,
      "ĠnÃ¤ch": 762,
      "tel": 763,
      "we": 764,
      "Ã¤hr": 765,
      "Ġtut": 766,
      "ucht": 767,
      "Ġdamit": 768,
      "ammen": 769,
      "Ġwarten": 770,
      "Ġwohn": 771,
      "art": 772,
      "sp": 773,
      "gehen": 774,
      "Ġwen": 775,
      "Ġmutter": 776,
      "hin": 777,
      "Ġlang": 778,
      "Ġfrau": 779,
      "auft": 780,
      "cken": 781,
      "Ġfeh": 782,
      "Ġel": 783,
      "Ġtrin": 784,
      "Ġdurch": 785,
      "mer": 786,
      "Ġwusste": 787,
      "Ġselbst": 788,
      "ust": 789,
      "sel": 790,
      "Ġpassiert": 791,
      "Ġwohl": 792,
      "Ġzusammen": 793,
      "Ġdiesen": 794,
      "Ġohne": 795,
      "ald": 796,
      "ehrer": 797,
      "Ġschnell": 798,
      "afen": 799,
      "Ġinter": 800,
      "pp": 801,
      "Ġstu": 802,
      "Ġjeden": 803,
      "ckt": 804,
      "Ġkran": 805,
      "Ġhoffe": 806,
      "Ġpaar": 807,
      "Ġdavon": 808,
      "essen": 809,
      "Ġerz": 810,
      "Ġgleich": 811,
      "asst": 812,
      "Ġseit": 813,
      "ĠdarÃ¼ber": 814,
      "Ġfragen": 815,
      "Ġsagt": 816,
      "oh": 817,
      "asse": 818,
      "uld": 819,
      "ÃŁe": 820,
      "Ġwirst": 821,
      "Ã¼s": 822,
      "Ġhan": 823,
      "ĠtÃ¼r": 824,
      "Ġeinz": 825,
      "affe": 826,
      "Ġnacht": 827,
      "Ġmusst": 828,
      "vor": 829,
      "oren": 830,
      "Ġdiesem": 831,
      "gesch": 832,
      "Ġsollten": 833,
      "schein": 834,
      "halten": 835,
      "ehe": 836,
      "end": 837,
      "Ġrei": 838,
      "oche": 839,
      "Ġfast": 840,
      "Ġsah": 841,
      "Ã¤nder": 842,
      "aft": 843,
      "Ġsolltest": 844,
      "Ġbez": 845,
      "ĠwÃ¼n": 846,
      "Ġleute": 847,
      "Ġseinem": 848,
      "ĠglÃ¼cklich": 849,
      "Ġschwer": 850,
      "uss": 851,
      "Ġaufge": 852,
      "Ã¤d": 853,
      "bar": 854,
      "ehn": 855,
      "wo": 856,
      "Ġzw": 857,
      "fer": 858,
      "Ġkaufen": 859,
      "alt": 860,
      "Ġsieht": 861,
      "mlich": 862,
      "Ġfahren": 863,
      "aufen": 864,
      "Ã¤llt": 865,
      "ertig": 866,
      "ent": 867,
      "Ġwoche": 868,
      "Ġna": 869,
      "Ġgeben": 870,
      "Ġte": 871,
      "Ġben": 872,
      "Ġarbei": 873,
      "ĠerzÃ¤hl": 874,
      "ĠweiÃŁt": 875,
      "Ġbeg": 876,
      "fÃ¼r": 877,
      "lo": 878,
      "Ġinteress": 879,
      "tlich": 880,
      "Ġson": 881,
      "Ġmeiner": 882,
      "richt": 883,
      "Ġdarf": 884,
      "Ġlernen": 885,
      "Ġfertig": 886,
      "ahn": 887,
      "aden": 888,
      "schte": 889,
      "Ġangst": 890,
      "adt": 891,
      "iger": 892,
      "Ġgekauft": 893,
      "Ġsit": 894,
      "Ġseiner": 895,
      "aum": 896,
      "Ġgab": 897,
      "Ġschle": 898,
      "Ġlass": 899,
      "Ġscheint": 900,
      "Ġletzte": 901,
      "Ġspa": 902,
      "tete": 903,
      "Ġalt": 904,
      "Ġgute": 905,
      "Ġc": 906,
      "bracht": 907,
      "Ġtre": 908,
      "Ġbef": 909,
      "Ġbrauchen": 910,
      "Ġbereit": 911,
      "Ġreden": 912,
      "Ġwasser": 913,
      "Ġmeinem": 914,
      "auen": 915,
      "Ġglauben": 916,
      "immen": 917,
      "aut": 918,
      "Ġfern": 919,
      "Ġfinde": 920,
      "Ġgenug": 921,
      "Ġvergessen": 922,
      "Ġpol": 923,
      "prochen": 924,
      "Ġziemlich": 925,
      "Ġkaffe": 926,
      "Ġgegangen": 927,
      "zeit": 928,
      "Ġho": 929,
      "ĠÃ¶": 930,
      "ĠbÃ¼": 931,
      "Ġspielen": 932,
      "Ġlehrer": 933,
      "ri": 934,
      "ele": 935,
      "Ġdenn": 936,
      "Ġverk": 937,
      "ache": 938,
      "keit": 939,
      "Ġerinn": 940,
      "ichte": 941,
      "Ġko": 942,
      "ant": 943,
      "ĠbeschÃ¤ft": 944,
      "atz": 945,
      "sicht": 946,
      "Ġkaffee": 947,
      "ark": 948,
      "Ġeigen": 949,
      "Ã¶hn": 950,
      "Ġweiter": 951,
      "fall": 952,
      "ischen": 953,
      "nis": 954,
      "Ã¤dchen": 955,
      "ĠhÃ¶ren": 956,
      "Ġgekommen": 957,
      "Ġmin": 958,
      "Ġhand": 959,
      "og": 960,
      "ÃŁer": 961,
      "Ġihren": 962,
      "Ġbekommen": 963,
      "ander": 964,
      "ogen": 965,
      "Ġgehe": 966,
      "Ġfreunde": 967,
      "Ġganzen": 968,
      "ĠfrÃ¼her": 969,
      "Ġdazu": 970,
      "hau": 971,
      "Ġverm": 972,
      "Ġstadt": 973,
      "Ġkat": 974,
      "Ġbek": 975,
      "Ġdeinen": 976,
      "Ġunsere": 977,
      "sehen": 978,
      "Ġbeim": 979,
      "ue": 980,
      "ĠmÃ¤dchen": 981,
      "amen": 982,
      "ingt": 983,
      "Ã¤lt": 984,
      "ĠdafÃ¼r": 985,
      "Ġgewesen": 986,
      "Ġkennen": 987,
      "Ġzei": 988,
      "Ġgegen": 989,
      "Ġfehler": 990,
      "Ġgefallen": 991,
      "Ġfinden": 992,
      "ĠbeschÃ¤ftigt": 993,
      "ische": 994,
      "Ġbus": 995,
      "Ġbrauche": 996,
      "Ġzug": 997,
      "Ġkon": 998,
      "ĠwÃ¼nschte": 999,
      "est": 1000,
      "Ġbeh": 1001,
      "Ġbald": 1002,
      "Ġjeder": 1003,
      "ĠspÃ¤t": 1004,
      "inge": 1005,
      "Ġse": 1006,
      "Ġeltern": 1007,
      "Ġantw": 1008,
      "Ã¼t": 1009,
      "aten": 1010,
      "ĠfuÃŁ": 1011,
      "Ġgegessen": 1012,
      "Ġklein": 1013,
      "innen": 1014,
      "rad": 1015,
      "amil": 1016,
      "chten": 1017,
      "Ġgefunden": 1018,
      "Ġjahre": 1019,
      "ĠmÃ¶glich": 1020,
      "Ã¤um": 1021,
      "Ġmenschen": 1022,
      "hÃ¶r": 1023,
      "zeu": 1024,
      "Ġbrief": 1025,
      "Ġwein": 1026,
      "Ġlesen": 1027,
      "ist": 1028,
      "Ġ1": 1029,
      "Ġfamil": 1030,
      "Ġerst": 1031,
      "ĠmuÃŁ": 1032,
      "ren": 1033,
      "Ġschwier": 1034,
      "Ġversp": 1035,
      "Ġbett": 1036,
      "viel": 1037,
      "ĠhÃ¤ttest": 1038,
      "âĢĻ": 1039,
      "chst": 1040,
      "ĠbÃ¼cher": 1041,
      "ill": 1042,
      "Ġto": 1043,
      "Ġne": 1044,
      "Ġsonn": 1045,
      "schaft": 1046,
      "Ġstra": 1047,
      "ation": 1048,
      "Ġeure": 1049,
      "Ġversch": 1050,
      "ernt": 1051,
      "lt": 1052,
      "ga": 1053,
      "gef": 1054,
      "Ġsof": 1055,
      "legen": 1056,
      "Ġverd": 1057,
      "Ġdaran": 1058,
      "Ġleicht": 1059,
      "reich": 1060,
      "Ġbraucht": 1061,
      "ĠkÃ¶nnt": 1062,
      "Ġtele": 1063,
      "ĠgefÃ¤llt": 1064,
      "fte": 1065,
      "Ġengl": 1066,
      "Ġpoliz": 1067,
      "lÃ¤r": 1068,
      "ner": 1069,
      "Ġeinzige": 1070,
      "Ġaugen": 1071,
      "Ġbeide": 1072,
      "Ġdarauf": 1073,
      "Ġch": 1074,
      "gte": 1075,
      "Ġanderen": 1076,
      "Ġfrag": 1077,
      "Ġliebe": 1078,
      "ielt": 1079,
      "Ġtelef": 1080,
      "hlen": 1081,
      "eln": 1082,
      "ungs": 1083,
      "Ġgenau": 1084,
      "rieben": 1085,
      "Ġbezahl": 1086,
      "Ġwelt": 1087,
      "uder": 1088,
      "Ġhinter": 1089,
      "wer": 1090,
      "Ġkind": 1091,
      "Ġgebe": 1092,
      "under": 1093,
      "Ġjap": 1094,
      "Ġtat": 1095,
      "Ġjapan": 1096,
      "Ġganze": 1097,
      "Ġlos": 1098,
      "Ġja": 1099,
      "Ġverloren": 1100,
      "Ġspricht": 1101,
      "Ã¶t": 1102,
      "scheinlich": 1103,
      "kst": 1104,
      "ob": 1105,
      "los": 1106,
      "ett": 1107,
      "ĠerklÃ¤r": 1108,
      "iv": 1109,
      "Ġschwimmen": 1110,
      "Ġkenne": 1111,
      "Ġentschuld": 1112,
      "Ġworden": 1113,
      "lossen": 1114,
      "enster": 1115,
      "ank": 1116,
      "Ġwagen": 1117,
      "etzen": 1118,
      "ĠhÃ¤tten": 1119,
      "Ġfamilie": 1120,
      "Ġnehmen": 1121,
      "Ġbruder": 1122,
      "Ġerwar": 1123,
      "rt": 1124,
      "Ġschn": 1125,
      "per": 1126,
      "ball": 1127,
      "andem": 1128,
      "ĠmÃ¼de": 1129,
      "Ġ2": 1130,
      "Ġstr": 1131,
      "Ġarbeiten": 1132,
      "Ġverh": 1133,
      "Ġfenster": 1134,
      "Ġsteht": 1135,
      "Ġleid": 1136,
      "ĠmÃ¶chtest": 1137,
      "ĠkÃ¶nnten": 1138,
      "Ġjahren": 1139,
      "ĠgewÃ¶hn": 1140,
      "Ġvertr": 1141,
      "ras": 1142,
      "lassen": 1143,
      "Ġjemanden": 1144,
      "Ġletzten": 1145,
      "Ġguter": 1146,
      "Ġme": 1147,
      "antw": 1148,
      "Ġtreffen": 1149,
      "Ġper": 1150,
      "lau": 1151,
      "eht": 1152,
      "Ġminu": 1153,
      "Ġdanke": 1154,
      "euer": 1155,
      "Ġrau": 1156,
      "ĠÃ¼berras": 1157,
      "Ġwarst": 1158,
      "ĠwÃ¼rdest": 1159,
      "Ã¤nd": 1160,
      "Ġwichtig": 1161,
      "Ġkur": 1162,
      "Ġvoll": 1163,
      "Ġlieber": 1164,
      "Ġschwierig": 1165,
      "Ġdabei": 1166,
      "Ġbetr": 1167,
      "Ġeinige": 1168,
      "Ġdann": 1169,
      "Ġwochen": 1170,
      "Ġfrei": 1171,
      "Ġnahm": 1172,
      "scht": 1173,
      "ĠwuÃŁ": 1174,
      "Ġfal": 1175,
      "annt": 1176,
      "Ġkrank": 1177,
      "Ġverw": 1178,
      "Ġstunden": 1179,
      "Ġzuf": 1180,
      "hst": 1181,
      "ĠhÃ¶": 1182,
      "ĠkÃ¶nntest": 1183,
      "uchte": 1184,
      "Ġwelche": 1185,
      "ĠgrÃ¶": 1186,
      "Ġor": 1187,
      "ÃŁig": 1188,
      "Ġarzt": 1189,
      "Ġtrinken": 1190,
      "Ġtage": 1191,
      "keiten": 1192,
      "Ġbew": 1193,
      "Ġwahrheit": 1194,
      "asche": 1195,
      "erst": 1196,
      "Ã¤ter": 1197,
      "Ġreich": 1198,
      "Ġeines": 1199,
      "Ġandere": 1200,
      "fl": 1201,
      "Ã¼hr": 1202,
      "Ġlust": 1203,
      "iere": 1204,
      "itt": 1205,
      "kel": 1206,
      "nung": 1207,
      "Ġverb": 1208,
      "Ġbrauchst": 1209,
      "Ġenglisch": 1210,
      "ĠÃ¤": 1211,
      "Ġwollt": 1212,
      "Ġern": 1213,
      "Ġgehei": 1214,
      "Ġsonst": 1215,
      "ere": 1216,
      "Ġsorgen": 1217,
      "Ġhatten": 1218,
      "Ã¼ssel": 1219,
      "Ġbeste": 1220,
      "Ġdeiner": 1221,
      "ratet": 1222,
      "Ġneue": 1223,
      "bringen": 1224,
      "haupt": 1225,
      "Ġweil": 1226,
      "ĠspaÃŁ": 1227,
      "Ġbevor": 1228,
      "ĠÃ¼berhaupt": 1229,
      "30": 1230,
      "Ġnamen": 1231,
      "nen": 1232,
      "Ġvom": 1233,
      "Ġplan": 1234,
      "Ã¤nger": 1235,
      "weise": 1236,
      "Ġheraus": 1237,
      ".âĢľ": 1238,
      "ester": 1239,
      "unge": 1240,
      "ĠfÃ¼hr": 1241,
      "Ġteil": 1242,
      "etter": 1243,
      "pl": 1244,
      "Ġmittag": 1245,
      "ieÃŁen": 1246,
      "llig": 1247,
      "Ġwahrscheinlich": 1248,
      "Ġide": 1249,
      "Ġfil": 1250,
      "Ġmarias": 1251,
      "ĠÃ¶ff": 1252,
      "urt": 1253,
      "ende": 1254,
      "arb": 1255,
      "Ġflug": 1256,
      "Ġihrer": 1257,
      "Ġkn": 1258,
      "Ġanf": 1259,
      "Ġstud": 1260,
      "Ġgesprochen": 1261,
      "Ġglaubst": 1262,
      "Ġverstehen": 1263,
      "Ġtelefon": 1264,
      "nehmen": 1265,
      "unter": 1266,
      "Ġbringen": 1267,
      "Ġtisch": 1268,
      "Ġbel": 1269,
      "hÃ¶ren": 1270,
      "sche": 1271,
      "Ġpr": 1272,
      "Ġschlafen": 1273,
      "erv": 1274,
      "ĠhÃ¤n": 1275,
      "elt": 1276,
      "Ġausge": 1277,
      "Ġmontag": 1278,
      "eher": 1279,
      "rig": 1280,
      "stÃ¼ck": 1281,
      "Ġgegeben": 1282,
      "mals": 1283,
      "dru": 1284,
      "Ġgeschrieben": 1285,
      "Ã¼nf": 1286,
      "eiden": 1287,
      "stag": 1288,
      "auÃŁen": 1289,
      "ĠdrauÃŁen": 1290,
      "pfel": 1291,
      "Ġfahrrad": 1292,
      "ĠbÃ¼r": 1293,
      "Ġkaum": 1294,
      "Ġmache": 1295,
      "Ġschwester": 1296,
      "ĠâĢĵ": 1297,
      "hof": 1298,
      "qu": 1299,
      "Ġmeinung": 1300,
      "Ġglaubt": 1301,
      "ĠnÃ¤chsten": 1302,
      "Ġsofort": 1303,
      "Ġmusik": 1304,
      "Ġbisschen": 1305,
      "Ġversuchen": 1306,
      "achten": 1307,
      "iss": 1308,
      "Ġgib": 1309,
      "iebt": 1310,
      "Ġhoch": 1311,
      "ĠschÃ¼": 1312,
      "alten": 1313,
      "Ġbat": 1314,
      "unken": 1315,
      "Ġpark": 1316,
      "cke": 1317,
      "ĠfÃ¼nf": 1318,
      "Ġland": 1319,
      "ĠspÃ¤ter": 1320,
      "par": 1321,
      "Ġregn": 1322,
      "Ġkomme": 1323,
      "ohn": 1324,
      "iehen": 1325,
      "ĠfÃ¤hr": 1326,
      "issen": 1327,
      "Ġhalten": 1328,
      "Ġhaar": 1329,
      "ĠnÃ¤": 1330,
      "Ġuntersch": 1331,
      "Ġwelch": 1332,
      "ppe": 1333,
      "Ġjunge": 1334,
      "Ġfragte": 1335,
      "Ġende": 1336,
      "Ġgedacht": 1337,
      "ĠstraÃŁe": 1338,
      "des": 1339,
      "haus": 1340,
      "Ġwieviel": 1341,
      "Ġschul": 1342,
      "Ġgelesen": 1343,
      "Ġwenig": 1344,
      "Ġhol": 1345,
      "Ġregen": 1346,
      "Ġkan": 1347,
      "Ġbed": 1348,
      "Ġmensch": 1349,
      "Ġschreiben": 1350,
      "Ġminuten": 1351,
      "Ġkranken": 1352,
      "Ġpolizei": 1353,
      "ĠgroÃŁe": 1354,
      "?âĢľ": 1355,
      "Ġfall": 1356,
      "ierte": 1357,
      "Ġstimmt": 1358,
      "raten": 1359,
      "Ġdenkst": 1360,
      "ĠdÃ¼r": 1361,
      "Ġgeschichte": 1362,
      "Ġgrund": 1363,
      "spr": 1364,
      "Ġnachricht": 1365,
      "ĠhÃ¶rte": 1366,
      "Ġkatze": 1367,
      "unkt": 1368,
      "gebracht": 1369,
      "Ġsol": 1370,
      "ufen": 1371,
      "Ġzehn": 1372,
      "Ġstimm": 1373,
      "Ġschuld": 1374,
      "Ġkennt": 1375,
      "gal": 1376,
      "roffen": 1377,
      "Ġversucht": 1378,
      "ok": 1379,
      "Ġhung": 1380,
      "ĠlÃ¼": 1381,
      "Ġrat": 1382,
      "orden": 1383,
      "Ġjoh": 1384,
      "einander": 1385,
      "ĠwÃ¼rden": 1386,
      "Ġbahn": 1387,
      "liche": 1388,
      "Ġmusste": 1389,
      "ange": 1390,
      "att": 1391,
      "Ġantwort": 1392,
      "Ġjohann": 1393,
      "im": 1394,
      "Ġfei": 1395,
      "ekt": 1396,
      "Ġhierher": 1397,
      "ieb": 1398,
      "Ġbereits": 1399,
      "ande": 1400,
      "Ġdenken": 1401,
      "Ã¼hle": 1402,
      "Ġbenut": 1403,
      "stellt": 1404,
      "Ġmonat": 1405,
      "Ġgeschen": 1406,
      "ieÃŁ": 1407,
      "ieden": 1408,
      "Ġmachte": 1409,
      "ĠÃ¤r": 1410,
      "Ġwort": 1411,
      "Ġkalt": 1412,
      "Ġbestimmt": 1413,
      "ĠkÃ¤": 1414,
      "uche": 1415,
      "ĠlÃ¶": 1416,
      "orten": 1417,
      "Ġstelle": 1418,
      "hol": 1419,
      "kte": 1420,
      "net": 1421,
      "ĠgewÃ¶hnlich": 1422,
      "rÃ¼ck": 1423,
      "Ġfing": 1424,
      "llte": 1425,
      "Ġro": 1426,
      "Ġkurz": 1427,
      "Ġfilm": 1428,
      "ied": 1429,
      "Ġta": 1430,
      "Ġoffen": 1431,
      "Ġverlassen": 1432,
      "Ġgetroffen": 1433,
      "genommen": 1434,
      "Ġidee": 1435,
      "buch": 1436,
      "Ġverg": 1437,
      "eidung": 1438,
      "Ġgebeten": 1439,
      "Ġrichtig": 1440,
      "ennen": 1441,
      "Ġvorbei": 1442,
      "Ġkeiner": 1443,
      "Ġschlecht": 1444,
      "mittag": 1445,
      "Ġjohannes": 1446,
      "Ġweit": 1447,
      "Ġbem": 1448,
      "irm": 1449,
      "Ġmachst": 1450,
      "Ġgetr": 1451,
      "Ã¤lter": 1452,
      "Ġmei": 1453,
      "ĠauÃŁer": 1454,
      "ĠÃ¤nder": 1455,
      "Ġeigentlich": 1456,
      "Ġsohn": 1457,
      "Ġwohnt": 1458,
      "Ġfreundin": 1459,
      "ss": 1460,
      "ĠvÃ¶": 1461,
      "Ġerle": 1462,
      "gew": 1463,
      "Ġliegt": 1464,
      "ĠÃ¼": 1465,
      "geln": 1466,
      "Ġspielt": 1467,
      "Ġdau": 1468,
      "ĠschlÃ¼ssel": 1469,
      "ĠtrÃ¤": 1470,
      "nete": 1471,
      "Ġarbeitet": 1472,
      "spiel": 1473,
      "itz": 1474,
      "rieden": 1475,
      "Ġgebr": 1476,
      "Ġschien": 1477,
      "Ġtee": 1478,
      "Ġricht": 1479,
      "ĠhÃ¼": 1480,
      "Ġneuen": 1481,
      "Ġhe": 1482,
      "Ġisst": 1483,
      "Ġgehst": 1484,
      "ĠwÃ¤hr": 1485,
      "Ġirgendw": 1486,
      "ĠerzÃ¤hlt": 1487,
      "Ġkopf": 1488,
      "stellen": 1489,
      "Ġrie": 1490,
      "Ġneues": 1491,
      "Ġwurden": 1492,
      "Ġlicht": 1493,
      "Ġverdien": 1494,
      "Ġbahnhof": 1495,
      "arte": 1496,
      "Ġsiehst": 1497,
      "zlich": 1498,
      "Ġaufzu": 1499,
      "iste": 1500,
      "ĠmÃ¶gen": 1501,
      "Ġkom": 1502,
      "Ġsomm": 1503,
      "Ġschaf": 1504,
      "Ġschuhe": 1505,
      "00": 1506,
      "dern": 1507,
      "Ġnachmittag": 1508,
      "Ġstellen": 1509,
      "Ġsommer": 1510,
      "ĠhÃ¤lt": 1511,
      "ĠlÃ¤ch": 1512,
      "Ġlangsam": 1513,
      "Ġlieb": 1514,
      "ĠmÃ¶chten": 1515,
      "Ġfalsch": 1516,
      "Ġfest": 1517,
      "ĠwÃ¤hrend": 1518,
      "aun": 1519,
      "Ġjung": 1520,
      "Ġschau": 1521,
      "cker": 1522,
      "Ġbeiden": 1523,
      "Ġwegen": 1524,
      "Ġstuden": 1525,
      "Ġdumm": 1526,
      "Ġihrem": 1527,
      "zimmer": 1528,
      "Ġdorthin": 1529,
      "ieben": 1530,
      "zogen": 1531,
      "Ġzeigen": 1532,
      "ĠÃ¤lter": 1533,
      "Ġstand": 1534,
      "Ġstunde": 1535,
      "ille": 1536,
      "Ġfot": 1537,
      "Ġvier": 1538,
      "Ġanru": 1539,
      "Ġschreibt": 1540,
      "ĠÃ¼berrascht": 1541,
      "Ġgeworden": 1542,
      "iff": 1543,
      "Ġsehe": 1544,
      "gaben": 1545,
      "umen": 1546,
      "Ġpassieren": 1547,
      "Ġstehen": 1548,
      "ĠfrÃ¼hstÃ¼ck": 1549,
      "Ġwem": 1550,
      "recht": 1551,
      "Ġbede": 1552,
      "Ġfroh": 1553,
      "Ġgefr": 1554,
      "Ġverstehe": 1555,
      "Ġgeburt": 1556,
      "zig": 1557,
      "Ġkanad": 1558,
      "onder": 1559,
      "Ġunfall": 1560,
      "ĠheiÃŁt": 1561,
      "Ġbild": 1562,
      "Ġneben": 1563,
      "Ġmil": 1564,
      "Ġrepar": 1565,
      "ĠnÃ¤chste": 1566,
      "ĠtÃ¤": 1567,
      "Ġwarte": 1568,
      "Ġbesuchen": 1569,
      "Ġarm": 1570,
      "ĠlieÃŁ": 1571,
      "Ġabendessen": 1572,
      "Ġkommst": 1573,
      "len": 1574,
      "Ġhielt": 1575,
      "eilen": 1576,
      "Ġversuchte": 1577,
      "Ġtanz": 1578,
      "ckte": 1579,
      "Ġausl": 1580,
      "Ġdeinem": 1581,
      "erweise": 1582,
      "Ġsetz": 1583,
      "Ġrest": 1584,
      "Ġbesonder": 1585,
      "ĠbÃ¼ro": 1586,
      "Ġbo": 1587,
      "Ġbeantw": 1588,
      "ĠfÃ¤hrt": 1589,
      "Ġwoher": 1590,
      "ollar": 1591,
      "dlich": 1592,
      "ul": 1593,
      "Ġrech": 1594,
      "zus": 1595,
      "Ġlasst": 1596,
      "ings": 1597,
      "Ġanders": 1598,
      "Ġhalte": 1599,
      "Ġex": 1600,
      "ase": 1601,
      "Ġbier": 1602,
      "ine": 1603,
      "ha": 1604,
      "ĠsÃ¼": 1605,
      "usst": 1606,
      "zeug": 1607,
      "Ġzufrieden": 1608,
      "eut": 1609,
      "Ġrauchen": 1610,
      "iegen": 1611,
      "Ġdollar": 1612,
      "olg": 1613,
      "Ġpers": 1614,
      "av": 1615,
      "tÃ¤u": 1616,
      "Ġnerv": 1617,
      "Ġsolltet": 1618,
      "Ġflei": 1619,
      "ĠwÃ¼": 1620,
      "ĠenttÃ¤u": 1621,
      "Ġerlau": 1622,
      "Ġerinnern": 1623,
      "Ġfeuer": 1624,
      "gegen": 1625,
      "Ġgelernt": 1626,
      "Ġerste": 1627,
      "Ġallen": 1628,
      "if": 1629,
      "erik": 1630,
      "gekommen": 1631,
      "Ġsingen": 1632,
      "Ġkrankenhaus": 1633,
      "Ġliebl": 1634,
      "ochter": 1635,
      "Ġvors": 1636,
      "Ġanderes": 1637,
      "Ġhalb": 1638,
      "Ġwochenende": 1639,
      "ohlen": 1640,
      "Ġkrie": 1641,
      "lagen": 1642,
      "ĠfÃ¼hl": 1643,
      "Ġdun": 1644,
      "Ġwetter": 1645,
      "Ġlebt": 1646,
      "zung": 1647,
      "Ġverste": 1648,
      "ĠschÃ¼ler": 1649,
      "hig": 1650,
      "Ġtenn": 1651,
      "Ġletzt": 1652,
      "Ġraus": 1653,
      "weg": 1654,
      "Ġprei": 1655,
      "geb": 1656,
      "Ġhotel": 1657,
      "wa": 1658,
      "Ġtochter": 1659,
      "Ġeuer": 1660,
      "Ġklar": 1661,
      "Ġfreue": 1662,
      "Ġtennis": 1663,
      "Ġde": 1664,
      "Ġnor": 1665,
      "io": 1666,
      "pe": 1667,
      "Ã¤sst": 1668,
      "Ġpart": 1669,
      "Ġspaz": 1670,
      "Ġmilch": 1671,
      "ller": 1672,
      "Ġmeisten": 1673,
      "arten": 1674,
      "Ġmenge": 1675,
      "achsen": 1676,
      "Ġverf": 1677,
      "Ġdarum": 1678,
      "Ġem": 1679,
      "Ġmanch": 1680,
      "Ġgarten": 1681,
      "Ġdank": 1682,
      "Ġgeheim": 1683,
      "Ã¼f": 1684,
      "aufgaben": 1685,
      "Ġmed": 1686,
      "Ġneh": 1687,
      "Ġfuhr": 1688,
      "reche": 1689,
      "ĠaufhÃ¶ren": 1690,
      "ĠÃ¼bers": 1691,
      "ĠdreiÃŁig": 1692,
      "Ġverschw": 1693,
      "Ġgeburtstag": 1694,
      "stehen": 1695,
      "Ġtra": 1696,
      "annte": 1697,
      "Ġart": 1698,
      "oss": 1699,
      "Ġster": 1700,
      "Ġweihn": 1701,
      "olfen": 1702,
      "Ġfluss": 1703,
      "Ġdinge": 1704,
      "Ġkr": 1705,
      "orben": 1706,
      "Ġgewinnen": 1707,
      "Ġverhei": 1708,
      "Ġnett": 1709,
      "Ġlau": 1710,
      "Ġrede": 1711,
      "ĠgroÃŁen": 1712,
      "Ġerled": 1713,
      "stes": 1714,
      "Ġersten": 1715,
      "Ġjungen": 1716,
      "inden": 1717,
      "ette": 1718,
      "ĠrÃ¼ck": 1719,
      "Ġahn": 1720,
      "ĠhÃ¤ttet": 1721,
      "Ġwerdet": 1722,
      "Ġegal": 1723,
      "Ġth": 1724,
      "Ġfand": 1725,
      "komm": 1726,
      "Ġsage": 1727,
      "anken": 1728,
      "Ġamerik": 1729,
      "Ġmagst": 1730,
      "orm": 1731,
      "Ã¶rter": 1732,
      "Ġliebt": 1733,
      "ickt": 1734,
      "ziehen": 1735,
      "Ġgemein": 1736,
      "Ġangef": 1737,
      "Ġwelches": 1738,
      "Ġbemer": 1739,
      "Ġniemanden": 1740,
      "ĠtrÃ¤gt": 1741,
      "Ġtro": 1742,
      "Ġtrau": 1743,
      "onnen": 1744,
      "Ġplatz": 1745,
      "Ġinteressiert": 1746,
      "ĠlÃ¤nger": 1747,
      "Ġgeholfen": 1748,
      "legenheit": 1749,
      "chter": 1750,
      "Ġalte": 1751,
      "ĠerklÃ¤ren": 1752,
      "Ġehr": 1753,
      "Ġsau": 1754,
      "ĠmÃ¤n": 1755,
      "Ġtot": 1756,
      "Ġverp": 1757,
      "Ġverbr": 1758,
      "Ġstol": 1759,
      "Ġhausaufgaben": 1760,
      "Ġlebens": 1761,
      "Ġbezahlt": 1762,
      "Ġblumen": 1763,
      "unktion": 1764,
      "Ġersch": 1765,
      "Ġdenkt": 1766,
      "Ġerfolg": 1767,
      "Ġfreu": 1768,
      "Ġniemandem": 1769,
      "gnis": 1770,
      "bte": 1771,
      "Ġkap": 1772,
      "Ã¼hl": 1773,
      "itze": 1774,
      "Ġfunktion": 1775,
      "ĠgrÃ¶ÃŁer": 1776,
      "Ġmanchmal": 1777,
      "ate": 1778,
      "Ġgere": 1779,
      "merzen": 1780,
      "Ġgesund": 1781,
      "legt": 1782,
      "Ġerwartet": 1783,
      "Ġirgendwo": 1784,
      "flich": 1785,
      "Ġwohin": 1786,
      "Ġallzu": 1787,
      "ĠsaÃŁ": 1788,
      "tend": 1789,
      "Ġfol": 1790,
      "ĠheiÃŁ": 1791,
      "Ġschm": 1792,
      "Ġgesp": 1793,
      "Ġgestohlen": 1794,
      "Ġahnung": 1795,
      "esser": 1796,
      "rank": 1797,
      "bel": 1798,
      "Ġnimm": 1799,
      "arbei": 1800,
      "ĠwuÃŁte": 1801,
      "Ġkanadier": 1802,
      "Ġunbe": 1803,
      "Ġjen": 1804,
      "esse": 1805,
      "Ġgeschehen": 1806,
      "ostet": 1807,
      "Ġverletzt": 1808,
      "Ġnormal": 1809,
      "Ġtragen": 1810,
      "ĠgeschÃ¤ft": 1811,
      "ĠÃ¤ndern": 1812,
      "Ġlieblings": 1813,
      "eigen": 1814,
      "Ġkuchen": 1815,
      "iot": 1816,
      "Ġanw": 1817,
      "Ġjemandem": 1818,
      "Ġbaum": 1819,
      "Ġrad": 1820,
      "Ġvielen": 1821,
      "ĠfuÃŁball": 1822,
      "reichen": 1823,
      "Ġbezahlen": 1824,
      "Ġentschuldigen": 1825,
      "Ġbitten": 1826,
      "Ġanger": 1827,
      "Ġstimme": 1828,
      "Ġrein": 1829,
      "Ġtasse": 1830,
      "Ġfiel": 1831,
      "Ġgenaus": 1832,
      "ĠwÃ¼tend": 1833,
      "Ġur": 1834,
      "Ġeingel": 1835,
      "aucht": 1836,
      "Ġanzu": 1837,
      "Ġpu": 1838,
      "afft": 1839,
      "stand": 1840,
      "Ġtust": 1841,
      "schlag": 1842,
      "Ġpf": 1843,
      "Ġguten": 1844,
      "Ġinteressant": 1845,
      "Ġsech": 1846,
      "ober": 1847,
      "Ġnot": 1848,
      "Ġke": 1849,
      "Ġstolz": 1850,
      "Ġgenauso": 1851,
      "Ġeher": 1852,
      "Ã¤cht": 1853,
      "Ġschick": 1854,
      "Ġbescheid": 1855,
      "Ġheiraten": 1856,
      "Ġ20": 1857,
      "ĠnÃ¤he": 1858,
      "ĠvÃ¶llig": 1859,
      "ce": 1860,
      "pu": 1861,
      "chtet": 1862,
      "Ġsprich": 1863,
      "wegen": 1864,
      "Ġletztes": 1865,
      "Ġsinn": 1866,
      "ĠwÃ¶rter": 1867,
      "Ġhunde": 1868,
      "Ġzahl": 1869,
      "Ġetwa": 1870,
      "Ġgleiche": 1871,
      "wohl": 1872,
      "Ġverheiratet": 1873,
      "hÃ¶rt": 1874,
      "Ġapfel": 1875,
      "Ġlaufen": 1876,
      "Ã¤ume": 1877,
      "Ġvorsichtig": 1878,
      "Ġmom": 1879,
      "Ġhut": 1880,
      "Ġbesten": 1881,
      "Ġerfahren": 1882,
      "undert": 1883,
      "gang": 1884,
      "Ġschwar": 1885,
      "rant": 1886,
      "Ġgei": 1887,
      "del": 1888,
      "itten": 1889,
      "Ġgeschenk": 1890,
      "Ġmoment": 1891,
      "Ġbank": 1892,
      "aurant": 1893,
      "Ġalter": 1894,
      "Ġschlaf": 1895,
      "Ġlu": 1896,
      "Ġreise": 1897,
      "Ġacht": 1898,
      "ummer": 1899,
      "Ã¤ndig": 1900,
      "ahm": 1901,
      "bo": 1902,
      "kl": 1903,
      "so": 1904,
      "Ã¤ndert": 1905,
      "machen": 1906,
      "Ġtue": 1907,
      "Ġniemals": 1908,
      "Ġfeier": 1909,
      "Ġparty": 1910,
      "Ġempf": 1911,
      "lern": 1912,
      "Ã¤ngnis": 1913,
      "Ġgewar": 1914,
      "Ġstellte": 1915,
      "Ġkennst": 1916,
      "Ġprobleme": 1917,
      "rÃ¼ckt": 1918,
      "Ġsu": 1919,
      "Ġlied": 1920,
      "itÃ¤t": 1921,
      "Ġpfer": 1922,
      "Ġokt": 1923,
      "Ġklav": 1924,
      "ohnt": 1925,
      "igung": 1926,
      "Ġtrug": 1927,
      "ĠhÃ¶rt": 1928,
      "Ġwohnen": 1929,
      "Ġernst": 1930,
      "Ġoktober": 1931,
      "Ġsuchen": 1932,
      "ĠmÃ¼s": 1933,
      "Ġherein": 1934,
      "ĠgefÃ¤ngnis": 1935,
      "ĠgrÃ¼n": 1936,
      "Ġrestaurant": 1937,
      "chsel": 1938,
      "ĠlÃ¤sst": 1939,
      "Ġklavier": 1940,
      "Ġsachen": 1941,
      "ink": 1942,
      "Ġzwischen": 1943,
      "Ã¼fung": 1944,
      "lafen": 1945,
      "standen": 1946,
      "Ġglas": 1947,
      "gesehen": 1948,
      "sichtlich": 1949,
      "Ġstrand": 1950,
      "ĠdÃ¼rfen": 1951,
      "erin": 1952,
      "ame": 1953,
      "Ġgeschafft": 1954,
      "Ġcom": 1955,
      "Ġangerufen": 1956,
      "ock": 1957,
      "Ġweh": 1958,
      "ĠfÃ¼hle": 1959,
      "get": 1960,
      "Ġrom": 1961,
      "Ġkont": 1962,
      "Ġ30": 1963,
      "iges": 1964,
      "Ġkindern": 1965,
      "ĠerzÃ¤hlen": 1966,
      "opf": 1967,
      "ossen": 1968,
      "Ġgefahren": 1969,
      "Ġbesonders": 1970,
      "mÃ¶": 1971,
      "Ġesse": 1972,
      "Ġpap": 1973,
      "off": 1974,
      "Ġhunger": 1975,
      "Ġgefragt": 1976,
      "'s": 1977,
      "gr": 1978,
      "Ġsache": 1979,
      "ĠgefÃ¤hr": 1980,
      "Ġwin": 1981,
      "Ġstarb": 1982,
      "Ġletzter": 1983,
      "ah": 1984,
      "igkeit": 1985,
      "Ġwert": 1986,
      "Ġherum": 1987,
      "Ġselten": 1988,
      "Ġwahl": 1989,
      "Ġentscheidung": 1990,
      "Ġgeboren": 1991,
      "ĠnÃ¤chstes": 1992,
      "lang": 1993,
      "Ġwart": 1994,
      "Ġverliebt": 1995,
      "Ġvertrauen": 1996,
      "druck": 1997,
      "Ġnehme": 1998,
      "Ġzog": 1999,
      "Ġarbeite": 2000,
      "ĠenttÃ¤uscht": 2001,
      "op": 2002,
      "Ġgutes": 2003,
      "ĠhÃ¤nde": 2004,
      "Ġanrufen": 2005,
      "kun": 2006,
      "Ġhasse": 2007,
      "Ġgit": 2008,
      "tem": 2009,
      "schu": 2010,
      "Ġraum": 2011,
      "Ġtau": 2012,
      "stell": 2013,
      "Ġziehen": 2014,
      "Ġtax": 2015,
      "Ġeingeladen": 2016,
      "Ġsor": 2017,
      "Ġkochen": 2018,
      "Ġendlich": 2019,
      "vers": 2020,
      "stens": 2021,
      "rieb": 2022,
      "Ġbleibt": 2023,
      "Ġschwierigkeiten": 2024,
      "Ġbeantworten": 2025,
      "fst": 2026,
      "Ġlage": 2027,
      "Ġbrot": 2028,
      "Ã¼cke": 2029,
      "Ġferns": 2030,
      "enden": 2031,
      "Ġbeein": 2032,
      "ĠÃ¼berzeu": 2033,
      "hek": 2034,
      "halb": 2035,
      "rift": 2036,
      "Ġhaare": 2037,
      "arbeitet": 2038,
      "sk": 2039,
      "tsam": 2040,
      "Ġdach": 2041,
      "ĠschÃ¶ne": 2042,
      "Ġregnen": 2043,
      "Ġtasche": 2044,
      "indet": 2045,
      "Ġschnee": 2046,
      "Ġlangwei": 2047,
      "Ġverdient": 2048,
      "Ġpreis": 2049,
      "Ġalleine": 2050,
      "Ġgestorben": 2051,
      "fÃ¼hr": 2052,
      "Ġgingen": 2053,
      "Ġverz": 2054,
      "Ġkleid": 2055,
      "Ġsprach": 2056,
      "Ġheim": 2057,
      "Ġsondern": 2058,
      "Ġmittagessen": 2059,
      "ichen": 2060,
      "Ġmot": 2061,
      "ĠjÃ¼n": 2062,
      "reiben": 2063,
      "ĠmÃ¼ÃŁt": 2064,
      "Ġversuch": 2065,
      "Ġfrauen": 2066,
      "Ġla": 2067,
      "lichen": 2068,
      "Ġverlieren": 2069,
      "Ġseltsam": 2070,
      "Ġlachen": 2071,
      "elte": 2072,
      "Ġstark": 2073,
      "Ġgitar": 2074,
      "yp": 2075,
      "Ġat": 2076,
      "Ġschr": 2077,
      "ord": 2078,
      "Ġleisten": 2079,
      "Ġbekomm": 2080,
      "Ġgeheimnis": 2081,
      "hÃ¶": 2082,
      "Ġtagen": 2083,
      "ĠfÃ¤llt": 2084,
      "Ġdagegen": 2085,
      "bliot": 2086,
      "Ġsechs": 2087,
      "Ġhem": 2088,
      "ĠbÃ¶": 2089,
      "Ġbau": 2090,
      "Ġfisch": 2091,
      "Ġerd": 2092,
      "Ġseite": 2093,
      "Ġbedeu": 2094,
      "bliothek": 2095,
      "lehrer": 2096,
      "mar": 2097,
      "Ġeinge": 2098,
      "ĠmuÃŁt": 2099,
      "ĠmÃ¤nner": 2100,
      "Ġbein": 2101,
      "Ġkre": 2102,
      "Ġohr": 2103,
      "Ġcompu": 2104,
      "kunft": 2105,
      "dr": 2106,
      "erte": 2107,
      "Ġdi": 2108,
      "Ġnachbar": 2109,
      "Ġaller": 2110,
      "Ġco": 2111,
      "atur": 2112,
      "Ġlieben": 2113,
      "asch": 2114,
      "Ġunterricht": 2115,
      "Ġsonnen": 2116,
      "Ġsonntag": 2117,
      "Ġspazieren": 2118,
      "ift": 2119,
      "zeitig": 2120,
      "jen": 2121,
      "lei": 2122,
      "Ġreg": 2123,
      "Ġregnet": 2124,
      "Ġdunkel": 2125,
      "ĠgefÃ¤hrlich": 2126,
      "Ġhau": 2127,
      "ennt": 2128,
      "Ġmeines": 2129,
      "Ġecht": 2130,
      "Ġsterben": 2131,
      "Ġcomputer": 2132,
      "ak": 2133,
      "lig": 2134,
      "mann": 2135,
      "Ġschme": 2136,
      "utz": 2137,
      "ĠkÃ¶nntet": 2138,
      "Ġsprachen": 2139,
      "holen": 2140,
      "Ġschaffen": 2141,
      "eiben": 2142,
      "Ġtu": 2143,
      "denken": 2144,
      "mmern": 2145,
      "Ġalten": 2146,
      "Ġjede": 2147,
      "Ġversteht": 2148,
      "Ġruhig": 2149,
      "Ġy": 2150,
      "Ġgez": 2151,
      "gnet": 2152,
      "atte": 2153,
      "Ġversprochen": 2154,
      "ppen": 2155,
      "ĠlÃ¶sen": 2156,
      "Ġtanzen": 2157,
      "ho": 2158,
      "Ġgesicht": 2159,
      "Ġbibliothek": 2160,
      "Ġwollten": 2161,
      "Ġgewonnen": 2162,
      "isk": 2163,
      "ĠwÃ¤r": 2164,
      "Ġbenutzen": 2165,
      "Ġzuge": 2166,
      "Ġwartet": 2167,
      "mp": 2168,
      "pa": 2169,
      "ĠlÃ¤u": 2170,
      "ĠgebÃ¤u": 2171,
      "ieg": 2172,
      "Ġauszu": 2173,
      "Ġvorh": 2174,
      "Ġeier": 2175,
      "Ġversprechen": 2176,
      "Ġbetrunken": 2177,
      "Ġwunder": 2178,
      "Ġkir": 2179,
      "Ġfar": 2180,
      "Ġeink": 2181,
      "reck": 2182,
      "Ġrot": 2183,
      "Ġbrille": 2184,
      "ĠkÃ¼che": 2185,
      "Ġruhe": 2186,
      "Ġord": 2187,
      "Ġstudenten": 2188,
      "Ġangefangen": 2189,
      "Ġbeeindru": 2190,
      "nahm": 2191,
      "zehn": 2192,
      "aschen": 2193,
      "Ã¼hm": 2194,
      "Ġschiff": 2195,
      "ĠverrÃ¼ckt": 2196,
      "Ġbericht": 2197,
      "ĠkÃ¼mmern": 2198,
      "Ġkor": 2199,
      "ĠmÃ¼sst": 2200,
      "Ġwelcher": 2201,
      "Ġkaufte": 2202,
      "ĠplÃ¶t": 2203,
      "Ġfernsehen": 2204,
      "Ġsetzte": 2205,
      "Ġerledigen": 2206,
      "isten": 2207,
      "eitet": 2208,
      "Ġwach": 2209,
      "ĠwÃ¼s": 2210,
      "Ġpfl": 2211,
      "Ġstar": 2212,
      "Ġbesteht": 2213,
      "Ġschlechte": 2214,
      "Ã¼cht": 2215,
      "Ġfort": 2216,
      "Ġladen": 2217,
      "Ġweinen": 2218,
      "ĠnervÃ¶s": 2219,
      "jenige": 2220,
      "voll": 2221,
      "Ġgebracht": 2222,
      "llo": 2223,
      "Ġwolle": 2224,
      "Ġblieb": 2225,
      "ĠÃ¶ffnen": 2226,
      "Ġreparieren": 2227,
      "mt": 2228,
      "ÃŁte": 2229,
      "Ġseines": 2230,
      "Ġsagst": 2231,
      "Ġlegte": 2232,
      "gere": 2233,
      "ĠkÃ¼hl": 2234,
      "Ġkatzen": 2235,
      "Ġsetzen": 2236,
      "Ġmer": 2237,
      "ĠkÃ¼mmer": 2238,
      "Ġrufen": 2239,
      "uldig": 2240,
      "Ġbegann": 2241,
      "ĠprÃ¼fung": 2242,
      "ĠplÃ¶tzlich": 2243,
      "ĠstÃ¼ck": 2244,
      "app": 2245,
      "Ġweniger": 2246,
      "pro": 2247,
      "Ġqu": 2248,
      "Ã¤h": 2249,
      "Ġpar": 2250,
      "Ġgeschlossen": 2251,
      "blieben": 2252,
      "offer": 2253,
      "Ġlustig": 2254,
      "Ġsal": 2255,
      "Ġverstanden": 2256,
      "Ġfahre": 2257,
      "ĠwÃ¶rterbuch": 2258,
      "Ġaufs": 2259,
      "gert": 2260,
      "ĠgebÃ¤ude": 2261,
      "eite": 2262,
      "Ã¶st": 2263,
      "Ġauss": 2264,
      "gelernt": 2265,
      "Ġbrachte": 2266,
      "ĠÃ¼berle": 2267,
      "Ġfindet": 2268,
      "Ġeis": 2269,
      "hause": 2270,
      "gabe": 2271,
      "Ġstatt": 2272,
      "Ġres": 2273,
      "Ġklasse": 2274,
      "hung": 2275,
      "Ġpost": 2276,
      "Ġmiteinander": 2277,
      "Ġkennengelernt": 2278,
      "mÃ¶glich": 2279,
      "Ġeins": 2280,
      "Ġspreche": 2281,
      "Ġdarfst": 2282,
      "ĠverspÃ¤": 2283,
      "Ġbab": 2284,
      "ĠmÃ¼he": 2285,
      "Ġvermis": 2286,
      "abt": 2287,
      "als": 2288,
      "Ġtaxi": 2289,
      "Ġbaby": 2290,
      "bot": 2291,
      "Ġmut": 2292,
      "Ġkoch": 2293,
      "Ġkoffer": 2294,
      "ĠschÃ¤t": 2295,
      "orgt": 2296,
      "Ġjedes": 2297,
      "ĠberÃ¼hm": 2298,
      "ĠhÃ¼b": 2299,
      "Ġehrlich": 2300,
      "Ġgearbeitet": 2301,
      "Ġabzu": 2302,
      "Ġunserer": 2303,
      "Ġtrinkt": 2304,
      "Ġchan": 2305,
      "Ġrichtige": 2306,
      "Ġperson": 2307,
      "Ġfunktioniert": 2308,
      "Ġluft": 2309,
      "Ġhemd": 2310,
      "uation": 2311,
      "order": 2312,
      "reiten": 2313,
      "Ġgenommen": 2314,
      "Ġwelchen": 2315,
      "Ġhoff": 2316,
      "zert": 2317,
      "ĠwÃ¼rdet": 2318,
      "Ġsprache": 2319,
      "halt": 2320,
      "Ġanfangen": 2321,
      "Ġschreibtisch": 2322,
      "zusehen": 2323,
      "Ġname": 2324,
      "gegangen": 2325,
      "Ġblick": 2326,
      "immel": 2327,
      "Ġsituation": 2328,
      "Ġfleisch": 2329,
      "Ġkaput": 2330,
      "Ġwinter": 2331,
      "ĠbÃ¶se": 2332,
      "Ġche": 2333,
      "Ã¼gen": 2334,
      "Ã¤ss": 2335,
      "ahrung": 2336,
      "bleiben": 2337,
      "Ġgeheiratet": 2338,
      "ĠÃ¶ffnete": 2339,
      "Ġboden": 2340,
      "Ã¶ff": 2341,
      "reten": 2342,
      "Ġbil": 2343,
      "Ġbesucht": 2344,
      "Ġentf": 2345,
      "Ġangekommen": 2346,
      "Ġfreundlich": 2347,
      "Ġlehrerin": 2348,
      "Ġfernseher": 2349,
      "teil": 2350,
      "Ġlaut": 2351,
      "Ã¶l": 2352,
      "Ġhilft": 2353,
      "Ġsitzen": 2354,
      "ieht": 2355,
      "Ġmo": 2356,
      "Ġversuche": 2357,
      "Ġeben": 2358,
      "Ġgewartet": 2359,
      "fahren": 2360,
      "schrank": 2361,
      "ĠfÃ¼rchte": 2362,
      "Ġliest": 2363,
      "Ġkonnten": 2364,
      "Ġleihen": 2365,
      "Ġstudieren": 2366,
      "rer": 2367,
      "Ġschlief": 2368,
      "Ġordnung": 2369,
      "ĠwÃ¼sste": 2370,
      "wend": 2371,
      "era": 2372,
      "eren": 2373,
      "Ġmel": 2374,
      "Ġstill": 2375,
      "Ġbringt": 2376,
      "Ġblau": 2377,
      "Ġworum": 2378,
      "laub": 2379,
      "Ġdauern": 2380,
      "Ġkleine": 2381,
      "Ġtod": 2382,
      "karte": 2383,
      "Ġzer": 2384,
      "achtet": 2385,
      "Ġentlassen": 2386,
      "heiten": 2387,
      "eist": 2388,
      "Ġnachdem": 2389,
      "Ġmeinte": 2390,
      "Ġverwir": 2391,
      "zte": 2392,
      "Ġungl": 2393,
      "schmerzen": 2394,
      "Ġgewohnt": 2395,
      "Ġfrem": 2396,
      "mittel": 2397,
      "Ġkleinen": 2398,
      "Ġkrieg": 2399,
      "Ġuni": 2400,
      "Ġbefindet": 2401,
      "Ġsonne": 2402,
      "Ġdo": 2403,
      "Ġtief": 2404,
      "gem": 2405,
      "Ġbehande": 2406,
      "ĠhÃ¶re": 2407,
      "Ġhaupt": 2408,
      "Ġdahin": 2409,
      "wohn": 2410,
      "Ġsitzt": 2411,
      "Ġkonzert": 2412,
      "Ġtats": 2413,
      "Ġchef": 2414,
      "haft": 2415,
      "Ġnun": 2416,
      "Ġzuerst": 2417,
      "Ġfreunden": 2418,
      "Ġverkehr": 2419,
      "Ġirgendwel": 2420,
      "Ġgitarre": 2421,
      "kam": 2422,
      "Ġmesser": 2423,
      "Ġhimmel": 2424,
      "Ġteuer": 2425,
      "Ġzahn": 2426,
      "Ġjemals": 2427,
      "izz": 2428,
      "Ġgespielt": 2429,
      "unehmen": 2430,
      "Ġfa": 2431,
      "Ġbesuch": 2432,
      "Ġschloss": 2433,
      "Ã¼nst": 2434,
      "Ġerinnere": 2435,
      "Ġroman": 2436,
      "hafen": 2437,
      "oÃŁ": 2438,
      "wagen": 2439,
      "Ġliste": 2440,
      "ĠstÃ¤ndig": 2441,
      "ĠkÃ¶nne": 2442,
      "Ġlief": 2443,
      "Ã¤hlt": 2444,
      "Ġbekam": 2445,
      "Ġflugzeug": 2446,
      "Ġausland": 2447,
      "Ġamerikan": 2448,
      "kehr": 2449,
      "Ġlag": 2450,
      "Ġhattest": 2451,
      "Ġprob": 2452,
      "undet": 2453,
      "Ġleiden": 2454,
      "Ġletztemal": 2455,
      "fr": 2456,
      "min": 2457,
      "Ġehe": 2458,
      "Ġleu": 2459,
      "Ġbrauchte": 2460,
      "Ġherz": 2461,
      "Ġsofa": 2462,
      "Ġflughafen": 2463,
      "ĠfÃ¼hlte": 2464,
      "Ġkaputt": 2465,
      "si": 2466,
      "Ġ\"": 2467,
      "rech": 2468,
      "Ġmantel": 2469,
      "Ġfoto": 2470,
      "Ġtyp": 2471,
      "Ġret": 2472,
      "Ġgeschickt": 2473,
      "ĠwÃ¤ren": 2474,
      "Ġpferd": 2475,
      "Ġchance": 2476,
      "ka": 2477,
      "ichtet": 2478,
      "ĠgÃ¤": 2479,
      "Ġvo": 2480,
      "Ġeinzu": 2481,
      "igte": 2482,
      "Ġherr": 2483,
      "Ġhungrig": 2484,
      "Ġmedik": 2485,
      "Ġgesundheit": 2486,
      "bald": 2487,
      "Ġschreck": 2488,
      "Ġras": 2489,
      "zeich": 2490,
      "ĠbenÃ¶t": 2491,
      "Ġverkaufen": 2492,
      "ker": 2493,
      "ma": 2494,
      "dete": 2495,
      "ĠmÃ¶chtet": 2496,
      "Ġzwar": 2497,
      "ĠÃ¼br": 2498,
      "fel": 2499,
      "gung": 2500,
      "hei": 2501,
      "Ġzuhause": 2502,
      "Ġsieben": 2503,
      "Ġpasst": 2504,
      "Ġpizz": 2505,
      "blick": 2506,
      "Ġirgendwelche": 2507,
      "form": 2508,
      "endet": 2509,
      "ante": 2510,
      "Ġzukunft": 2511,
      "Ġschlimm": 2512,
      "ott": 2513,
      "ĠÃ¤pfel": 2514,
      "Ġgebraucht": 2515,
      "!âĢľ": 2516,
      "vater": 2517,
      "Ġon": 2518,
      "Ġak": 2519,
      "Ã¼ben": 2520,
      "Ġsk": 2521,
      "eigt": 2522,
      "Ġzucker": 2523,
      "Ġschal": 2524,
      "liches": 2525,
      "ĠgehÃ¶r": 2526,
      "Ġabge": 2527,
      "Ġkamera": 2528,
      "Ġentschieden": 2529,
      "Ġleider": 2530,
      "ĠgegenÃ¼ber": 2531,
      "ild": 2532,
      "Ġbade": 2533,
      "Ġunterhalten": 2534,
      "Ġgestr": 2535,
      "Ġ19": 2536,
      "ĠhÃ¤ltst": 2537,
      "Ġmet": 2538,
      "Ġkra": 2539,
      "Ġzust": 2540,
      "send": 2541,
      "Ġjob": 2542,
      "Ġgefangen": 2543,
      "Ġzeitung": 2544,
      "ĠkÃ¼ssen": 2545,
      "ĠÃ¤hn": 2546,
      "Ġunterschied": 2547,
      "Ġweihnachten": 2548,
      "Ġans": 2549,
      "Ġschlie": 2550,
      "Ġscheinen": 2551,
      "Ġkompl": 2552,
      "ĠlÃ¤cheln": 2553,
      "dingt": 2554,
      "Ġze": 2555,
      "Ġeinander": 2556,
      "orf": 2557,
      "Ġmitgebracht": 2558,
      "ĠschlieÃŁen": 2559,
      "ĠgroÃŁer": 2560,
      "ĠgekÃ¼": 2561,
      "tragen": 2562,
      "ĠerwÃ¤": 2563,
      "Ġgetrunken": 2564,
      "Ġmotor": 2565,
      "Ġwand": 2566,
      "Ġkostet": 2567,
      "Ġfein": 2568,
      "Ġeinl": 2569,
      "ino": 2570,
      "Ġtages": 2571,
      "Ġwohnung": 2572,
      "Ã¼tzen": 2573,
      "oten": 2574,
      "Ġball": 2575,
      "Ġkiste": 2576,
      "Ġerreichen": 2577,
      "stelle": 2578,
      "Ġgefahr": 2579,
      "Ġgedanken": 2580,
      "Ġschneller": 2581,
      "Ġnormalerweise": 2582,
      "Ġdran": 2583,
      "Ġwitz": 2584,
      "Ã¤llig": 2585,
      "Ġschen": 2586,
      "etten": 2587,
      "ĠgemÃ¼": 2588,
      "Ġkamen": 2589,
      "Ġsee": 2590,
      "ĠsÃ¼ÃŁ": 2591,
      "Ġunbedingt": 2592,
      "Ġurlaub": 2593,
      "ĠjÃ¼nger": 2594,
      "Ġunw": 2595,
      "urm": 2596,
      "Ġeuren": 2597,
      "Ġabgesch": 2598,
      "Ġbewusst": 2599,
      "Ġbedeutet": 2600,
      "aschine": 2601,
      "ium": 2602,
      "omas": 2603,
      "Ġgehabt": 2604,
      "ramm": 2605,
      "Ġangelegenheit": 2606,
      "Ġruf": 2607,
      "Ġverkauft": 2608,
      "ĠnÃ¶t": 2609,
      "Ġschrieb": 2610,
      "ĠunmÃ¶glich": 2611,
      "ĠverÃ¤r": 2612,
      "Ġbege": 2613,
      "ĠschlÃ¤ft": 2614,
      "Ġberu": 2615,
      "ĠaufgehÃ¶rt": 2616,
      "Ġanwalt": 2617,
      "Ġunivers": 2618,
      "zunehmen": 2619,
      "Ġgeblieben": 2620,
      "Ġwarm": 2621,
      "Ġsobald": 2622,
      "Ġgesucht": 2623,
      "Ġsport": 2624,
      "Ġwisst": 2625,
      "Ġums": 2626,
      "Ġspiele": 2627,
      "Ġsahen": 2628,
      "Ġangebot": 2629,
      "Ġsitzung": 2630,
      "Ġantworten": 2631,
      "Ġchin": 2632,
      "Ġholen": 2633,
      "Ġtraurig": 2634,
      "Ġtaschen": 2635,
      "arf": 2636,
      "Ġderjenige": 2637,
      "Ġbring": 2638,
      "ĠdrÃ¼ben": 2639,
      "Ġeingesch": 2640,
      "Ã¼nd": 2641,
      "Ã¼nkt": 2642,
      "gefÃ¤hr": 2643,
      "Ġthomas": 2644,
      "ĠkÃ¼hlschrank": 2645,
      "Ġwider": 2646,
      "ĠwiÃŁt": 2647,
      "Ġgeschlafen": 2648,
      "Ġlernt": 2649,
      "Ġkosten": 2650,
      "ĠÃ¤rzt": 2651,
      "akt": 2652,
      "ortet": 2653,
      "Ġangel": 2654,
      "Ġstieg": 2655,
      "Ġwolltest": 2656,
      "Ġdarin": 2657,
      "Ġabsicht": 2658,
      "ĠschÃ¶nes": 2659,
      "Ġfindest": 2660,
      "Ġstudent": 2661,
      "Ġsauber": 2662,
      "ĠhÃ¼bsch": 2663,
      "Ġonkel": 2664,
      "piel": 2665,
      "Ġwind": 2666,
      "ause": 2667,
      "Ġaufgabe": 2668,
      "Ġliegen": 2669,
      "Ġverspr": 2670,
      "antwort": 2671,
      "kommt": 2672,
      "wÃ¼r": 2673,
      "Ġverein": 2674,
      "Ġdamals": 2675,
      "Ġsolle": 2676,
      "Ġschlug": 2677,
      "merk": 2678,
      "ĠlÃ¤uft": 2679,
      "Ã¼nktlich": 2680,
      "Ġter": 2681,
      "ĠaÃŁ": 2682,
      "gestellt": 2683,
      "Ġverab": 2684,
      "Ġsow": 2685,
      "ĠpÃ¼nktlich": 2686,
      "Ġbesorgt": 2687,
      "Ġblut": 2688,
      "innt": 2689,
      "Ġgelassen": 2690,
      "Ġradio": 2691,
      "lernen": 2692,
      "Ġoben": 2693,
      "Ġjedem": 2694,
      "Ġmorgens": 2695,
      "Ã¤rm": 2696,
      "Ġvergiss": 2697,
      "Ġfolgen": 2698,
      "Ġsuche": 2699,
      "Ġmill": 2700,
      "Ġker": 2701,
      "ged": 2702,
      "Ġdenen": 2703,
      "Ġsta": 2704,
      "Ġrief": 2705,
      "Ġmehrere": 2706,
      "Ġhalf": 2707,
      "Ġeigenen": 2708,
      "Ã¤umen": 2709,
      "aseball": 2710,
      "ichten": 2711,
      "Ġschmer": 2712,
      "Ġallem": 2713,
      "Ġmeer": 2714,
      "sprache": 2715,
      "Ġpizza": 2716,
      "zut": 2717,
      "Ġkino": 2718,
      "Ġgestellt": 2719,
      "Ġschirm": 2720,
      "Ġerg": 2721,
      "Ġverbringen": 2722,
      "Ġregeln": 2723,
      "iker": 2724,
      "Ġelke": 2725,
      "Ġschlechter": 2726,
      "Ġerwarten": 2727,
      "Ġwelchem": 2728,
      "Ġsprichst": 2729,
      "Ġkirche": 2730,
      "Ġfarbe": 2731,
      "id": 2732,
      "Ġdick": 2733,
      "Ġmat": 2734,
      "Ġbaseball": 2735,
      "Ġunver": 2736,
      "ĠungefÃ¤hr": 2737,
      "Ġwohne": 2738,
      "Ġbegl": 2739,
      "Ġwiedersehen": 2740,
      "Ġentscheiden": 2741,
      "Ġverpasst": 2742,
      "fahr": 2743,
      "Ġdisk": 2744,
      "ĠÃ¼berall": 2745,
      "ament": 2746,
      "Ã¤ng": 2747,
      "ĠgroÃŁart": 2748,
      "Ġrechtzeitig": 2749,
      "lung": 2750,
      "Ġort": 2751,
      "Ġkart": 2752,
      "Ã¤ngst": 2753,
      "Ġstell": 2754,
      "Ġhinein": 2755,
      "Ġarbeits": 2756,
      "eilt": 2757,
      "ingel": 2758,
      "ĠbrÃ¼cke": 2759,
      "Ġbekannt": 2760,
      "Ġtrot": 2761,
      "merksam": 2762,
      "Ġgol": 2763,
      "Ġfallen": 2764,
      "ret": 2765,
      "Ġvorher": 2766,
      "brochen": 2767,
      "Ġhob": 2768,
      "Ġvermut": 2769,
      "Ġbehalten": 2770,
      "Ġvoller": 2771,
      "Ġsolche": 2772,
      "dig": 2773,
      "passen": 2774,
      "Ġthe": 2775,
      "Ġhart": 2776,
      "Ġfirm": 2777,
      "Ġverantwort": 2778,
      "Ġaufmerksam": 2779,
      "Ġgewusst": 2780,
      "Ġnahe": 2781,
      "Ġdre": 2782,
      "Ġhu": 2783,
      "Ġfau": 2784,
      "Ġeinsam": 2785,
      "Ġlas": 2786,
      "ativ": 2787,
      "Ġbesp": 2788,
      "ĠgefÃ¼hl": 2789,
      "Ġklassen": 2790,
      "Ġunterst": 2791,
      "Ġtrinke": 2792,
      "istisch": 2793,
      "Ã¼hrt": 2794,
      "Ġweihnacht": 2795,
      "Ġgemeinsam": 2796,
      "Ġdien": 2797,
      "eile": 2798,
      "Ġku": 2799,
      "atÃ¼r": 2800,
      "Ġbrie": 2801,
      "Ġnieder": 2802,
      "Ġklingt": 2803,
      "Ġunseren": 2804,
      "Ġtraf": 2805,
      "Ġunrecht": 2806,
      "Ġwartete": 2807,
      "Ġph": 2808,
      "Ġbrach": 2809,
      "verstanden": 2810,
      "Ġerfahrung": 2811,
      "Ġaufgew": 2812,
      "Ã¤umt": 2813,
      "Ġschwarz": 2814,
      "Ġerdbe": 2815,
      "ip": 2816,
      "Ġmund": 2817,
      "Ġmiss": 2818,
      "Ġtraum": 2819,
      "ĠfranzÃ¶sische": 2820,
      "Ġhoffen": 2821,
      "Ġreisen": 2822,
      "Ġtelefonn": 2823,
      "Ġstudiert": 2824,
      "blich": 2825,
      "mel": 2826,
      "ph": 2827,
      "Ġma": 2828,
      "Ġtoll": 2829,
      "ese": 2830,
      "ĠzÃ¤": 2831,
      "Ġwieso": 2832,
      "urs": 2833,
      "Ġleer": 2834,
      "ĠgroÃŁvater": 2835,
      "ĠÃ¤uÃŁ": 2836,
      "Ġoffensichtlich": 2837,
      "ĠÃ¼brig": 2838,
      "Ġfirma": 2839,
      "dest": 2840,
      "reundet": 2841,
      "Ġju": 2842,
      "igten": 2843,
      "Ġbeob": 2844,
      "Ġklug": 2845,
      "Ġhingehen": 2846,
      "Ġrufe": 2847,
      "Ġrechts": 2848,
      "ĠzufÃ¤llig": 2849,
      "Ġliebsten": 2850,
      "ĠpersÃ¶n": 2851,
      "Ġkek": 2852,
      "Ġeinkaufen": 2853,
      "Ġziel": 2854,
      "isches": 2855,
      "Ġabs": 2856,
      "weis": 2857,
      "Ġversteh": 2858,
      "Ġlerne": 2859,
      "Ġschmeckt": 2860,
      "Ġvermutlich": 2861,
      "du": 2862,
      "finden": 2863,
      "ic": 2864,
      "will": 2865,
      "Ġdorf": 2866,
      "Ġnimmt": 2867,
      "Ġergeb": 2868,
      "Ġvorstellen": 2869,
      "Ġalso": 2870,
      "Ġmanche": 2871,
      "ĠfranzÃ¶sischlehrer": 2872,
      "gerte": 2873,
      "pfer": 2874,
      "Ġmarys": 2875,
      "aune": 2876,
      "ĠrÃ¼cken": 2877,
      "Ġbeeindruckt": 2878,
      "pft": 2879,
      "wert": 2880,
      "Åį": 2881,
      "Ġeindruck": 2882,
      "Ġvern": 2883,
      "utzen": 2884,
      "fekt": 2885,
      "Ġbeschlossen": 2886,
      "Ġbleibe": 2887,
      "Ġthem": 2888,
      "Ġhoffnung": 2889,
      "gern": 2890,
      "Ġinform": 2891,
      "ierten": 2892,
      "ale": 2893,
      "weif": 2894,
      "Ġflasche": 2895,
      "haben": 2896,
      "ĠÃ¤rztin": 2897,
      "Ġeil": 2898,
      "Ġsucht": 2899,
      "Ġwald": 2900,
      "Ġgep": 2901,
      "Ġerre": 2902,
      "ierst": 2903,
      "cks": 2904,
      "Ġvorschlag": 2905,
      "Ġobwohl": 2906,
      "Ġgleichen": 2907,
      "Ġbenutzt": 2908,
      "ute": 2909,
      "Ġwitze": 2910,
      "ĠtÃ¶": 2911,
      "schrift": 2912,
      "Ġvergangen": 2913,
      "Ġsagtest": 2914,
      "Ã¤uf": 2915,
      "schluss": 2916,
      "Ġstuhl": 2917,
      "Ġlangweilig": 2918,
      "Ġtelefonnummer": 2919,
      "Ġadr": 2920,
      "Ġgebt": 2921,
      "schalten": 2922,
      "ĠbrÃ¼": 2923,
      "Ġeurer": 2924,
      "Ġschwimm": 2925,
      "Ġpolizist": 2926,
      "Ġdankbar": 2927,
      "Ġbilder": 2928,
      "ĠuniversitÃ¤t": 2929,
      "chtern": 2930,
      "ĠgeÃ¤ndert": 2931,
      "ĠlÃ¤rm": 2932,
      "Ġschade": 2933,
      "Ġgeschw": 2934,
      "Ġscheinst": 2935,
      "Ġreis": 2936,
      "ĠerzÃ¤hlte": 2937,
      "Ġbefreundet": 2938,
      "Ġpolit": 2939,
      "Ġfreuen": 2940,
      "ket": 2941,
      "ĠnatÃ¼r": 2942,
      "Ġschach": 2943,
      "gendet": 2944,
      "Ġrannte": 2945,
      "ischer": 2946,
      "ĠbloÃŁ": 2947,
      "Ġdeswegen": 2948,
      "Ġirgendet": 2949,
      "Ġzeigte": 2950,
      "Ġanfang": 2951,
      "Ġpapier": 2952,
      "ĠnÃ¶tig": 2953,
      "Ġirgendetwas": 2954,
      "eihen": 2955,
      "Ġmie": 2956,
      "Ġign": 2957,
      "Ġpause": 2958,
      "Ġspielte": 2959,
      "Ġfehlt": 2960,
      "geschlagen": 2961,
      "Ġignor": 2962,
      "dien": 2963,
      "zahl": 2964,
      "stadt": 2965,
      "geht": 2966,
      "Ġwarf": 2967,
      "ĠgefÃ¼hle": 2968,
      "rakt": 2969,
      "Ġhinaus": 2970,
      "Ġsicherheit": 2971,
      "Ġdanken": 2972,
      "gefallen": 2973,
      "Ġzahlen": 2974,
      "Ã¤nde": 2975,
      "Ã¤ngt": 2976,
      "Ġseien": 2977,
      "Ġkleiner": 2978,
      "ĠlÃ¼gen": 2979,
      "rte": 2980,
      "Ġverbracht": 2981,
      "Ġober": 2982,
      "Ġeuro": 2983,
      "gelassen": 2984,
      "Ġberg": 2985,
      "loss": 2986,
      "ĠtÃ¤te": 2987,
      "ĠÃ¼bersetzen": 2988,
      "ĠÃ¼berzeugt": 2989,
      "ĠgemÃ¼se": 2990,
      "ĠverÃ¤rgert": 2991,
      "Ġsold": 2992,
      "ument": 2993,
      "Ġwaschen": 2994,
      "Ġnachrichten": 2995,
      "gewÃ¶hn": 2996,
      "hundert": 2997,
      "Ġ5": 2998,
      "Ġtiere": 2999,
      "Ġzeu": 3000,
      "Ġdavor": 3001,
      "ĠworÃ¼ber": 3002,
      "ogra": 3003,
      "Ġfinger": 3004,
      "stellung": 3005,
      "Ġverstehst": 3006,
      "acken": 3007,
      "mutter": 3008,
      "Ġdeut": 3009,
      "Ġhasst": 3010,
      "Ġkarte": 3011,
      "Ġverschl": 3012,
      "licher": 3013,
      "Ġgefiel": 3014,
      "ĠâĢĶ": 3015,
      "Ġneun": 3016,
      "Ġgebrochen": 3017,
      "ĠschÃ¤": 3018,
      "prÃ¤ch": 3019,
      "ĠdrÃ¼ck": 3020,
      "Ġschnei": 3021,
      "okol": 3022,
      "Ġsorge": 3023,
      "Ġtrotz": 3024,
      "Ġtor": 3025,
      "inken": 3026,
      "lligen": 3027,
      "Ã¤us": 3028,
      "altet": 3029,
      "Ã¶rder": 3030,
      "ĠblÃ¶": 3031,
      "affen": 3032,
      "Ġhilf": 3033,
      "Ġdanach": 3034,
      "arbeit": 3035,
      "Ġmoch": 3036,
      "Ġsieh": 3037,
      "ond": 3038,
      "ĠverÃ¤ndert": 3039,
      "umm": 3040,
      "Ġstock": 3041,
      "Ġverlor": 3042,
      "Ġmannschaft": 3043,
      "Ġnachbarn": 3044,
      "Ġweihnachts": 3045,
      "fallen": 3046,
      "Ġdok": 3047,
      "auer": 3048,
      "ÃŁchen": 3049,
      "Ġpat": 3050,
      "Ġaufhalten": 3051,
      "Ġmeinst": 3052,
      "ĠschlieÃŁ": 3053,
      "Ġbeschwer": 3054,
      "ĠwÃ¤rest": 3055,
      "Ġsuper": 3056,
      "Ġgo": 3057,
      "Ġschokol": 3058,
      "itzt": 3059,
      "Ġangeln": 3060,
      "waschen": 3061,
      "ĠwÃ¤hlen": 3062,
      "Ġdreimal": 3063,
      "ĠgroÃŁes": 3064,
      "Ġwussten": 3065,
      "Ġamerika": 3066,
      "Ġgolf": 3067,
      "ĠzÃ¤hne": 3068,
      "bs": 3069,
      "bnis": 3070,
      "wie": 3071,
      "zÃ¼": 3072,
      "stern": 3073,
      "Ġhundert": 3074,
      "Ġkil": 3075,
      "Ġlink": 3076,
      "Ġunten": 3077,
      "schn": 3078,
      "ĠbiÃŁchen": 3079,
      "Ã¤tze": 3080,
      "Ġkleidung": 3081,
      "Ġautos": 3082,
      "Ġentschuldigung": 3083,
      "ĠfÃ¼hrt": 3084,
      "spieler": 3085,
      "Ã¶ffnet": 3086,
      "gie": 3087,
      "Ġgelegenheit": 3088,
      "ierung": 3089,
      "Ġpassen": 3090,
      "Ġglaubte": 3091,
      "Ã¤chlich": 3092,
      "Ġirgendwie": 3093,
      "Ġadresse": 3094,
      "Ġnein": 3095,
      "arm": 3096,
      "Ġfangen": 3097,
      "irgend": 3098,
      "Ġerh": 3099,
      "Ġunsch": 3100,
      "Ġstreiten": 3101,
      "Ġobst": 3102,
      "atten": 3103,
      "Ġunternehmen": 3104,
      "ionen": 3105,
      "tritt": 3106,
      "Ġhandt": 3107,
      "ack": 3108,
      "aubt": 3109,
      "itzen": 3110,
      "anzig": 3111,
      "ĠamÃ¼s": 3112,
      "ffentlich": 3113,
      "Ġschuldig": 3114,
      "Ġ201": 3115,
      "ĠmÃ¼sse": 3116,
      "Ġpflanz": 3117,
      "Ġverwirrt": 3118,
      "Ġthema": 3119,
      "Ġnirgend": 3120,
      "Ġkun": 3121,
      "Ġlese": 3122,
      "Ġanschein": 3123,
      "ĠstÃ¤r": 3124,
      "zugehen": 3125,
      "zentr": 3126,
      "Ġmonate": 3127,
      "Ġvertrau": 3128,
      "jekt": 3129,
      "zer": 3130,
      "Ġvert": 3131,
      "eter": 3132,
      "Ġgesetz": 3133,
      "Ġsollst": 3134,
      "iziert": 3135,
      "Ġbeleid": 3136,
      "ĠprÃ¤": 3137,
      "Ġvogel": 3138,
      "Ġsoweit": 3139,
      "inen": 3140,
      "Ġauge": 3141,
      "tert": 3142,
      "ĠmÃ¶glicherweise": 3143,
      "Ġtok": 3144,
      "ĠerklÃ¤rt": 3145,
      "Ġfreude": 3146,
      "Ġentfernt": 3147,
      "ĠgekÃ¼sst": 3148,
      "ften": 3149,
      "rat": 3150,
      "sinn": 3151,
      "uer": 3152,
      "Ġteu": 3153,
      "Ġerde": 3154,
      "eum": 3155,
      "Ġvorber": 3156,
      "zukommen": 3157,
      "auspiel": 3158,
      "Ġflie": 3159,
      "icken": 3160,
      "Ã¤lte": 3161,
      "Ã¤hlen": 3162,
      "schlieÃŁen": 3163,
      "Ġerinnert": 3164,
      "zur": 3165,
      "stift": 3166,
      "itte": 3167,
      "schr": 3168,
      "ĠschlÃ¤": 3169,
      "Ġbleib": 3170,
      "Ġnachts": 3171,
      "Ġminute": 3172,
      "krie": 3173,
      "watte": 3174,
      "ĠhÃ¤uf": 3175,
      "angt": 3176,
      "reut": 3177,
      "Ġopt": 3178,
      "Ġredet": 3179,
      "ĠÃ¼berre": 3180,
      "Ġlebe": 3181,
      "Ġtrank": 3182,
      "Ġhochzeit": 3183,
      "Ġrechner": 3184,
      "nahme": 3185,
      "Ġleuten": 3186,
      "Ġschmerz": 3187,
      "bes": 3188,
      "Ġsand": 3189,
      "anten": 3190,
      "Ġverraten": 3191,
      "Ġschluss": 3192,
      "ĠverlieÃŁ": 3193,
      "Ġunserem": 3194,
      "Ġworte": 3195,
      "ĠstraÃŁen": 3196,
      "ĠgrÃ¶ÃŁte": 3197,
      "Ġversteckt": 3198,
      "Ġbemerkte": 3199,
      "Ġergebnis": 3200,
      "Ġtal": 3201,
      "Ġvi": 3202,
      "Ġgezogen": 3203,
      "ĠÃ¼berqu": 3204,
      "olgen": 3205,
      "ient": 3206,
      "Ġunters": 3207,
      "Ġbereu": 3208,
      "Ġfliegen": 3209,
      "Ġgekostet": 3210,
      "ĠschÃ¶ner": 3211,
      "Ġerlaubnis": 3212,
      "Ġschicken": 3213,
      "Ġstaaten": 3214,
      "Ġkunst": 3215,
      "iet": 3216,
      "arzt": 3217,
      "Ġfische": 3218,
      "Ã¤ge": 3219,
      "Ã¤ck": 3220,
      "Ġlehr": 3221,
      "ĠlÃ¶s": 3222,
      "Ġlehn": 3223,
      "Ã¤ne": 3224,
      "Ġentsp": 3225,
      "Ġmale": 3226,
      "Ġaugenblick": 3227,
      "Ġyen": 3228,
      "ibt": 3229,
      "kr": 3230,
      "koh": 3231,
      "Ġsatz": 3232,
      "ĠsÃ¤nger": 3233,
      "Ġbeeilen": 3234,
      "uÃŁt": 3235,
      "Ġgeliebt": 3236,
      "achtel": 3237,
      "Ġwusstest": 3238,
      "Ġminde": 3239,
      "Ġholz": 3240,
      "Ġsuppe": 3241,
      "markt": 3242,
      "ĠunterstÃ¼t": 3243,
      "Ġgott": 3244,
      "Ġeinverstanden": 3245,
      "Ġlasse": 3246,
      "Ã¶tet": 3247,
      "Ġant": 3248,
      "Ġnachdenken": 3249,
      "Ġreicht": 3250,
      "Ġregel": 3251,
      "Ġbeigebracht": 3252,
      "Ġgeschlagen": 3253,
      "Ġherunter": 3254,
      "Ġzweifel": 3255,
      "Ġgeduld": 3256,
      "ĠÃ¶ffentlich": 3257,
      "Ġvermissen": 3258,
      "platz": 3259,
      "oo": 3260,
      "uck": 3261,
      "Ġnase": 3262,
      "Ġschmerzen": 3263,
      "schirm": 3264,
      "Ġkannte": 3265,
      "Ġbeibringen": 3266,
      "Ġlegen": 3267,
      "Ġgeschn": 3268,
      "Ġwechsel": 3269,
      "ĠfÃ¼t": 3270,
      "Ġerwachsen": 3271,
      "Ġmedikament": 3272,
      "Ġkrawatte": 3273,
      "Ġaufgewachsen": 3274,
      "Ġ2013": 3275,
      "Ġanscheinend": 3276,
      "lÃ¤ss": 3277,
      "Ġzuzu": 3278,
      "ĠunhÃ¶": 3279,
      "Ġinte": 3280,
      "igkeiten": 3281,
      "Ġhervor": 3282,
      "ĠsaÃŁen": 3283,
      "Ġbestes": 3284,
      "izin": 3285,
      "Ġschreibe": 3286,
      "Ġvereinigten": 3287,
      "ĠbrÃ¼der": 3288,
      "gier": 3289,
      "ial": 3290,
      "zw": 3291,
      "Ġwessen": 3292,
      "Ġkarten": 3293,
      "Ġgegend": 3294,
      "ĠgeÃ¶ffnet": 3295,
      "elbe": 3296,
      "Ġgehalten": 3297,
      "Ġbehau": 3298,
      "ĠerklÃ¤rung": 3299,
      "sprach": 3300,
      "Ġsolange": 3301,
      "Ġschauspiel": 3302,
      "Ġpri": 3303,
      "Ġaussehen": 3304,
      "Ġunterr": 3305,
      "Ġzweimal": 3306,
      "Ġhandel": 3307,
      "Ġsek": 3308,
      "ĠberÃ¼hmt": 3309,
      "Ġinformation": 3310,
      "ograf": 3311,
      "Ġmindestens": 3312,
      "band": 3313,
      "brechen": 3314,
      "hte": 3315,
      "licht": 3316,
      "sÃ¼cht": 3317,
      "Ġsuch": 3318,
      "unfall": 3319,
      "Ġlaune": 3320,
      "Ġscher": 3321,
      "Ġschachtel": 3322,
      "orn": 3323,
      "ĠgetÃ¶tet": 3324,
      "Ġgelang": 3325,
      "Ġgelogen": 3326,
      "Ġirgendwas": 3327,
      "Ġsonder": 3328,
      "Ġtreppe": 3329,
      "obil": 3330,
      "ĠschÃ¼chtern": 3331,
      "Ġstimmte": 3332,
      "ĠkÃ¤me": 3333,
      "ĠnatÃ¼rlich": 3334,
      "Ġlinks": 3335,
      "pekt": 3336,
      "Ġkar": 3337,
      "Ġkal": 3338,
      "Ġjohn": 3339,
      "Ġrennen": 3340,
      "Ġausgesch": 3341,
      "weisen": 3342,
      "ĠheiÃŁen": 3343,
      "Ġtest": 3344,
      "ĠfÃ¤hrst": 3345,
      "Ġanzug": 3346,
      "ĠschÃ¤tzen": 3347,
      "kohol": 3348,
      "ĠunhÃ¶flich": 3349,
      "fÃ¤": 3350,
      "pel": 3351,
      "icher": 3352,
      "ĠfÃ¤": 3353,
      "Ġschaut": 3354,
      "Ġerster": 3355,
      "Ġankommen": 3356,
      "Ġschlimmer": 3357,
      "zept": 3358,
      "Ġinsel": 3359,
      "Ġgeschenkt": 3360,
      "Ġkontakt": 3361,
      "Ġsalz": 3362,
      "ell": 3363,
      "ĠbÃ¤ume": 3364,
      "Ġhallo": 3365,
      "Ġstein": 3366,
      "Ġris": 3367,
      "ahrscheinlich": 3368,
      "Ġmeint": 3369,
      "Ġumgehen": 3370,
      "olgt": 3371,
      "Ġtrat": 3372,
      "Ġneugier": 3373,
      "Ġew": 3374,
      "ĠkÃ¼s": 3375,
      "ĠerkÃ¤lt": 3376,
      "ĠfÃ¼hren": 3377,
      "Ġwenigstens": 3378,
      "Ġfalls": 3379,
      "Ġrechnung": 3380,
      "ĠmÃ¼sste": 3381,
      "Ġkontro": 3382,
      "Ġrespekt": 3383,
      "Ġkartoff": 3384,
      "bahn": 3385,
      "mus": 3386,
      "Ġeh": 3387,
      "stÃ¤nd": 3388,
      "ĠkÃ¼r": 3389,
      "Ã¼re": 3390,
      "auber": 3391,
      "Ġvoraus": 3392,
      "ĠgroÃŁmutter": 3393,
      "trag": 3394,
      "estern": 3395,
      "ĠmÃ¶glichkeit": 3396,
      "Ġohren": 3397,
      "Ġvermisst": 3398,
      "ĠunglÃ¼ck": 3399,
      "Ġretten": 3400,
      "ĠlÃ¶sung": 3401,
      "gramm": 3402,
      "seit": 3403,
      "stra": 3404,
      "Ġschauen": 3405,
      "Ġverhalten": 3406,
      "ĠwofÃ¼r": 3407,
      "Ġweise": 3408,
      "Ġhierbleiben": 3409,
      "reise": 3410,
      "Ġbeschloss": 3411,
      "Ġinteresse": 3412,
      "zeichnet": 3413,
      "Ġbriefe": 3414,
      "vert": 3415,
      "asste": 3416,
      "Ġnennen": 3417,
      "Ġzit": 3418,
      "Ġihres": 3419,
      "Ġumgebracht": 3420,
      "Ġschwestern": 3421,
      "Ġgeschah": 3422,
      "iko": 3423,
      "Ġverstand": 3424,
      "Ġeifer": 3425,
      "ĠschÃ¶nen": 3426,
      "ĠvÃ¶gel": 3427,
      "Ġmedizin": 3428,
      "Ġbemerkt": 3429,
      "Ã¼nstler": 3430,
      "Ġverabsch": 3431,
      "Ġbehaup": 3432,
      "ĠerkÃ¤ltung": 3433,
      "fon": 3434,
      "uppe": 3435,
      "Ġerhalten": 3436,
      "Ġwol": 3437,
      "ĠÃ¼bern": 3438,
      "Ã¤rt": 3439,
      "ĠhÃ¶rst": 3440,
      "Ġdessen": 3441,
      "Ġdeshalb": 3442,
      "halte": 3443,
      "Ġdrinnen": 3444,
      "Ġkleines": 3445,
      "ĠfÃ¼hrer": 3446,
      "Ġschaute": 3447,
      "Ġcous": 3448,
      "ĠkÃ¼mmert": 3449,
      "drÃ¼ck": 3450,
      "ens": 3451,
      "Ġdro": 3452,
      "ĠsÃ¤": 3453,
      "Ġtier": 3454,
      "Ġnetz": 3455,
      "Ġform": 3456,
      "dent": 3457,
      "Ġsoviel": 3458,
      "Ġmuseum": 3459,
      "Ġstellt": 3460,
      "Ġgeliehen": 3461,
      "prÃ¼": 3462,
      "Ġmond": 3463,
      "riff": 3464,
      "Ġverspreche": 3465,
      "Ġkekse": 3466,
      "sein": 3467,
      "Ġheut": 3468,
      "Ġtem": 3469,
      "ettet": 3470,
      "ĠgesprÃ¤ch": 3471,
      "ftig": 3472,
      "Ã¶rper": 3473,
      "zug": 3474,
      "ĠgerÃ¤u": 3475,
      "Ġgeraten": 3476,
      "Ġentschlossen": 3477,
      "wechsel": 3478,
      "Ġfehlen": 3479,
      "Ġperfekt": 3480,
      "ĠÃ¼berrasch": 3481,
      "ĠkÃ¤mp": 3482,
      "ĠgehÃ¶ren": 3483,
      "Ġsy": 3484,
      "Ġfur": 3485,
      "rem": 3486,
      "Ġgehalt": 3487,
      "Ġweile": 3488,
      "amp": 3489,
      "ikel": 3490,
      "Ġanderer": 3491,
      "Ġmonaten": 3492,
      "Ġwenige": 3493,
      "Ġbewunder": 3494,
      "Ġbeliebt": 3495,
      "ĠfleiÃŁig": 3496,
      "boden": 3497,
      "Ġfeind": 3498,
      "Ġabgeschlossen": 3499,
      "zie": 3500,
      "Ġbar": 3501,
      "ĠlÃ¤nder": 3502,
      "ÃŁten": 3503,
      "orfen": 3504,
      "utzt": 3505,
      "Ġschlag": 3506,
      "zent": 3507,
      "Ġzeig": 3508,
      "Ġbekommt": 3509,
      "Ġbehandelt": 3510,
      "Ġgold": 3511,
      "Ġerm": 3512,
      "Ġsowohl": 3513,
      "Ġsturm": 3514,
      "Ġsprecht": 3515,
      "Ġausgehen": 3516,
      "raft": 3517,
      "ĠgewÃ¤hlt": 3518,
      "Ġentw": 3519,
      "Ġwissenschaft": 3520,
      "Ġhalt": 3521,
      "Ġfotograf": 3522,
      "grund": 3523,
      "wendig": 3524,
      "Ġmochte": 3525,
      "Ġfurcht": 3526,
      "war": 3527,
      "Ġhassen": 3528,
      "Ã¤che": 3529,
      "Ġansehen": 3530,
      "Ġausmachen": 3531,
      "anzt": 3532,
      "Ġklingel": 3533,
      "Ġirgendein": 3534,
      "Ġfahrer": 3535,
      "ĠwuÃŁten": 3536,
      "Ġknopf": 3537,
      "ima": 3538,
      "Ġintelligen": 3539,
      "sÃ¼chtig": 3540,
      "pfen": 3541,
      "zum": 3542,
      "Ġu": 3543,
      "Ġsingt": 3544,
      "Ġverurs": 3545,
      "anne": 3546,
      "Ġalkohol": 3547,
      "ĠÃ¼berl": 3548,
      "Ã¤nen": 3549,
      "ĠwÃ¤hl": 3550,
      "Ġdrin": 3551,
      "Ġhole": 3552,
      "Ġvertraut": 3553,
      "Ġvollkommen": 3554,
      "ĠhÃ¤ngt": 3555,
      "ĠlÃ¼gn": 3556,
      "000": 3557,
      "ĠlÃ¤chelte": 3558,
      "ĠÃ¼berleben": 3559,
      "Ġchines": 3560,
      "ahe": 3561,
      "gar": 3562,
      "hem": 3563,
      "ln": 3564,
      "lte": 3565,
      "met": 3566,
      "Ġwaffe": 3567,
      "Ġban": 3568,
      "Ġbot": 3569,
      "Ġangesch": 3570,
      "Ġkaufe": 3571,
      "Ġdurst": 3572,
      "selben": 3573,
      "Ġweitere": 3574,
      "ĠfÃ¼hrte": 3575,
      "ĠÃ¤rger": 3576,
      "Ġempfeh": 3577,
      "schuhe": 3578,
      "Ġbeinahe": 3579,
      "Ġversprach": 3580,
      "gedacht": 3581,
      "Ġeilig": 3582,
      "Ġschokolade": 3583,
      "land": 3584,
      "Ġdest": 3585,
      "Ġbas": 3586,
      "Ġanziehen": 3587,
      "Ġnachgedacht": 3588,
      "Ġtrauen": 3589,
      "Ġklei": 3590,
      "Ġgebaut": 3591,
      "Ġtrink": 3592,
      "ĠwÃ¼nsche": 3593,
      "Ġsitz": 3594,
      "Ġreichen": 3595,
      "Ġregenschirm": 3596,
      "Ġlautet": 3597,
      "Ġjener": 3598,
      "Ġbekomme": 3599,
      "Ġunwahrscheinlich": 3600,
      "ĠÃ¤uÃŁerst": 3601,
      "ĠblÃ¶d": 3602,
      "ffe": 3603,
      "lage": 3604,
      "mÃ¤": 3605,
      "rÃ¼": 3606,
      "iegel": 3607,
      "stu": 3608,
      "Ġausges": 3609,
      "Ġlieder": 3610,
      "Ġliebst": 3611,
      "Ġgewe": 3612,
      "ĠtrÃ¤ume": 3613,
      "Ġabgenommen": 3614,
      "Ġverletzen": 3615,
      "Ġhelfe": 3616,
      "Ġgenie": 3617,
      "schlagen": 3618,
      "Ġzwanzig": 3619,
      "ĠhÃ¶flich": 3620,
      "ĠverfÃ¼": 3621,
      "ĠtatsÃ¤chlich": 3622,
      "Ġverkehrs": 3623,
      "Ġangelogen": 3624,
      "ĠhÃ¤ufig": 3625,
      "Ġbeine": 3626,
      "anke": 3627,
      "ĠzÃ¤hlen": 3628,
      "Ġwovon": 3629,
      "bekommen": 3630,
      "Ġgerettet": 3631,
      "rang": 3632,
      "ĠfÃ¼hlen": 3633,
      "Ġerwarte": 3634,
      "arbeiten": 3635,
      "Ġdauert": 3636,
      "Ġriet": 3637,
      "Ġgeredet": 3638,
      "Ġfremd": 3639,
      "ĠgroÃŁartig": 3640,
      "afe": 3641,
      "fter": 3642,
      "wein": 3643,
      "geld": 3644,
      "ĠungewÃ¶hn": 3645,
      "ielten": 3646,
      "rot": 3647,
      "Ġvertrag": 3648,
      "Ġfalschen": 3649,
      "Ġerlauben": 3650,
      "Ġtermin": 3651,
      "Ġsoldaten": 3652,
      "Ġdokument": 3653,
      "Ġsupermarkt": 3654,
      "ĠprÃ¤si": 3655,
      "Ġoptim": 3656,
      "Ġdesto": 3657,
      "do": 3658,
      "fei": 3659,
      "fre": 3660,
      "od": 3661,
      "zin": 3662,
      "Ġakt": 3663,
      "tele": 3664,
      "ĠkÃ¶rper": 3665,
      "Ġfe": 3666,
      "Ġloch": 3667,
      "Ġaufstehen": 3668,
      "Ġbewegen": 3669,
      "atik": 3670,
      "Ġdirekt": 3671,
      "Ġsagten": 3672,
      "Ġentlang": 3673,
      "Ġdringen": 3674,
      "Ġzieht": 3675,
      "schlÃ¼ssel": 3676,
      "Ġleise": 3677,
      "Ġbezweif": 3678,
      "Ġtoil": 3679,
      "ĠkÃ¤se": 3680,
      "holt": 3681,
      "Ġkopfschmerzen": 3682,
      "Ġdunk": 3683,
      "wegs": 3684,
      "ĠwÃ¤rst": 3685,
      "llover": 3686,
      "prob": 3687,
      "Ġeingeschlafen": 3688,
      "ĠgepÃ¤ck": 3689,
      "nt": 3690,
      "emann": 3691,
      "Ġaufpassen": 3692,
      "ocht": 3693,
      "Ġoper": 3694,
      "lebt": 3695,
      "gemacht": 3696,
      "ĠpersÃ¶nlich": 3697,
      "Ġsuchte": 3698,
      "gezogen": 3699,
      "recher": 3700,
      "Ġaufgeben": 3701,
      "indung": 3702,
      "etzung": 3703,
      "Ġheira": 3704,
      "Ġworauf": 3705,
      "spl": 3706,
      "ĠwuÃŁtest": 3707,
      "ĠÃ¼berzeugen": 3708,
      "ĠerwÃ¤hn": 3709,
      "Ġfaul": 3710,
      "bung": 3711,
      "macht": 3712,
      "nungen": 3713,
      "ĠkÃ¶st": 3714,
      "ĠkÃ¼nstler": 3715,
      "Ġzerst": 3716,
      "ausend": 3717,
      "Ġunzu": 3718,
      "schaf": 3719,
      "elten": 3720,
      "Ġaussicht": 3721,
      "Ġweigerte": 3722,
      "ĠkÃ¶nig": 3723,
      "ama": 3724,
      "Ġstehe": 3725,
      "Ġweder": 3726,
      "Ġprojekt": 3727,
      "Ġbleistift": 3728,
      "Ġhell": 3729,
      "Ġirgendwann": 3730,
      "Ġerlaubt": 3731,
      "ĠfÃ¼hlt": 3732,
      "Ġspazier": 3733,
      "Ġpullover": 3734,
      "Ġbegegnet": 3735,
      "Ġtokio": 3736,
      "ĠgerÃ¤usch": 3737,
      "gan": 3738,
      "ergie": 3739,
      "Ġmobil": 3740,
      "Ġapp": 3741,
      "Ġve": 3742,
      "Ġschaden": 3743,
      "Ġstau": 3744,
      "Ġbringe": 3745,
      "Ġgeschieht": 3746,
      "Ġprof": 3747,
      "versch": 3748,
      "Ġbezie": 3749,
      "Ġantwor": 3750,
      "ĠwuÃŁtet": 3751,
      "ĠgetrÃ¤n": 3752,
      "Ġartikel": 3753,
      "Ġschritt": 3754,
      "Ġzeich": 3755,
      "Ġzeug": 3756,
      "telefon": 3757,
      "hÃ¤lt": 3758,
      "rrt": 3759,
      "Ġ6": 3760,
      "Ġdicht": 3761,
      "Ġkehr": 3762,
      "Ġzuvor": 3763,
      "stete": 3764,
      "Ġwillkommen": 3765,
      "raben": 3766,
      "Ġabsch": 3767,
      "ĠplÃ¤ne": 3768,
      "Ġreihe": 3769,
      "Ġarbeitete": 3770,
      "Ġfreiwill": 3771,
      "Ġverdienen": 3772,
      "Ġschrecklich": 3773,
      "Ġjugend": 3774,
      "Ġlachte": 3775,
      "Ã¶pft": 3776,
      "Ġangesehen": 3777,
      "Ġdat": 3778,
      "ĠfrÃ¼hl": 3779,
      "Ġsteigen": 3780,
      "Ġleg": 3781,
      "ĠtrÃ¤nen": 3782,
      "isiert": 3783,
      "Ġwiederzusehen": 3784,
      "Ġentschuldige": 3785,
      "ĠgewÃ¶hnt": 3786,
      "Ġbestellt": 3787,
      "Ġdauerte": 3788,
      "Ġgeirrt": 3789,
      "Ã¤hle": 3790,
      "Ġparken": 3791,
      "Ġmotorrad": 3792,
      "Ġergibt": 3793,
      "Ġverantwortlich": 3794,
      "punkt": 3795,
      "ieber": 3796,
      "Ã¼cher": 3797,
      "Ġhattet": 3798,
      "Ġspe": 3799,
      "Ġohn": 3800,
      "ĠfÃ¼rs": 3801,
      "Ã¤nge": 3802,
      "Ġlebte": 3803,
      "Ġabw": 3804,
      "adung": 3805,
      "ĠverstÃ¤nd": 3806,
      "Ġbestehen": 3807,
      "Ġaufgestanden": 3808,
      "Ġbeginnen": 3809,
      "Ġinteressante": 3810,
      "Ġ10": 3811,
      "gefahren": 3812,
      "ĠdÃ¼rfte": 3813,
      "Ġgebrau": 3814,
      "Ġsauer": 3815,
      "ĠfÃ¼hrerschein": 3816,
      "laden": 3817,
      "rÃ¤": 3818,
      "Ġdet": 3819,
      "Ġwette": 3820,
      "Ġerl": 3821,
      "Ġpick": 3822,
      "Ġnochmal": 3823,
      "reis": 3824,
      "zubringen": 3825,
      "Ġlangen": 3826,
      "bruch": 3827,
      "gelt": 3828,
      "Ġbessere": 3829,
      "Ġruft": 3830,
      "Ġtrinkst": 3831,
      "Ã¼sse": 3832,
      "Ġinteressieren": 3833,
      "werfen": 3834,
      "ĠtrÃ¤gst": 3835,
      "Ġkrit": 3836,
      "ĠlaÃŁt": 3837,
      "Ġgezeigt": 3838,
      "Ġvide": 3839,
      "hÃ¤ng": 3840,
      "Ġhar": 3841,
      "Ġeintritt": 3842,
      "lliger": 3843,
      "Ġscharf": 3844,
      "Ġers": 3845,
      "Ġmitgl": 3846,
      "Ġstimmen": 3847,
      "Ġrunter": 3848,
      "Ġrate": 3849,
      "Ġwolltet": 3850,
      "ĠflieÃŁen": 3851,
      "Ġkauf": 3852,
      "ĠzurÃ¼ckge": 3853,
      "Ġjapanische": 3854,
      "Ġkrankheit": 3855,
      "ĠbÃ¼rger": 3856,
      "ĠlÃ¼ge": 3857,
      "Ġerfolgreich": 3858,
      "Ġmerk": 3859,
      "ĠschlieÃŁlich": 3860,
      "Ġunschuldig": 3861,
      "Ġmobiltelefon": 3862,
      "by": 3863,
      "dit": 3864,
      "nchen": 3865,
      "ies": 3866,
      "ĠhÃ¤l": 3867,
      "ĠnÃ¼t": 3868,
      "Ġgegl": 3869,
      "Ġanl": 3870,
      "Ġmitt": 3871,
      "Ġfressen": 3872,
      "brille": 3873,
      "stren": 3874,
      "ĠheiÃŁe": 3875,
      "Ġarbeitest": 3876,
      "Ġbeginnt": 3877,
      "Ġweinte": 3878,
      "Ġstreit": 3879,
      "Ġorangen": 3880,
      "schule": 3881,
      "ĠverspÃ¤ten": 3882,
      "ordert": 3883,
      "Ġzustimmen": 3884,
      "ellschaft": 3885,
      "ĠÃ¼berraschung": 3886,
      "Ġspaziergang": 3887,
      "Ġdeta": 3888,
      "mei": 3889,
      "irn": 3890,
      "Ġgewaschen": 3891,
      "Ġeinst": 3892,
      "ont": 3893,
      "Ġschlagen": 3894,
      "Ġhinten": 3895,
      "ĠflÃ¼": 3896,
      "ĠzurÃ¼ckkommen": 3897,
      "Ġbestanden": 3898,
      "Ġaufgegeben": 3899,
      "Ġsolchen": 3900,
      "spielen": 3901,
      "ĠeifersÃ¼chtig": 3902,
      "Ġgeglaubt": 3903,
      "Ġwes": 3904,
      "Ġsocken": 3905,
      "Ġaufr": 3906,
      "Ġdenk": 3907,
      "ischt": 3908,
      "leben": 3909,
      "Ġbesitzt": 3910,
      "reifen": 3911,
      "Ġmussten": 3912,
      "Ġentde": 3913,
      "ĠgelÃ¶st": 3914,
      "Ġneuer": 3915,
      "Ġzieh": 3916,
      "Ġteller": 3917,
      "Ġarbeiter": 3918,
      "ĠverdÃ¤cht": 3919,
      "werk": 3920,
      "Ġausgegangen": 3921,
      "Ġschlechtes": 3922,
      "Ġliebte": 3923,
      "Ġlauter": 3924,
      "Ġrasen": 3925,
      "wÃ¼rdig": 3926,
      "Ġmahl": 3927,
      "ard": 3928,
      "ĠfÃ¤ngt": 3929,
      "Ã¤re": 3930,
      "Ġverges": 3931,
      "Ġwasch": 3932,
      "Ġfrieden": 3933,
      "Ġspar": 3934,
      "Ġganzes": 3935,
      "Ġwohnst": 3936,
      "Ġdurchs": 3937,
      "Ġeinzel": 3938,
      "Ġeurem": 3939,
      "unterricht": 3940,
      "ĠnÃ¤her": 3941,
      "Ġrichtung": 3942,
      "Ġlangsamer": 3943,
      "Ġfotos": 3944,
      "Ġanwesen": 3945,
      "Ġamerikaner": 3946,
      "kten": 3947,
      "oÃŁen": 3948,
      "Ġsam": 3949,
      "eig": 3950,
      "schwe": 3951,
      "Ġverir": 3952,
      "terte": 3953,
      "eitung": 3954,
      "Ġklima": 3955,
      "Ġkauft": 3956,
      "Ġhaltet": 3957,
      "Ġverschieden": 3958,
      "Ġfreizeit": 3959,
      "Ġverbesser": 3960,
      "Ġrote": 3961,
      "Ġriecht": 3962,
      "Ġrepariert": 3963,
      "Ġverstecken": 3964,
      "ĠerschÃ¶pft": 3965,
      "Ġerdbeben": 3966,
      "Ã¤user": 3967,
      "Ġunterrichtet": 3968,
      "zumachen": 3969,
      "ragen": 3970,
      "iche": 3971,
      "Ġlond": 3972,
      "Ġschrift": 3973,
      "Ġuner": 3974,
      "Ġmittern": 3975,
      "Ġschwimmt": 3976,
      "ingst": 3977,
      "Ġhinunter": 3978,
      "Ġhalbe": 3979,
      "Ġziehe": 3980,
      "schlafen": 3981,
      "Ġelekt": 3982,
      "ĠÃ¶fter": 3983,
      "Ġverhaf": 3984,
      "ĠtÃ¤glich": 3985,
      "ĠlaÃŁ": 3986,
      "Ġsonntags": 3987,
      "ĠgÃ¤ste": 3988,
      "Ġbesprechen": 3989,
      "Ġdienst": 3990,
      "Ġeuropa": 3991,
      "Ġlondon": 3992,
      "ippen": 3993,
      "ja": 3994,
      "Ġseht": 3995,
      "Ġmaschine": 3996,
      "ĠtÃ¤t": 3997,
      "eint": 3998,
      "Ġzig": 3999,
      "Ġzoo": 4000,
      "Ġdieb": 4001,
      "Ġschei": 4002,
      "Ġschock": 4003,
      "Ġertragen": 4004,
      "scher": 4005,
      "Ġannehmen": 4006,
      "Ġgesellschaft": 4007,
      "Ġoka": 4008,
      "Ġmeins": 4009,
      "Ġbrand": 4010,
      "Ġsteckte": 4011,
      "Ġsteuer": 4012,
      "offt": 4013,
      "Ġgibst": 4014,
      "ment": 4015,
      "appt": 4016,
      "Ġgedicht": 4017,
      "Ġerkennen": 4018,
      "gefunden": 4019,
      "Ġschulter": 4020,
      "Ġunglau": 4021,
      "Ġdopp": 4022,
      "Ġzahnarzt": 4023,
      "Ġgestrichen": 4024,
      "Ġvorbereitet": 4025,
      "ĠunglÃ¼cklich": 4026,
      "Ġmitternacht": 4027,
      "Ġzigar": 4028,
      "Ġokay": 4029,
      "Ġwon": 4030,
      "Ġnatur": 4031,
      "Ġbad": 4032,
      "Ġgelebt": 4033,
      "Ġbeweisen": 4034,
      "Ġstren": 4035,
      "utzig": 4036,
      "Ġausgel": 4037,
      "Ġallm": 4038,
      "ĠmÃ¼ll": 4039,
      "ĠfranzÃ¶sischen": 4040,
      "riffen": 4041,
      "Ġbriefmar": 4042,
      "Ġpreise": 4043,
      "Ġgezw": 4044,
      "Ġvermisse": 4045,
      "Ġebenso": 4046,
      "Ġkompliziert": 4047,
      "Ġtheater": 4048,
      "Ġpriv": 4049,
      "Ġbanan": 4050,
      "Ġveget": 4051,
      "ĠfrÃ¼hling": 4052,
      "Ġwonach": 4053,
      "Ġnar": 4054,
      "schrei": 4055,
      "schauen": 4056,
      "Ġintern": 4057,
      "Ġsogar": 4058,
      "ehm": 4059,
      "Ġgehofft": 4060,
      "Ġarme": 4061,
      "Ġabgel": 4062,
      "Ġerinnerst": 4063,
      "Ġjapanisch": 4064,
      "Ġknie": 4065,
      "ĠgeschÃ¤fts": 4066,
      "Ġaussieht": 4067,
      "ĠschlieÃŁt": 4068,
      "Ġbegleiten": 4069,
      "ketball": 4070,
      "Ġlehnte": 4071,
      "Ġvegetar": 4072,
      "nein": 4073,
      "sy": 4074,
      "Ġwander": 4075,
      "Ġnummer": 4076,
      "Ġhaust": 4077,
      "ĠzÃ¶": 4078,
      "inde": 4079,
      "Ġzuviel": 4080,
      "Ġdame": 4081,
      "Ġstre": 4082,
      "Ġstift": 4083,
      "bewer": 4084,
      "reisen": 4085,
      "Ġgewicht": 4086,
      "ĠwÃ¤sche": 4087,
      "ĠfÃ¼ÃŁe": 4088,
      "Ġaufgefallen": 4089,
      "Ġbefolgen": 4090,
      "Ġbetrat": 4091,
      "Ġverboten": 4092,
      "aunt": 4093,
      "Ġarmband": 4094,
      "Ġerledigt": 4095,
      "Ġtrocken": 4096,
      "Ġnimmst": 4097,
      "Ã¤hlich": 4098,
      "Ġreserv": 4099,
      "Ġvertraue": 4100,
      "Ġbasketball": 4101,
      "Ġkleider": 4102,
      "schaften": 4103,
      "ĠallmÃ¤hlich": 4104,
      "baum": 4105,
      "maschine": 4106,
      "Ġhitze": 4107,
      "Ġbutter": 4108,
      "Ġlin": 4109,
      "onen": 4110,
      "Ġstief": 4111,
      "ktor": 4112,
      "onna": 4113,
      "ĠgrÃ¼": 4114,
      "achtete": 4115,
      "Ġsamm": 4116,
      "Ġ18": 4117,
      "Ġjacke": 4118,
      "Ġverwand": 4119,
      "quem": 4120,
      "ĠlÃ¼gt": 4121,
      "Ġexp": 4122,
      "Ġtrage": 4123,
      "Ġkanadierin": 4124,
      "Ġfabr": 4125,
      "Ġkerl": 4126,
      "ĠstÃ¤rker": 4127,
      "ĠlÃ¼gner": 4128,
      "freund": 4129,
      "Ġpickn": 4130,
      "ĠflieÃŁend": 4131,
      "ĠhÃ¤lfte": 4132,
      "seite": 4133,
      "ub": 4134,
      "enz": 4135,
      "Ġlog": 4136,
      "gelegt": 4137,
      "Ġmitnehmen": 4138,
      "Ġfris": 4139,
      "Ġumbringen": 4140,
      "ĠÃ¼berprÃ¼": 4141,
      "Ġabsichtlich": 4142,
      "gesagt": 4143,
      "blik": 4144,
      "Ġerkannte": 4145,
      "Ġfahrt": 4146,
      "Ġschreib": 4147,
      "Ġzwingen": 4148,
      "Ġschlechten": 4149,
      "Ġkonzentr": 4150,
      "Ġschneiden": 4151,
      "Ġverbrechen": 4152,
      "Ġfunktionieren": 4153,
      "Ġschmutzig": 4154,
      "ĠverspÃ¤tet": 4155,
      "Ġaufmerksamkeit": 4156,
      "Ġbeleidigt": 4157,
      "Ġneugierig": 4158,
      "Ġgezwungen": 4159,
      "kÃ¤": 4160,
      "ole": 4161,
      "raum": 4162,
      "Ġbauen": 4163,
      "Ġfle": 4164,
      "ehl": 4165,
      "Ġpor": 4166,
      "Ġgewalt": 4167,
      "Ġschlage": 4168,
      "Ġentkommen": 4169,
      "uchs": 4170,
      "Ġpassierte": 4171,
      "Ġeich": 4172,
      "Ġgebacken": 4173,
      "ĠerkÃ¤l": 4174,
      "hÃ¶rnchen": 4175,
      "Ġunterscheiden": 4176,
      "Ġbeantwortet": 4177,
      "Ġdiam": 4178,
      "Ġmutig": 4179,
      "Ġkocht": 4180,
      "Ġmetho": 4181,
      "Ġeinladung": 4182,
      "Ġmiete": 4183,
      "Ġpflanzen": 4184,
      "Ġtalent": 4185,
      "Ġrisiko": 4186,
      "aben": 4187,
      "ib": 4188,
      "ister": 4189,
      "jÃ¤hr": 4190,
      "ling": 4191,
      "tschaft": 4192,
      "wÃ¤rt": 4193,
      "Ġwicht": 4194,
      "Ã¼hen": 4195,
      "Ġzaun": 4196,
      "Ġfass": 4197,
      "Ġwirkt": 4198,
      "ition": 4199,
      "annten": 4200,
      "Ġjog": 4201,
      "ĠstÃ¼r": 4202,
      "Ġsprang": 4203,
      "steller": 4204,
      "wasser": 4205,
      "olog": 4206,
      "Ġschwei": 4207,
      "Ġverletz": 4208,
      "Ġjahres": 4209,
      "Ġhilfst": 4210,
      "Ġzwill": 4211,
      "Ġentschuldigt": 4212,
      "Ġerneut": 4213,
      "Ġausleihen": 4214,
      "Ġgewarnt": 4215,
      "Ġregnete": 4216,
      "Ġdahinter": 4217,
      "heim": 4218,
      "Ġmathem": 4219,
      "Ġerreicht": 4220,
      "ĠunterstÃ¼tzung": 4221,
      "fÃ¼": 4222,
      "kuchen": 4223,
      "Ġ3": 4224,
      "chnet": 4225,
      "Ġsen": 4226,
      "stet": 4227,
      "Ġbord": 4228,
      "Ġschief": 4229,
      "Ġpo": 4230,
      "Ġprakt": 4231,
      "Ġmachten": 4232,
      "ĠmÃ¼n": 4233,
      "Ġgerufen": 4234,
      "Ġabends": 4235,
      "Ġgekl": 4236,
      "Ġvaters": 4237,
      "Ġeigenes": 4238,
      "Ġschneit": 4239,
      "Ġunterschreiben": 4240,
      "Ġhierhergekommen": 4241,
      "Ġfestgenommen": 4242,
      "Ġboot": 4243,
      "fÃ¼hren": 4244,
      "Ġschenkte": 4245,
      "Ġsuchst": 4246,
      "ĠkÃ¶stlich": 4247,
      "jahr": 4248,
      "man": 4249,
      "sal": 4250,
      "sse": 4251,
      "xt": 4252,
      "Ġnass": 4253,
      "Ġnetter": 4254,
      "ĠkÃ¼nd": 4255,
      "Ã¤ger": 4256,
      "ago": 4257,
      "Ġmitkommen": 4258,
      "Ġbewe": 4259,
      "Ġfragt": 4260,
      "ĠstÃ¶r": 4261,
      "Ġregal": 4262,
      "Ġvorgeschlagen": 4263,
      "ĠÃ¼berlegt": 4264,
      "Ġunterwegs": 4265,
      "Ġzumute": 4266,
      "Ġkennenlernen": 4267,
      "ĠverspÃ¤t": 4268,
      "Ġbedanken": 4269,
      "Ġsolch": 4270,
      "Ġviertel": 4271,
      "Ġbedeut": 4272,
      "Ġdecke": 4273,
      "komme": 4274,
      "Ġschlafzimmer": 4275,
      "Ġkredit": 4276,
      "Ġvorhat": 4277,
      "ĠÃ¤hnlich": 4278,
      "Ġpolitik": 4279,
      "ĠeichhÃ¶rnchen": 4280,
      "hle": 4281,
      "sh": 4282,
      "Ġ4": 4283,
      "Ġwom": 4284,
      "Ġmik": 4285,
      "Ġmama": 4286,
      "Ġginge": 4287,
      "Ã¼chte": 4288,
      "Ã¼lt": 4289,
      "agte": 4290,
      "eitag": 4291,
      "ĠÃ¼bert": 4292,
      "Ġversehen": 4293,
      "Ġanderem": 4294,
      "icket": 4295,
      "Ġzweiten": 4296,
      "Ġbestraft": 4297,
      "Ġgebissen": 4298,
      "schlÃ¤ge": 4299,
      "Ġgarage": 4300,
      "Ġschreien": 4301,
      "ĠwÃ¼nschen": 4302,
      "Ġhandschuhe": 4303,
      "ettbewer": 4304,
      "ĠgrÃ¶ÃŁten": 4305,
      "Ġnebenan": 4306,
      "Ġbesonderes": 4307,
      "Ġbeeindrucken": 4308,
      "Ġsonderlich": 4309,
      "ĠkÃ¤mpfen": 4310,
      "Ġvegetarier": 4311,
      "Ġarmbanduhr": 4312,
      "ĠverspÃ¤tung": 4313,
      "ji": 4314,
      "wen": 4315,
      "stem": 4316,
      "Ġbart": 4317,
      "ans": 4318,
      "Ġfieber": 4319,
      "Ġverga": 4320,
      "Ġaufgere": 4321,
      "Ġmittel": 4322,
      "Ġfreitag": 4323,
      "ĠmÃ¶gt": 4324,
      "olge": 4325,
      "Ġgewinnt": 4326,
      "Ġhinzu": 4327,
      "Ġgeldb": 4328,
      "Ġbere": 4329,
      "ĠerfÃ¼": 4330,
      "ĠtÃ¼ren": 4331,
      "Ġeinzigen": 4332,
      "ĠhÃ¶ch": 4333,
      "Ġknapp": 4334,
      "Ġstudium": 4335,
      "Ġvergleich": 4336,
      "Ġgeregnet": 4337,
      "Ġkeller": 4338,
      "Ġdiskut": 4339,
      "Ġtrotzdem": 4340,
      "Ġsamstag": 4341,
      ".\"": 4342,
      "bten": 4343,
      "lehn": 4344,
      "ĠdÃ¼n": 4345,
      "iesen": 4346,
      "ĠhÃ¤user": 4347,
      "Ġdusche": 4348,
      "Ġzufall": 4349,
      "Ġzurecht": 4350,
      "Ã¶re": 4351,
      "schung": 4352,
      "Ġverpf": 4353,
      "Ġansicht": 4354,
      "ager": 4355,
      "eur": 4356,
      "Ġbeeil": 4357,
      "Ġgesetzt": 4358,
      "ĠÃ¶l": 4359,
      "Ġverkauf": 4360,
      "falls": 4361,
      "nisse": 4362,
      "Ġjacks": 4363,
      "Ġrolle": 4364,
      "Ġnehmt": 4365,
      "ĠÃ¼bersetzt": 4366,
      "Ġmerken": 4367,
      "kehren": 4368,
      "Ġbeziehung": 4369,
      "schwester": 4370,
      "Ġverhaftet": 4371,
      "Ġmikro": 4372,
      "ĠvergaÃŁ": 4373,
      "Ġjackson": 4374,
      "das": 4375,
      "pen": 4376,
      "saft": 4377,
      "Ġ8": 4378,
      "Ġatem": 4379,
      "Ġzuber": 4380,
      "auern": 4381,
      "Ġdaher": 4382,
      "Ġwozu": 4383,
      "Ġarmen": 4384,
      "ĠgewuÃŁt": 4385,
      "Ġblind": 4386,
      "Ġfreut": 4387,
      "Ġdreizehn": 4388,
      "Ġgelaufen": 4389,
      "Ã¤ren": 4390,
      "Ġprodu": 4391,
      "Ġneuigkeiten": 4392,
      "Ġarbeitspl": 4393,
      "Ġhals": 4394,
      "Ġfreundschaft": 4395,
      "Ġerfreut": 4396,
      "Ġtagebuch": 4397,
      "plan": 4398,
      "ĠhÃ¤nden": 4399,
      "ĠdÃ¼rft": 4400,
      "Ġaufzustehen": 4401,
      "Ġversteckte": 4402,
      "Ġverbrachte": 4403,
      "Ã¤chtnis": 4404,
      "ahle": 4405,
      "Ġzugest": 4406,
      "ĠbenÃ¶tigen": 4407,
      "feier": 4408,
      "Ġunglaublich": 4409,
      "fach": 4410,
      "Ġstern": 4411,
      "Ã¼ge": 4412,
      "Ġeint": 4413,
      "Ġanzur": 4414,
      "urch": 4415,
      "Ġverlangt": 4416,
      "Ġwiederholen": 4417,
      "Ġherzen": 4418,
      "pfl": 4419,
      "Ġgruppe": 4420,
      "Ġneulich": 4421,
      "Ã¤ufer": 4422,
      "Ġwohnte": 4423,
      "Ġmuttersprach": 4424,
      "Ã¤umte": 4425,
      "ĠhÃ¶chst": 4426,
      "Ġmontags": 4427,
      "Ġkomisch": 4428,
      "ĠtÃ¤test": 4429,
      "Ġnerven": 4430,
      "Ġ300": 4431,
      "temonna": 4432,
      "ĠschÃ¤tze": 4433,
      "wendung": 4434,
      "Ġkilom": 4435,
      "lÃ¤ssig": 4436,
      "ĠkÃ¼sste": 4437,
      "Ġklingelte": 4438,
      "Ġportemonna": 4439,
      "Ġportemonnaie": 4440,
      "bild": 4441,
      "Ġdachten": 4442,
      "Ġseil": 4443,
      "ieten": 4444,
      "Ġhing": 4445,
      "Ġid": 4446,
      "Ġiss": 4447,
      "Ġzwe": 4448,
      "Ġgeden": 4449,
      "inz": 4450,
      "Ġschrie": 4451,
      "Ġert": 4452,
      "Ġaufgesch": 4453,
      "Ġbequem": 4454,
      "Ġspiegel": 4455,
      "becken": 4456,
      "ampe": 4457,
      "Ġbesuchte": 4458,
      "olut": 4459,
      "Ġgericht": 4460,
      "Ġbereitet": 4461,
      "ĠhÃ¶rten": 4462,
      "ĠbeschÃ¼tzen": 4463,
      "Ġbeschwert": 4464,
      "Ġbisher": 4465,
      "Ġlernst": 4466,
      "Ġreist": 4467,
      "Ġbegonnen": 4468,
      "Ġeigene": 4469,
      "Ġgegenseit": 4470,
      "Ġjapaner": 4471,
      "Ġideen": 4472,
      "Ġschulde": 4473,
      "Ġfeiern": 4474,
      "Ġrosen": 4475,
      "Ġschwarze": 4476,
      "Ġsalat": 4477,
      "Ġmedikamen": 4478,
      "Ġeinladen": 4479,
      "Ġbesprech": 4480,
      "ĠvernÃ¼n": 4481,
      "Ġelektr": 4482,
      "Ġmathematik": 4483,
      "Ġaufgeregt": 4484,
      "wir": 4485,
      "weh": 4486,
      "Ġsatt": 4487,
      "Ġwahn": 4488,
      "Ã¼te": 4489,
      "Ġeinigen": 4490,
      "one": 4491,
      "gest": 4492,
      "itter": 4493,
      "schÃ¶n": 4494,
      "alen": 4495,
      "Ġaufgrund": 4496,
      "ĠÃ¼berlegen": 4497,
      "amt": 4498,
      "Ġdeines": 4499,
      "ĠgroÃŁzÃ¼": 4500,
      "Ġspielst": 4501,
      "Ġprogramm": 4502,
      "Ġbleibst": 4503,
      "Ġkonntest": 4504,
      "ĠbestÃ¤t": 4505,
      "Ġworan": 4506,
      "ĠgedÃ¤chtnis": 4507,
      "Ġfahrkarte": 4508,
      "Ã¤hrt": 4509,
      "Ġele": 4510,
      "richten": 4511,
      "ĠbefÃ¶rder": 4512,
      "Ġnew": 4513,
      "Ġhinterlassen": 4514,
      "peratur": 4515,
      "Ġwichtiger": 4516,
      "Ġroten": 4517,
      "Ġrichtigen": 4518,
      "ĠaufzuhÃ¶ren": 4519,
      "Ġschickte": 4520,
      "Ġpferde": 4521,
      "wohner": 4522,
      "fahrer": 4523,
      "Ġhobby": 4524,
      "Ġschneien": 4525,
      "Ġcousin": 4526,
      "ĠgroÃŁzÃ¼g": 4527,
      "kopf": 4528,
      "luss": 4529,
      "Ġheu": 4530,
      "Ġtante": 4531,
      "Ġgra": 4532,
      "Ġkri": 4533,
      "Ã¤ten": 4534,
      "Ã¶hne": 4535,
      "Ġerr": 4536,
      "schw": 4537,
      "Ġstreichen": 4538,
      "Ġwerk": 4539,
      "Ġumst": 4540,
      "ĠmÃ¶bel": 4541,
      "Ġhauses": 4542,
      "ĠklÃ¼": 4543,
      "geschen": 4544,
      "onnt": 4545,
      "Ã¼hstÃ¼ck": 4546,
      "zend": 4547,
      "Ġgekonnt": 4548,
      "Ġgeduldig": 4549,
      "Ġwohnzimmer": 4550,
      "Ġeinziger": 4551,
      "antwortet": 4552,
      "flug": 4553,
      "Ġherausfinden": 4554,
      "ĠfrÃ¼hstÃ¼cken": 4555,
      "Ġski": 4556,
      "Ġmillion": 4557,
      "Ġausgeschaltet": 4558,
      "Ġewig": 4559,
      "Ġehemann": 4560,
      "Ġverursacht": 4561,
      "ĠprÃ¤sident": 4562,
      "Ġdetail": 4563,
      "Ã¼hstÃ¼ckt": 4564,
      "fil": 4565,
      "morgen": 4566,
      "yÅį": 4567,
      "Ġkunden": 4568,
      "ork": 4569,
      "Ġdasselbe": 4570,
      "Ġfrisch": 4571,
      "Ġausru": 4572,
      "Ġvorl": 4573,
      "Ġwillen": 4574,
      "Ġschwach": 4575,
      "Ġkeines": 4576,
      "ĠgerÃ¼cht": 4577,
      "Ġgenannt": 4578,
      "Ġebend": 4579,
      "Ġecke": 4580,
      "verstÃ¤nd": 4581,
      "ĠzwÃ¶l": 4582,
      "ferenz": 4583,
      "Ġaltes": 4584,
      "Ġtreffe": 4585,
      "Ġpolizisten": 4586,
      "Ġkindheit": 4587,
      "Ġschnar": 4588,
      "Ġnahmen": 4589,
      "Ġschulden": 4590,
      "Ġanruf": 4591,
      "ĠgefrÃ¼hstÃ¼ckt": 4592,
      "Ġext": 4593,
      "Ġexper": 4594,
      "ifft": 4595,
      "Ġtotal": 4596,
      "Ġjenem": 4597,
      "Ġbauern": 4598,
      "leidet": 4599,
      "Ġdunkelheit": 4600,
      "ĠkÃ¼mmere": 4601,
      "Ġentfern": 4602,
      "Ġprobiert": 4603,
      "frau": 4604,
      "Ġschlimmste": 4605,
      "Ġakzept": 4606,
      "Ġschaltete": 4607,
      "ĠerwÃ¤gung": 4608,
      "Ġklassenzimmer": 4609,
      "Ġphant": 4610,
      "Ġbeobachtet": 4611,
      "Ġhandtasche": 4612,
      "verschwendung": 4613,
      "jem": 4614,
      "kw": 4615,
      "karten": 4616,
      "Ġsil": 4617,
      "anw": 4618,
      "unsch": 4619,
      "Ġfassen": 4620,
      "Ġerb": 4621,
      "Ġvergeben": 4622,
      "euert": 4623,
      "Ġspan": 4624,
      "Ġnachgesehen": 4625,
      "Ã¼cken": 4626,
      "isst": 4627,
      "Ġfinanz": 4628,
      "indern": 4629,
      "Ġangebo": 4630,
      "ĠbegrÃ¼": 4631,
      "Ġleichter": 4632,
      "ĠerklÃ¤rte": 4633,
      "ĠgewÃ¶hnen": 4634,
      "Ġholte": 4635,
      "Ġkorrig": 4636,
      "Ġmelden": 4637,
      "Ġversprich": 4638,
      "Ġnirgendwo": 4639,
      "sinnig": 4640,
      "ĠfÃ¼ttern": 4641,
      "Ġhandeln": 4642,
      "Ġdringend": 4643,
      "Ġbezweifle": 4644,
      "Ġanzurufen": 4645,
      "Ġmedikamente": 4646,
      "Ġangeboten": 4647,
      "bur": 4648,
      "far": 4649,
      "iken": 4650,
      "lin": 4651,
      "namen": 4652,
      "res": 4653,
      "Ġmor": 4654,
      "Ġheil": 4655,
      "Ġtaten": 4656,
      "Ġbrechen": 4657,
      "Ġschaffe": 4658,
      "Ġerschein": 4659,
      "delt": 4660,
      "schreiben": 4661,
      "Ġverge": 4662,
      "Ġangen": 4663,
      "ĠspÃ¼": 4664,
      "ilt": 4665,
      "Ġschweigen": 4666,
      "Ġgeweint": 4667,
      "Ġschlau": 4668,
      "Ġabschluss": 4669,
      "Ġversich": 4670,
      "Ġentscheid": 4671,
      "Ġleiter": 4672,
      "Ġirgendjem": 4673,
      "Ġteich": 4674,
      "Ġhose": 4675,
      "ĠÃ¼bel": 4676,
      "Ġgerechnet": 4677,
      "Ġvorsichtiger": 4678,
      "Ġsorg": 4679,
      "ĠwunderschÃ¶n": 4680,
      "Ġberuf": 4681,
      "Ġvergangenheit": 4682,
      "Ġentwick": 4683,
      "Ġtoilette": 4684,
      "ĠzerstÃ¶rt": 4685,
      "Ġfabrik": 4686,
      "lehnen": 4687,
      "Ġarbeitsplatz": 4688,
      "Ġmuttersprachler": 4689,
      "bÃ¼cher": 4690,
      "ia": 4691,
      "mut": 4692,
      "ult": 4693,
      "vo": 4694,
      "err": 4695,
      "Ġado": 4696,
      "omat": 4697,
      "asen": 4698,
      "Ġhaut": 4699,
      "Ġvol": 4700,
      "Ġgeantwortet": 4701,
      "Ġeiniges": 4702,
      "inne": 4703,
      "llner": 4704,
      "Ġlohnt": 4705,
      "reden": 4706,
      "Ġankam": 4707,
      "Ġmarie": 4708,
      "Ġwerfen": 4709,
      "Ġspei": 4710,
      "Ġausger": 4711,
      "enne": 4712,
      "ath": 4713,
      "Ġbillig": 4714,
      "Ã¤tsel": 4715,
      "wasch": 4716,
      "Ġkeinem": 4717,
      "Ġwiederkommen": 4718,
      "appe": 4719,
      "Ġbesseres": 4720,
      "ĠzurÃ¼ckzu": 4721,
      "Ġentschied": 4722,
      "Ġerkannt": 4723,
      "Ġerwischt": 4724,
      "Ġfehl": 4725,
      "ĠerzÃ¤hle": 4726,
      "Ġbenehmen": 4727,
      "ungslos": 4728,
      "Ġrauch": 4729,
      "Ġverbindung": 4730,
      "Ġteilnehmen": 4731,
      "ĠhÃ¼gel": 4732,
      "Ġversteck": 4733,
      "Ġlebensmittel": 4734,
      "Ġpublik": 4735,
      "Ã¤chtig": 4736,
      "Ġmotiv": 4737,
      "Ġatt": 4738,
      "Ġregierung": 4739,
      "kehrt": 4740,
      "ĠgÃ¤be": 4741,
      "Ġtheor": 4742,
      "zwischen": 4743,
      "Ġfurchtbar": 4744,
      "Ġoptimistisch": 4745,
      "probieren": 4746,
      "ĠnÃ¼tzlich": 4747,
      "Ġprivat": 4748,
      "Ġwomit": 4749,
      "ĠzwÃ¶lf": 4750,
      "Ġadopt": 4751,
      "illen": 4752,
      "oben": 4753,
      "Ġsicht": 4754,
      "ĠsÃ¶hne": 4755,
      "iebe": 4756,
      "Ġnick": 4757,
      "Ġbu": 4758,
      "teten": 4759,
      "Ã¼gt": 4760,
      "Ġfu": 4761,
      "irr": 4762,
      "inkt": 4763,
      "Ġlacht": 4764,
      "Ġlkw": 4765,
      "Ġsche": 4766,
      "Ġvergn": 4767,
      "Ġverwechsel": 4768,
      "Ġanstren": 4769,
      "Ã¼rzt": 4770,
      "ĠstÃ¶rt": 4771,
      "Ġgehor": 4772,
      "urz": 4773,
      "Ġauseinander": 4774,
      "Ġrechten": 4775,
      "Ġvorne": 4776,
      "otten": 4777,
      "Ġgrunde": 4778,
      "Ġautof": 4779,
      "Ġirrt": 4780,
      "ĠmÃ¶glichkeiten": 4781,
      "Ġtode": 4782,
      "Ġfalsche": 4783,
      "Ġherausgefunden": 4784,
      "Ġriesen": 4785,
      "Ġsonnenbrille": 4786,
      "Ġyork": 4787,
      "Ġkorre": 4788,
      "Ġberuh": 4789,
      "Ġnirgends": 4790,
      "Ġkartoffeln": 4791,
      "ĠlÃ¤ndern": 4792,
      "stuhl": 4793,
      "Ġprofess": 4794,
      "brot": 4795,
      "hand": 4796,
      "laufen": 4797,
      "pass": 4798,
      "ugen": 4799,
      "ĠtÃ¼re": 4800,
      "Ġgilt": 4801,
      "Ġertr": 4802,
      "Ġbeab": 4803,
      "Ġfrank": 4804,
      "Ġbesitz": 4805,
      "Ġlies": 4806,
      "eutel": 4807,
      "Ġgewissen": 4808,
      "Ġgeschme": 4809,
      "ienten": 4810,
      "abel": 4811,
      "Ġpleite": 4812,
      "Ġzweite": 4813,
      "Ġreifen": 4814,
      "Ġbegab": 4815,
      "Ġinteressiere": 4816,
      "Ġchic": 4817,
      "Ġteilen": 4818,
      "Ġfuhren": 4819,
      "Ġtrain": 4820,
      "kommst": 4821,
      "Ġgemeint": 4822,
      "Ġkellner": 4823,
      "Ġhereinkommen": 4824,
      "ĠgrÃ¼nde": 4825,
      "getan": 4826,
      "Ġpapa": 4827,
      "Ġmode": 4828,
      "mail": 4829,
      "ĠtÃ¶ten": 4830,
      "straÃŁe": 4831,
      "Ġbewundere": 4832,
      "Ġeintrittsk": 4833,
      "Ġmethode": 4834,
      "Ġkilometer": 4835,
      "Ġpublikum": 4836,
      "abend": 4837,
      "frieden": 4838,
      "ote": 4839,
      "erk": 4840,
      "eitete": 4841,
      "inchen": 4842,
      "Ã¤fte": 4843,
      "onst": 4844,
      "ĠverÃ¤nder": 4845,
      "Ġanges": 4846,
      "Ġpil": 4847,
      "Ġbeenden": 4848,
      "Ġgesungen": 4849,
      "Ġsto": 4850,
      "Ġstrei": 4851,
      "Ġstanden": 4852,
      "Ġbilliger": 4853,
      "alle": 4854,
      "Ġents": 4855,
      "blade": 4856,
      "Ġspielten": 4857,
      "Ġgren": 4858,
      "ĠzurÃ¼ckgekommen": 4859,
      "Ġselber": 4860,
      "gnen": 4861,
      "Ġleiser": 4862,
      "Ġ13": 4863,
      "Ġ100": 4864,
      "Ġerstes": 4865,
      "Ġfilme": 4866,
      "Ġschafft": 4867,
      "Ġverpassen": 4868,
      "Ġnotwendig": 4869,
      "Ġeinkauf": 4870,
      "Ġblaue": 4871,
      "Ġbehandeln": 4872,
      "Ġprobieren": 4873,
      "Ġschenken": 4874,
      "Ġentspann": 4875,
      "Ġschauspieler": 4876,
      "drÃ¼cken": 4877,
      "mÃ¤ÃŁig": 4878,
      "Ġabwesen": 4879,
      "meister": 4880,
      "Ġverbessert": 4881,
      "Ġbriefmarken": 4882,
      "Ġfuji": 4883,
      "ging": 4884,
      "Ġ7": 4885,
      "erien": 4886,
      "ieder": 4887,
      "Ġit": 4888,
      "Ġgrad": 4889,
      "anlage": 4890,
      "Ġlachten": 4891,
      "ĠschÃ¼t": 4892,
      "Ġscheiden": 4893,
      "Ġwirtschaft": 4894,
      "ume": 4895,
      "Ġpunkt": 4896,
      "Ġbegangen": 4897,
      "Ġring": 4898,
      "Ġofen": 4899,
      "Ġvieles": 4900,
      "ĠÃ¼berw": 4901,
      "Ġbeispiel": 4902,
      "ktion": 4903,
      "Ġgeruch": 4904,
      "Ġversamm": 4905,
      "Ã¼nde": 4906,
      "gerÃ¤umt": 4907,
      "Ġhinauf": 4908,
      "abhÃ¤ng": 4909,
      "Ġkampf": 4910,
      "Ġbestand": 4911,
      "Ġnachtisch": 4912,
      "Ġteilte": 4913,
      "Ġgetrennt": 4914,
      "ular": 4915,
      "Ġgeburtstags": 4916,
      "Ġsterne": 4917,
      "Ġbereue": 4918,
      "Ġinformationen": 4919,
      "Ġschriftsteller": 4920,
      "ologie": 4921,
      "ian": 4922,
      "ow": 4923,
      "asie": 4924,
      "Ġnennt": 4925,
      "Ġnutzen": 4926,
      "Ġkuss": 4927,
      "Ġzauber": 4928,
      "reu": 4929,
      "Ġangenommen": 4930,
      "ehlt": 4931,
      "Ġbeweg": 4932,
      "Ġstreich": 4933,
      "urf": 4934,
      "Ġkomment": 4935,
      "Ġeile": 4936,
      "ĠschÃ¶nheit": 4937,
      "schland": 4938,
      "Ġhandelt": 4939,
      "Ġkonferenz": 4940,
      "Ġ14": 4941,
      "Ġraucht": 4942,
      "Ġkurs": 4943,
      "Ġverwendet": 4944,
      "Ġkaninchen": 4945,
      "ĠbemÃ¼h": 4946,
      "Ġverzeihen": 4947,
      "Ġversuchst": 4948,
      "Ġfortschr": 4949,
      "appen": 4950,
      "Ġhauptstadt": 4951,
      "krieg": 4952,
      "besch": 4953,
      "Ġantun": 4954,
      "Ġwechseln": 4955,
      "Ġempfehlen": 4956,
      "Ġmitglied": 4957,
      "Ġgegenseitig": 4958,
      "Ġausruhen": 4959,
      "Ġchicago": 4960,
      "iÃŁ": 4961,
      "ĠtÅį": 4962,
      "Ġbeu": 4963,
      "Ġfeu": 4964,
      "Ġforder": 4965,
      "ĠlÃ¤": 4966,
      "Ġschuss": 4967,
      "reffen": 4968,
      "Ġveran": 4969,
      "Ġjungs": 4970,
      "Ġpein": 4971,
      "Ġputzen": 4972,
      "Ġwisse": 4973,
      "Ġrechte": 4974,
      "reibt": 4975,
      "zulernen": 4976,
      "Ġstecken": 4977,
      "Ġgeleist": 4978,
      "Ġgrat": 4979,
      "Ġeisen": 4980,
      "Ġpaket": 4981,
      "Ġgedichte": 4982,
      "Ġkennenzulernen": 4983,
      "Ġverdacht": 4984,
      "ĠÃ¼berraschen": 4985,
      "Ġgeschenke": 4986,
      "Ġnotiz": 4987,
      "Ġschwarzen": 4988,
      "Ġtausend": 4989,
      "eistert": 4990,
      "ĠÃ¶ffentlichkeit": 4991,
      "fÃ¤lle": 4992,
      "Ġkontrolle": 4993,
      "vertr": 4994,
      "Ġbananen": 4995,
      "Ġbesprechung": 4996,
      "Ġkorrekt": 4997,
      "Ġitalien": 4998,
      "Ġgeleistet": 4999,
      "aÃŁ": 5000,
      "iment": 5001,
      "Ġticket": 5002,
      "esch": 5003,
      "ĠkÃ¤lte": 5004,
      "Ġfach": 5005,
      "Ġgelegen": 5006,
      "iter": 5007,
      "Ġpe": 5008,
      "Ġblieben": 5009,
      "Ġgeschirr": 5010,
      "aussehen": 5011,
      "Ġgriff": 5012,
      "Ġlernte": 5013,
      "Ġhansen": 5014,
      "Ġtepp": 5015,
      "Ġvermeiden": 5016,
      "Ġzeigt": 5017,
      "Ġjederzeit": 5018,
      "Ġnebel": 5019,
      "Ġerleicht": 5020,
      "fÃ¼hrer": 5021,
      "Ġverzei": 5022,
      "Ġvolle": 5023,
      "Ġzeichen": 5024,
      "Ġmillionen": 5025,
      "Ġmathe": 5026,
      "Ġrechtsanw": 5027,
      "Ġignorieren": 5028,
      "Ġdeutschland": 5029,
      "ĠdrÃ¼ckte": 5030,
      "Ġpatienten": 5031,
      "Ġfremdsprache": 5032,
      "Ġdatei": 5033,
      "Ġanwesend": 5034,
      "ĠerkÃ¤ltet": 5035,
      "ettbewerb": 5036,
      "Ġelef": 5037,
      "bÃ¼r": 5038,
      "gleich": 5039,
      "rst": 5040,
      "wort": 5041,
      "Ġdeu": 5042,
      "Ġfel": 5043,
      "Ġgelegt": 5044,
      "Ġunge": 5045,
      "Ġindem": 5046,
      "Ġroll": 5047,
      "ĠrÃ¤tsel": 5048,
      "urn": 5049,
      "uren": 5050,
      "ĠÃ¼bergew": 5051,
      "Ġeng": 5052,
      "Ġtrifft": 5053,
      "Ġabwasch": 5054,
      "Ġwecken": 5055,
      "Ġgekannt": 5056,
      "Ġanget": 5057,
      "Ġangezogen": 5058,
      "Ġteam": 5059,
      "Ġbushalte": 5060,
      "flei": 5061,
      "ĠernÃ¤hr": 5062,
      "Ġvergisst": 5063,
      "Ġries": 5064,
      "Ġdepr": 5065,
      "Ġverschwunden": 5066,
      "Ġverschwinden": 5067,
      "Ġbemerken": 5068,
      "Ġernsthaft": 5069,
      "Ġwunderbar": 5070,
      "nahmen": 5071,
      "Ġpflicht": 5072,
      "zutage": 5073,
      "Ġheutzutage": 5074,
      "Ġwissenschaftler": 5075,
      "Ġverkehrsunfall": 5076,
      "Ġheiratete": 5077,
      "Ġweshalb": 5078,
      "wÃ¤rts": 5079,
      "Ġbedeutung": 5080,
      "eben": 5081,
      "griffen": 5082,
      "obt": 5083,
      "vÃ¶l": 5084,
      "stÃ¤ndig": 5085,
      "ĠhieÃŁ": 5086,
      "Ġtassen": 5087,
      "Ġteile": 5088,
      "ĠzuhÃ¶ren": 5089,
      "auben": 5090,
      "ierter": 5091,
      "Ġweitem": 5092,
      "Ġreichte": 5093,
      "Ġblume": 5094,
      "Ġverliert": 5095,
      "Ġsteckt": 5096,
      "Ġhergestellt": 5097,
      "Ġbeteil": 5098,
      "Ġgekocht": 5099,
      "Ġangewohn": 5100,
      "Ġhofft": 5101,
      "Ġbegeistert": 5102,
      "Ġschwierige": 5103,
      "ĠÃ¶ffnet": 5104,
      "ĠÃ¤rzte": 5105,
      "ĠÃ¼ben": 5106,
      "ĠauslÃ¤nder": 5107,
      "ĠÃ¼bersetz": 5108,
      "Ġgerecht": 5109,
      "Ġallerg": 5110,
      "Ġstarke": 5111,
      "zuteilen": 5112,
      "Ġschwimmbecken": 5113,
      "Ġantwortete": 5114,
      "Ġstreng": 5115,
      "ĠklÃ¼ger": 5116,
      "Ġentscheidungen": 5117,
      "Ġattrakt": 5118,
      "Ġtheorie": 5119,
      "Ġbushaltestelle": 5120,
      "vÃ¶lker": 5121,
      "dung": 5122,
      "gei": 5123,
      "mte": 5124,
      "Ġsing": 5125,
      "Ġsang": 5126,
      "Ġwachsen": 5127,
      "einen": 5128,
      "Ġachten": 5129,
      "Ġdiejenige": 5130,
      "alitÃ¤t": 5131,
      "Ġmitzuteilen": 5132,
      "Ġopfer": 5133,
      "Ġvorzu": 5134,
      "bew": 5135,
      "ĠmÃ¼t": 5136,
      "Ġgutaussehen": 5137,
      "Ġgering": 5138,
      "Ġschublade": 5139,
      "Ġherbst": 5140,
      "Ġspielzeug": 5141,
      "Ġgelacht": 5142,
      "igend": 5143,
      "Ã¤lde": 5144,
      "astisch": 5145,
      "Ġbegriff": 5146,
      "Ġferne": 5147,
      "Ġzeige": 5148,
      "Ġstrom": 5149,
      "Ġbedro": 5150,
      "Ġgetragen": 5151,
      "ĠhÃ¼hn": 5152,
      "Ġliebes": 5153,
      "Ġerschossen": 5154,
      "Ġirgendwohin": 5155,
      "Ġfolge": 5156,
      "Ġjene": 5157,
      "Ġbauch": 5158,
      "gerecht": 5159,
      "Ã¤sslich": 5160,
      "Ġarbeitslos": 5161,
      "Ġhuhn": 5162,
      "ips": 5163,
      "ĠdrÃ¼cken": 5164,
      "Ġwolken": 5165,
      "Ġtemperatur": 5166,
      "Ġintelligent": 5167,
      "Ġfrankreich": 5168,
      "aÃŁt": 5169,
      "ite": 5170,
      "zial": 5171,
      "erlich": 5172,
      "eide": 5173,
      "Ġgast": 5174,
      "ĠgÃ¼nst": 5175,
      "Ġnutz": 5176,
      "ĠbÃ¤": 5177,
      "Ġband": 5178,
      "Ġzugeben": 5179,
      "Ġschild": 5180,
      "Ġinzwischen": 5181,
      "Ġfrische": 5182,
      "Ã¤tz": 5183,
      "Ġabholen": 5184,
      "Ġgeschichten": 5185,
      "Ġlanger": 5186,
      "Ġzeitverschwendung": 5187,
      "Ġspieler": 5188,
      "Ġprozent": 5189,
      "Ġseitdem": 5190,
      "ehnt": 5191,
      "ĠfuÃŁboden": 5192,
      "Ġfamilien": 5193,
      "gefÃ¼hrt": 5194,
      "Ġenglische": 5195,
      "Ã¼hren": 5196,
      "ĠÃ¶ffne": 5197,
      "Ġausgegeben": 5198,
      "Ġkrankenschwester": 5199,
      "Ġlichter": 5200,
      "Ġrechnungen": 5201,
      "Ġkriegen": 5202,
      "Ġkrebs": 5203,
      "Ġdoktor": 5204,
      "Ġtatsache": 5205,
      "Ġgestritten": 5206,
      "Ġverabre": 5207,
      "rett": 5208,
      "Ġdrehte": 5209,
      "ĠfÃ¤hig": 5210,
      "Ġverirrt": 5211,
      "Ġpicknick": 5212,
      "Ġwichtige": 5213,
      "Ġpraktisch": 5214,
      "fleisch": 5215,
      "?\"": 5216,
      "doch": 5217,
      "fin": 5218,
      "mpf": 5219,
      "nern": 5220,
      "sache": 5221,
      "Ġ9": 5222,
      "Ġserv": 5223,
      "Ġwaffen": 5224,
      "ĠmÃ¶rder": 5225,
      "Ġmauer": 5226,
      "Ġhon": 5227,
      "Ã¼bt": 5228,
      "Ġfett": 5229,
      "Ã¤he": 5230,
      "Ġlast": 5231,
      "Ã¶gen": 5232,
      "achricht": 5233,
      "Ġesst": 5234,
      "ons": 5235,
      "gegeben": 5236,
      "Ġind": 5237,
      "Ġderzeit": 5238,
      "Ġpist": 5239,
      "urr": 5240,
      "Ġdiesmal": 5241,
      "ĠvorÃ¼ber": 5242,
      "ĠÃ¼berfahren": 5243,
      "ĠblÃ¤t": 5244,
      "Ġschlafe": 5245,
      "assung": 5246,
      "Ġunterh": 5247,
      "Ġautor": 5248,
      "appar": 5249,
      "ĠkÃ¼chen": 5250,
      "Ġerfunden": 5251,
      "Ġgleichzeitig": 5252,
      "logen": 5253,
      "Ġhohe": 5254,
      "werden": 5255,
      "Ġprinz": 5256,
      "Ġfeigl": 5257,
      "iebte": 5258,
      "ĠenttÃ¤uschen": 5259,
      "opfte": 5260,
      "Ġeingestellt": 5261,
      "Ġrotwein": 5262,
      "Ġpersonen": 5263,
      "Ġbadew": 5264,
      "Ġchina": 5265,
      "Ġgeschnitten": 5266,
      "Ġbehauptet": 5267,
      "ĠungewÃ¶hnlich": 5268,
      "Ġsorgf": 5269,
      "Ġvolk": 5270,
      "Ġgeschmeckt": 5271,
      "go": 5272,
      "ider": 5273,
      "ko": 5274,
      "kyÅį": 5275,
      "swert": 5276,
      "wehr": 5277,
      "Ġsus": 5278,
      "Ġmu": 5279,
      "Ġhor": 5280,
      "Ġgas": 5281,
      "are": 5282,
      "Ġzulassen": 5283,
      "Ġaufre": 5284,
      "Ġbewer": 5285,
      "Ġnachzu": 5286,
      "ĠweiÃŁe": 5287,
      "Ġschlange": 5288,
      "Ġabnehmen": 5289,
      "Ġzeitlang": 5290,
      "Ã¼ndet": 5291,
      "Ġgestiegen": 5292,
      "Ġhelft": 5293,
      "Ġdrauf": 5294,
      "Ġnackt": 5295,
      "tliche": 5296,
      "rist": 5297,
      "ĠmuÃŁte": 5298,
      "ive": 5299,
      "Ġmusiker": 5300,
      "ĠfÃ¼nfzig": 5301,
      "ĠfÃ¼nfzehn": 5302,
      "Ġrock": 5303,
      "Ġverabschieden": 5304,
      "Ġgeweckt": 5305,
      "Ġdoppelt": 5306,
      "Ġbeabsicht": 5307,
      "ĠtÅįkyÅį": 5308,
      "Ġpeinlich": 5309,
      "Ġbadewanne": 5310,
      "garten": 5311,
      "zeiten": 5312,
      "Ġwunsch": 5313,
      "Ġnation": 5314,
      "Ġferien": 5315,
      "Ġgepar": 5316,
      "Ġgepfl": 5317,
      "Ġlippen": 5318,
      "Ġschutz": 5319,
      "Ġwirf": 5320,
      "Ġausstehen": 5321,
      "Ġumar": 5322,
      "ĠÃ¼berlassen": 5323,
      "Ġbesorgen": 5324,
      "ilflich": 5325,
      "Ġjedoch": 5326,
      "Ġwirkte": 5327,
      "Ġhingegangen": 5328,
      "ĠgemÃ¤lde": 5329,
      "Ġgelingen": 5330,
      "verlÃ¤ssig": 5331,
      "ĠglÃ¼cklicher": 5332,
      "ferien": 5333,
      "Ġkop": 5334,
      "Ġbehilflich": 5335,
      "Ġweint": 5336,
      "Ġbevorzu": 5337,
      "Ġtapfer": 5338,
      "Ġbedeckt": 5339,
      "Ġletztlich": 5340,
      "Ġromant": 5341,
      "Ġtaub": 5342,
      "hÃ¶hung": 5343,
      "packt": 5344,
      "Ġparis": 5345,
      "Ġumsonst": 5346,
      "Ġabsolut": 5347,
      "ĠfranzÃ¶sischlehrerin": 5348,
      "ĠÃ¼berreden": 5349,
      "Ġoperation": 5350,
      "Ġunzufrieden": 5351,
      "Ġkehrte": 5352,
      "Ġpistole": 5353,
      "Ġgeparkt": 5354,
      "frei": 5355,
      "itel": 5356,
      "ifte": 5357,
      "kn": 5358,
      "kor": 5359,
      "setzen": 5360,
      "Ġ%": 5361,
      "eignet": 5362,
      "ietet": 5363,
      "Ġmaus": 5364,
      "Ġhum": 5365,
      "ĠtÃ¤n": 5366,
      "Ġnu": 5367,
      "Ġfor": 5368,
      "Ġfingen": 5369,
      "Ġeingehen": 5370,
      "schÃ¼": 5371,
      "schten": 5372,
      "Ġang": 5373,
      "Ġanspr": 5374,
      "Ġanzusehen": 5375,
      "Ġren": 5376,
      "Ġrisk": 5377,
      "Ġhiervon": 5378,
      "Ġumarm": 5379,
      "Ġgeworfen": 5380,
      "Ġblatt": 5381,
      "allt": 5382,
      "Ġablehnen": 5383,
      "Ġklang": 5384,
      "Ġzeitschrift": 5385,
      "Ġgras": 5386,
      "Ġbuches": 5387,
      "Ġhalben": 5388,
      "ĠautoschlÃ¼ssel": 5389,
      "Ã¤ub": 5390,
      "Ġweggehen": 5391,
      "verl": 5392,
      "Ġbeherr": 5393,
      "Ġorgan": 5394,
      "Ġnamens": 5395,
      "Ġfalle": 5396,
      "Ġehrgei": 5397,
      "Ġapfels": 5398,
      "oph": 5399,
      "Ġruhestand": 5400,
      "ĠbenÃ¶tige": 5401,
      "ĠÃ¤hnelt": 5402,
      "Ġerdbeeren": 5403,
      "Ġschauspielerin": 5404,
      "ĠerwÃ¤hnt": 5405,
      "ĠzurÃ¼ckgekehrt": 5406,
      "Ġirgendjemand": 5407,
      "dre": 5408,
      "gru": 5409,
      "tom": 5410,
      "uten": 5411,
      "ys": 5412,
      "Ġstet": 5413,
      "eidet": 5414,
      "ieÃŁe": 5415,
      "Ġham": 5416,
      "Ġpok": 5417,
      "Ġausschalten": 5418,
      "Ġreag": 5419,
      "Ġrelig": 5420,
      "Ġvorhaben": 5421,
      "ĠÃ¼bermorgen": 5422,
      "Ã¤nden": 5423,
      "Ġgestochen": 5424,
      "Ġwecker": 5425,
      "Ġirgendeine": 5426,
      "ĠvermÃ¶gen": 5427,
      "Ã¼tte": 5428,
      "zeuge": 5429,
      "Ġkurze": 5430,
      "Ġverwenden": 5431,
      "Ġstundenlang": 5432,
      "umente": 5433,
      "ĠtÃ¤ten": 5434,
      "ĠfÃ¼hlst": 5435,
      "Ġkapit": 5436,
      "Ġgeheimnisse": 5437,
      "wÃ¼rd": 5438,
      "weisungen": 5439,
      "Ġbeschweren": 5440,
      "Ġerhielt": 5441,
      "ĠamÃ¼siert": 5442,
      "Ġscherz": 5443,
      "Ġkartoffel": 5444,
      "Ġermor": 5445,
      "ĠgetrÃ¤nk": 5446,
      "Ġgebrauchen": 5447,
      "Ġeinzelheiten": 5448,
      "Ġinternet": 5449,
      "Ġdeutlich": 5450,
      "ĠsorgfÃ¤lt": 5451,
      "dach": 5452,
      "frig": 5453,
      "ippe": 5454,
      "linge": 5455,
      "mord": 5456,
      "up": 5457,
      "wich": 5458,
      "Ġmas": 5459,
      "Ġass": 5460,
      "Ġkost": 5461,
      "unru": 5462,
      "ĠschÃ¼tzen": 5463,
      "ĠanschlieÃŁen": 5464,
      "Ġderen": 5465,
      "alte": 5466,
      "Ġmitten": 5467,
      "Ġgefasst": 5468,
      "Ġgefehlt": 5469,
      "olo": 5470,
      "Ġabgesagt": 5471,
      "Ġentgegen": 5472,
      "ismus": 5473,
      "ĠwÃ¤scht": 5474,
      "Ġselben": 5475,
      "Ġeinfacher": 5476,
      "Ġirren": 5477,
      "Ġtour": 5478,
      "ĠfleiÃŁ": 5479,
      "ĠgrÃ¶ÃŁere": 5480,
      "Ġinteressantes": 5481,
      "Ġkreu": 5482,
      "mannschaft": 5483,
      "retÃ¤r": 5484,
      "Ġpatient": 5485,
      "Ġhervorragen": 5486,
      "Ġkontroll": 5487,
      "Ġchinesisch": 5488,
      "Ġvideo": 5489,
      "Ġgeldbeutel": 5490,
      "Ġzweck": 5491,
      "Ġfeigling": 5492,
      "hett": 5493,
      "izen": 5494,
      "vier": 5495,
      "Ġom": 5496,
      "Ġurt": 5497,
      "Ġsan": 5498,
      "Ġsum": 5499,
      "Ġseiten": 5500,
      "ĠsÃ¤u": 5501,
      "Ġmis": 5502,
      "ĠiÃŁt": 5503,
      "Ġzeiten": 5504,
      "Ġfas": 5505,
      "Ã¤ÃŁ": 5506,
      "schst": 5507,
      "Ġverr": 5508,
      "Ġverurt": 5509,
      "Ġderart": 5510,
      "Ġbeunru": 5511,
      "Ġstamm": 5512,
      "Ġros": 5513,
      "Ġspag": 5514,
      "Ġdieselbe": 5515,
      "Ġbien": 5516,
      "Ġgefolgt": 5517,
      "Ġschwimmer": 5518,
      "rage": 5519,
      "Ġabst": 5520,
      "Ġverlaufen": 5521,
      "Ġstehst": 5522,
      "ika": 5523,
      "prÃ¼fung": 5524,
      "abet": 5525,
      "Ġgucken": 5526,
      "Ġproblems": 5527,
      "Ġselbstmord": 5528,
      "endung": 5529,
      "Ġschwerer": 5530,
      "Ġerinner": 5531,
      "Ġtodes": 5532,
      "Ġschnitt": 5533,
      "Ġverhindern": 5534,
      "ĠhÃ¶her": 5535,
      "Ġknei": 5536,
      "Ġendete": 5537,
      "Ġhey": 5538,
      "ĠdiÃ¤t": 5539,
      "Ġzerbrochen": 5540,
      "Ġromane": 5541,
      "mack": 5542,
      "Ġhoffentlich": 5543,
      "ĠsekretÃ¤r": 5544,
      "Ġdrogen": 5545,
      "Ġwandern": 5546,
      "Ã¼ltig": 5547,
      "ĠdÃ¼nn": 5548,
      "ĠbefÃ¶rdert": 5549,
      "Ġteppich": 5550,
      "beh": 5551,
      "elle": 5552,
      "Ġzun": 5553,
      "Ġlo": 5554,
      "Ġlinken": 5555,
      "Ã¶pf": 5556,
      "auert": 5557,
      "ĠaufgerÃ¤umt": 5558,
      "ĠbefÃ¼r": 5559,
      "ĠstÃ¤d": 5560,
      "Ġrut": 5561,
      "ennst": 5562,
      "attet": 5563,
      "stecken": 5564,
      "ĠÃ¼berein": 5565,
      "Ġabhalten": 5566,
      "Ġklem": 5567,
      "testen": 5568,
      "Ġgeriet": 5569,
      "Ġzeitpunkt": 5570,
      "heben": 5571,
      "Ġwirklichkeit": 5572,
      "gerÃ¤t": 5573,
      "zeichen": 5574,
      "Ġfreundinnen": 5575,
      "Ġirrst": 5576,
      "Ġdritten": 5577,
      "sprechen": 5578,
      "Ġtext": 5579,
      "Ġwichtiges": 5580,
      "ĠgrÃ¶ÃŁe": 5581,
      "Ġbewahren": 5582,
      "Ġbestellen": 5583,
      "Ġherausf": 5584,
      "Ġregens": 5585,
      "ĠsÃ¼ÃŁig": 5586,
      "Ġtraur": 5587,
      "Ġverbringt": 5588,
      "Ġverbrannt": 5589,
      "Ġpfle": 5590,
      "chselt": 5591,
      "Ġatmen": 5592,
      "Ġdipl": 5593,
      "Ġmoder": 5594,
      "kamer": 5595,
      "fahrt": 5596,
      "Ġhandtuch": 5597,
      "Ġuntersuchen": 5598,
      "Ġfotografieren": 5599,
      "Ġgewechselt": 5600,
      "Ġmitteilen": 5601,
      "Ġverschiedene": 5602,
      "Ġjoggen": 5603,
      "ĠvergnÃ¼gen": 5604,
      "Ġangetan": 5605,
      "Ġermordet": 5606,
      "Ġspaghett": 5607,
      "mÃ¤chtig": 5608,
      "tÃ¼r": 5609,
      "tasche": 5610,
      "ym": 5611,
      "Ġwut": 5612,
      "ĠtÃ¤u": 5613,
      "Ġbele": 5614,
      "Ġess": 5615,
      "Ġank": 5616,
      "Ġwiegt": 5617,
      "Ġpomm": 5618,
      "Ġwoander": 5619,
      "Ġbester": 5620,
      "Ġbeendet": 5621,
      "ahrt": 5622,
      "ĠfÃ¼rchtet": 5623,
      "Ġvorstellung": 5624,
      "Ġenkel": 5625,
      "Ġarch": 5626,
      "olmet": 5627,
      "Ġsagtet": 5628,
      "Ġbittet": 5629,
      "Ġwurdest": 5630,
      "Ġwahre": 5631,
      "Ġlangem": 5632,
      "spro": 5633,
      "Ġeinziges": 5634,
      "Ġweitermachen": 5635,
      "Ġhandy": 5636,
      "Ġschwieriger": 5637,
      "Ġausgezeichnet": 5638,
      "ĠlÃ¤cherlich": 5639,
      "Ġdumme": 5640,
      "ĠÃ¤ltere": 5641,
      "Ġfolgte": 5642,
      "Ġschmutz": 5643,
      "Ġkorb": 5644,
      "problem": 5645,
      "Ġschalte": 5646,
      "Ġbadezimmer": 5647,
      "weifelt": 5648,
      "zÃ¼glich": 5649,
      "Ġteurer": 5650,
      "Ġverabschie": 5651,
      "Ġdunkeln": 5652,
      "Ġabgelehnt": 5653,
      "ĠhÃ¶chste": 5654,
      "Ġelefanten": 5655,
      "Ġattraktiv": 5656,
      "Ġpommes": 5657,
      "Ġwoanders": 5658,
      "haf": 5659,
      "que": 5660,
      "eifen": 5661,
      "Ġnage": 5662,
      "irt": 5663,
      "indest": 5664,
      "Ã¤gt": 5665,
      "Ġliter": 5666,
      "schri": 5667,
      "ĠverrÃ¼ck": 5668,
      "Ġvergeht": 5669,
      "denk": 5670,
      "Ġwies": 5671,
      "Ġpan": 5672,
      "Ġbegehen": 5673,
      "Ġbeweise": 5674,
      "Ġbezug": 5675,
      "Ġallgem": 5676,
      "andid": 5677,
      "Ġlegt": 5678,
      "Ġledig": 5679,
      "Ġblauen": 5680,
      "ingungen": 5681,
      "Ġklu": 5682,
      "Ġverlobt": 5683,
      "Ġgeldes": 5684,
      "Ġbeschreiben": 5685,
      "Ġzweit": 5686,
      "Ġcaf": 5687,
      "Ġkostete": 5688,
      "Ġ200": 5689,
      "Ġplane": 5690,
      "ĠparkstraÃŁe": 5691,
      "Ġkaltes": 5692,
      "ĠgetrÃ¤umt": 5693,
      "ĠÃ¤ndert": 5694,
      "Ġverschwand": 5695,
      "Ġjenes": 5696,
      "Ġpuppe": 5697,
      "Ġdachtest": 5698,
      "Ġheimweg": 5699,
      "ĠvorhÃ¤nge": 5700,
      "Ġbereuen": 5701,
      "ĠohnmÃ¤chtig": 5702,
      "Ġaufrichtig": 5703,
      "Ġzwillinge": 5704,
      "Ġzugestimmt": 5705,
      "Ġlastwagen": 5706,
      "apparat": 5707,
      "Ġpoker": 5708,
      "schriften": 5709,
      "die": 5710,
      "durch": 5711,
      "kon": 5712,
      "nissen": 5713,
      "nallt": 5714,
      "pir": 5715,
      "tun": 5716,
      "tau": 5717,
      "treten": 5718,
      "chern": 5719,
      "ĠmÃ¤": 5720,
      "Ġmagen": 5721,
      "Ġhunden": 5722,
      "ĠhÃ¤sslich": 5723,
      "ĠzÃ¤hlt": 5724,
      "Ġfanden": 5725,
      "Ġgeg": 5726,
      "Ġeingang": 5727,
      "Ġzustand": 5728,
      "Ġlach": 5729,
      "Ġschere": 5730,
      "Ã¶te": 5731,
      "Ġverrie": 5732,
      "Ġinse": 5733,
      "Ġinnen": 5734,
      "Ġanweisungen": 5735,
      "sende": 5736,
      "Ġmitte": 5737,
      "Ġwovor": 5738,
      "Ġgewinn": 5739,
      "Ġblitz": 5740,
      "ĠtrÃ¤umen": 5741,
      "Ġabger": 5742,
      "Ġverlust": 5743,
      "Ġherzlich": 5744,
      "neten": 5745,
      "Ġberge": 5746,
      "ĠbeschÃ¤d": 5747,
      "Ġobdach": 5748,
      "Ġeimer": 5749,
      "Ġbetro": 5750,
      "Ġgekleidet": 5751,
      "ĠschÃ¶nste": 5752,
      "ffel": 5753,
      "âĢľ.": 5754,
      "essern": 5755,
      "glichen": 5756,
      "Ġbezahle": 5757,
      "Ġhandschrift": 5758,
      "Ġverschieben": 5759,
      "Ġbelogen": 5760,
      "Ġheben": 5761,
      "Ġkanada": 5762,
      "habe": 5763,
      "Ġfeuerwehr": 5764,
      "Ġlaufe": 5765,
      "Ġerschre": 5766,
      "Ġgeist": 5767,
      "geteilt": 5768,
      "Ġfernseh": 5769,
      "Ġauszugehen": 5770,
      "Ġfremden": 5771,
      "Ġlager": 5772,
      "Ã¤ngstigt": 5773,
      "Ġklassenkamer": 5774,
      "Ġkugel": 5775,
      "Ġkalte": 5776,
      "Ġkonzentrieren": 5777,
      "ĠstÃ¶ren": 5778,
      "Ġidiot": 5779,
      "ĠvernÃ¼nftig": 5780,
      "Ġspeise": 5781,
      "Ġeinkaufs": 5782,
      "Ġstets": 5783,
      "ologe": 5784,
      "Ġbeunruh": 5785,
      "ĠsÃ¼ÃŁigkeiten": 5786,
      "gste": 5787,
      "hi": 5788,
      "lungen": 5789,
      "zz": 5790,
      "Ġus": 5791,
      "ĠbÃ¤ren": 5792,
      "Ġzelten": 5793,
      "Ġdut": 5794,
      "Ġschrank": 5795,
      "Ġverbl": 5796,
      "eldet": 5797,
      "igst": 5798,
      "ĠbevÃ¶lker": 5799,
      "ĠfrÃ¶": 5800,
      "Ġriss": 5801,
      "Ġvorge": 5802,
      "ĠÃ¼berst": 5803,
      "Ġbesor": 5804,
      "ĠmÃ¶ge": 5805,
      "Ġkletter": 5806,
      "Ġhinweg": 5807,
      "aff": 5808,
      "Ġflaschen": 5809,
      "Ġego": 5810,
      "ĠfÃ¼llte": 5811,
      "Ġgarant": 5812,
      "ussion": 5813,
      "Ġbenachricht": 5814,
      "Ġcd": 5815,
      "ĠverkÃ¤ufer": 5816,
      "Ã¼ttert": 5817,
      "ĠhÃ¶hle": 5818,
      "unterhalt": 5819,
      "Ġschuldet": 5820,
      "Ġbedien": 5821,
      "andel": 5822,
      "Ġbenutze": 5823,
      "Ġaufzupassen": 5824,
      "Ġtanzt": 5825,
      "Ġverschwenden": 5826,
      "Ġlebensunterhalt": 5827,
      "fÃ¼hrt": 5828,
      "Ġheimweh": 5829,
      "ĠwÃ¤rmer": 5830,
      "Ġamerikanische": 5831,
      "Ġdiskussion": 5832,
      "Ġverantwortung": 5833,
      "Ġsicherheits": 5834,
      "Ġverteid": 5835,
      "Ġsandwich": 5836,
      "ĠÃ¼berqueren": 5837,
      "Ġgelangwei": 5838,
      "ĠverstÃ¤ndlich": 5839,
      "ĠmerkwÃ¼rdig": 5840,
      "Ġschockiert": 5841,
      "geschenk": 5842,
      "Ġdetails": 5843,
      "Ġallergisch": 5844,
      "Ġhonig": 5845,
      "fft": 5846,
      "kom": 5847,
      "leid": 5848,
      "lampe": 5849,
      "wart": 5850,
      "chn": 5851,
      "Ġdel": 5852,
      "Ġdolmet": 5853,
      "steigen": 5854,
      "Ġmeilen": 5855,
      "Ġmord": 5856,
      "Ġther": 5857,
      "Ġnahr": 5858,
      "uni": 5859,
      "Ġunged": 5860,
      "Ġpsy": 5861,
      "Ġaufw": 5862,
      "Ġaufent": 5863,
      "Ġhabest": 5864,
      "Ġmitgeteilt": 5865,
      "Ġmarkt": 5866,
      "Ġvorgestellt": 5867,
      "Ġlebend": 5868,
      "Ġglaub": 5869,
      "malt": 5870,
      "serhÃ¶hung": 5871,
      "Ġlanges": 5872,
      "Ġuntern": 5873,
      "Ġgraus": 5874,
      "stron": 5875,
      "Ġangekl": 5876,
      "ffer": 5877,
      "Ġerkl": 5878,
      "Ġmuttersprache": 5879,
      "Ġweiteren": 5880,
      "Ġfragst": 5881,
      "Ġverhung": 5882,
      "Ġvorbeigekommen": 5883,
      "Ġwarteten": 5884,
      "Ġnettes": 5885,
      "Ġlud": 5886,
      "Ġbekommst": 5887,
      "Ġerdn": 5888,
      "Ġcool": 5889,
      "Ġfarben": 5890,
      "Ġrasiert": 5891,
      "Ġmeter": 5892,
      "Ġfeinde": 5893,
      "Ã¼ndigt": 5894,
      "Ġkerzen": 5895,
      "dienst": 5896,
      "Ġfliegt": 5897,
      "ĠkÃ¼rzlich": 5898,
      "ĠgehaltserhÃ¶hung": 5899,
      "Ġabschied": 5900,
      "Ġsparen": 5901,
      "Ġphantasie": 5902,
      "Ġvergeu": 5903,
      "Ġstoppen": 5904,
      "Ġabwesenheit": 5905,
      "Ġrechtsanwalt": 5906,
      "ĠÃ¼bergewichtig": 5907,
      "Ġangewohnheit": 5908,
      "Ġgepflanzt": 5909,
      "Ġfaszin": 5910,
      "Ġaufenthalt": 5911,
      "bogen": 5912,
      "gten": 5913,
      "hahn": 5914,
      "kind": 5915,
      "messen": 5916,
      "sichtig": 5917,
      "Ã©": 5918,
      "Ġdonn": 5919,
      "Ġdreck": 5920,
      "ĠsÃ¤tze": 5921,
      "eisen": 5922,
      "ankt": 5923,
      "une": 5924,
      "Ġvase": 5925,
      "Ġeinbruch": 5926,
      "Ġzugenommen": 5927,
      "itÃ¤ten": 5928,
      "ĠunabhÃ¤ng": 5929,
      "Ġwartest": 5930,
      "etit": 5931,
      "ettern": 5932,
      "ehler": 5933,
      "bern": 5934,
      "Ġbellen": 5935,
      "Ġfro": 5936,
      "Ġstur": 5937,
      "Ġsteigt": 5938,
      "urg": 5939,
      "Ġol": 5940,
      "Ġwid": 5941,
      "Ġalp": 5942,
      "mmert": 5943,
      "Ã¼ckt": 5944,
      "Ġgefeuert": 5945,
      "Ġlebst": 5946,
      "Ġgewiss": 5947,
      "Ġschlips": 5948,
      "Ġklop": 5949,
      "Ġklappe": 5950,
      "Ġampel": 5951,
      "offen": 5952,
      "Ġheran": 5953,
      "Ġgelb": 5954,
      "Ġsaft": 5955,
      "Ġpassag": 5956,
      "Ġheirat": 5957,
      "Ġautounfall": 5958,
      "Ġjahrhundert": 5959,
      "Ġinspir": 5960,
      "Ġpackte": 5961,
      "mete": 5962,
      "Ġerwart": 5963,
      "Ġelf": 5964,
      "Ġdurchschn": 5965,
      "Ġschwere": 5966,
      "Ġnaiv": 5967,
      "legenheiten": 5968,
      "Ġchem": 5969,
      "ungsmittel": 5970,
      "ĠÃ¼berraschte": 5971,
      "Ġreicher": 5972,
      "Ġverbessern": 5973,
      "Ġbestellte": 5974,
      "Ġnachmittags": 5975,
      "Ġreparatur": 5976,
      "ulieren": 5977,
      "Ġseltsame": 5978,
      "Ġschmecken": 5979,
      "Ġaussuchen": 5980,
      "kasten": 5981,
      "Ġkult": 5982,
      "Ġgeschwister": 5983,
      "Ġignoriert": 5984,
      "Ġsoldat": 5985,
      "Ġverschlossen": 5986,
      "Ġfliege": 5987,
      "Ġzitr": 5988,
      "ĠgetrÃ¤nke": 5989,
      "Ġfreiwillig": 5990,
      "Ġentdeckt": 5991,
      "shirt": 5992,
      "Ġextrem": 5993,
      "burger": 5994,
      "Ġbesitzer": 5995,
      "Ġfortschritte": 5996,
      "Ġhumor": 5997,
      "Ġspaghetti": 5998,
      "bau": 5999,
      "lauf": 6000,
      "tÃ¤t": 6001,
      "Ġsetzt": 6002,
      "Ġwachte": 6003,
      "stande": 6004,
      "Ġhielten": 6005,
      "Ġapr": 6006,
      "Ġbom": 6007,
      "Ã¼m": 6008,
      "Ġfant": 6009,
      "hren": 6010,
      "Ġgepl": 6011,
      "llung": 6012,
      "Ġlauf": 6013,
      "Ġschafe": 6014,
      "Ġerholt": 6015,
      "Ġanst": 6016,
      "alter": 6017,
      "ehle": 6018,
      "Ġpos": 6019,
      "Ġmitbe": 6020,
      "bergen": 6021,
      "Ġgesam": 6022,
      "Ġspu": 6023,
      "indigkeit": 6024,
      "Ġauswendig": 6025,
      "ahrer": 6026,
      "Ġvorsicht": 6027,
      "Ġvorteil": 6028,
      "anzug": 6029,
      "ĠÃ¼beraus": 6030,
      "fest": 6031,
      "Ġlieh": 6032,
      "zustellen": 6033,
      "Ġklopfte": 6034,
      "Ġgeschossen": 6035,
      "Ġgemeldet": 6036,
      "Ġbereiten": 6037,
      "Ġbuchst": 6038,
      "Ġspringen": 6039,
      "Ġbetreten": 6040,
      "ĠfÃ¼ller": 6041,
      "Ġwusstet": 6042,
      "ween": 6043,
      "Ġbekl": 6044,
      "Ġkennenlern": 6045,
      "Ġgenauer": 6046,
      "Ġmex": 6047,
      "Ġzufolge": 6048,
      "endete": 6049,
      "Ġmonats": 6050,
      "Ġaufzug": 6051,
      "Ġvierzig": 6052,
      "ĠmÃ¤nnern": 6053,
      "Ġaussah": 6054,
      "ĠberÃ¼hmter": 6055,
      "ĠbenÃ¶tigt": 6056,
      "ĠschlieÃŁe": 6057,
      "Ġstaat": 6058,
      "Ġbrieft": 6059,
      "ĠmaÃŁ": 6060,
      "Ġdeutsch": 6061,
      "Ġhilfreich": 6062,
      "Ġgeschneit": 6063,
      "Ġhalloween": 6064,
      "Ġaktiv": 6065,
      "Ġappetit": 6066,
      "Ġdichter": 6067,
      "Ġwaschmaschine": 6068,
      "Ġzigaretten": 6069,
      "ĠkÃ¼ndigen": 6070,
      "Ġdiskutieren": 6071,
      "ĠbestÃ¤tigen": 6072,
      "farbe": 6073,
      "Ġmotiviert": 6074,
      "ĠblÃ¤tter": 6075,
      "Ġunterhielten": 6076,
      "gruppe": 6077,
      "ĠkapitÃ¤n": 6078,
      "Ġassisten": 6079,
      "Ġkneipe": 6080,
      "Ġpsych": 6081,
      "Ġalptr": 6082,
      "abl": 6083,
      "hel": 6084,
      "ipp": 6085,
      "post": 6086,
      "usch": 6087,
      "vard": 6088,
      "Ġsm": 6089,
      "eis": 6090,
      "stunde": 6091,
      "Ġminder": 6092,
      "Ġgang": 6093,
      "Ġba": 6094,
      "Ġbrem": 6095,
      "angst": 6096,
      "Ġzunge": 6097,
      "Ġzelt": 6098,
      "Ġgemalt": 6099,
      "Ġeinschlafen": 6100,
      "Ġschatten": 6101,
      "Ġungerecht": 6102,
      "Ġanh": 6103,
      "Ġjo": 6104,
      "Ġport": 6105,
      "Ġpop": 6106,
      "Ġstahl": 6107,
      "ĠstieÃŁ": 6108,
      "ĠspÃ¤": 6109,
      "Ġwild": 6110,
      "steckt": 6111,
      "Ġumschlag": 6112,
      "ĠglÃ¤": 6113,
      "ĠweiÃŁes": 6114,
      "ildet": 6115,
      "Ġlektion": 6116,
      "Ġgewehr": 6117,
      "Ġgetanzt": 6118,
      "Ġgener": 6119,
      "ĠzurÃ¼ckkehren": 6120,
      "Ġangegriffen": 6121,
      "essiv": 6122,
      "Ġpacken": 6123,
      "Ġrucks": 6124,
      "Ġerstaunt": 6125,
      "ĠbÃ¼cherei": 6126,
      "reiche": 6127,
      "Ġchar": 6128,
      "Ġstrich": 6129,
      "Ġorden": 6130,
      "Ġernte": 6131,
      "ĠfÃ¼hre": 6132,
      "Ġparkplatz": 6133,
      "ĠratschlÃ¤ge": 6134,
      "Ġsommerferien": 6135,
      "Ġbeantwor": 6136,
      "Ġliebling": 6137,
      "Ġrausgehen": 6138,
      "Ġgeige": 6139,
      "ĠabzuschlieÃŁen": 6140,
      "Ġtypen": 6141,
      "Ġzustimm": 6142,
      "Ġtaschenlampe": 6143,
      "Ġbringst": 6144,
      "ĠtÃ¶chter": 6145,
      "ĠamÃ¼sieren": 6146,
      "ĠsÃ¤ngerin": 6147,
      "Ġerwachsene": 6148,
      "Ġmittler": 6149,
      "Ġmahlzeit": 6150,
      "Ġklimaanlage": 6151,
      "Ġstiefel": 6152,
      "ĠÃ¼berprÃ¼fen": 6153,
      "Ġfleck": 6154,
      "Ġwahnsinnig": 6155,
      "ĠgroÃŁzÃ¼gig": 6156,
      "verstÃ¤ndnis": 6157,
      "ĠsorgfÃ¤ltig": 6158,
      "Ġverurteilt": 6159,
      "Ġgelangweilt": 6160,
      "Ġrucksack": 6161,
      "bi": 6162,
      "gut": 6163,
      "tausend": 6164,
      "welt": 6165,
      "Ġ000": 6166,
      "Ġweht": 6167,
      "Ġwuchs": 6168,
      "stoff": 6169,
      "Ġgramm": 6170,
      "Ġafr": 6171,
      "Ġbeit": 6172,
      "Ġkrei": 6173,
      "ichts": 6174,
      "Ġgeachtet": 6175,
      "Ġzul": 6176,
      "Ã¤st": 6177,
      "ĠverÃ¶": 6178,
      "alent": 6179,
      "Ġmitbringen": 6180,
      "ĠrÃ¼ber": 6181,
      "Ġaltern": 6182,
      "Ġbraun": 6183,
      "Ġklat": 6184,
      "ĠenthÃ¤lt": 6185,
      "Ġjeans": 6186,
      "ĠwÃ¤rt": 6187,
      "gelaufen": 6188,
      "Ġheld": 6189,
      "Ġgenossen": 6190,
      "Ġfahrstuhl": 6191,
      "spar": 6192,
      "Ġaufgef": 6193,
      "Ġzwieb": 6194,
      "Ġbehalte": 6195,
      "hÃ¶rer": 6196,
      "gefÃ¼hl": 6197,
      "ĠbewuÃŁt": 6198,
      "Ġlandes": 6199,
      "andelt": 6200,
      "ĠlÃ¶ffel": 6201,
      "ĠÃ¤nderungen": 6202,
      "Ġschaffst": 6203,
      "Ġdummes": 6204,
      "zusetzen": 6205,
      "Ġredete": 6206,
      "Ġerschien": 6207,
      "Ġschmetter": 6208,
      "arbeiter": 6209,
      "Ġlaufenden": 6210,
      "deln": 6211,
      "klar": 6212,
      "Ġheimat": 6213,
      "Ġseltsames": 6214,
      "Ġvorhatte": 6215,
      "Ġstarken": 6216,
      "ĠhÃ¼bsche": 6217,
      "Ġvorhers": 6218,
      "Ġdreh": 6219,
      "Ġerreichte": 6220,
      "zentrum": 6221,
      "Ġergebnisse": 6222,
      "zieher": 6223,
      "Ġdurstig": 6224,
      "ĠbÃ¼rgermeister": 6225,
      "Ġwerkzeug": 6226,
      "volle": 6227,
      "Ġprofessor": 6228,
      "Ġerleichtert": 6229,
      "Ġverzeihung": 6230,
      "Ġbedroht": 6231,
      "ĠfleiÃŁiger": 6232,
      "Ġpanik": 6233,
      "Ġklassenkameraden": 6234,
      "bet": 6235,
      "bum": 6236,
      "brecher": 6237,
      "lem": 6238,
      "lesen": 6239,
      "part": 6240,
      "sachen": 6241,
      "vent": 6242,
      "Ġding": 6243,
      "eibe": 6244,
      "stung": 6245,
      "Ġgaben": 6246,
      "Ġbacken": 6247,
      "Ġharte": 6248,
      "Ġkoche": 6249,
      "ĠkÃ¤lter": 6250,
      "Ġduschen": 6251,
      "geblieben": 6252,
      "Ġverbergen": 6253,
      "Ġwarnen": 6254,
      "Ġindien": 6255,
      "Ġjuni": 6256,
      "Ġbeweis": 6257,
      "Ġmars": 6258,
      "Ġstat": 6259,
      "ĠspÃ¼r": 6260,
      "Ġendes": 6261,
      "Ġenergie": 6262,
      "Ã¤ngen": 6263,
      "Ġschlangen": 6264,
      "testens": 6265,
      "brach": 6266,
      "brief": 6267,
      "Ġdreihundert": 6268,
      "adet": 6269,
      "afel": 6270,
      "Ġkaufst": 6271,
      "Ġbesseren": 6272,
      "Ġangelegenheiten": 6273,
      "Ġdruck": 6274,
      "Ġhoffte": 6275,
      "glÃ¤ub": 6276,
      "Ġleidet": 6277,
      "Ġerfordert": 6278,
      "rufen": 6279,
      "Ġweiterhin": 6280,
      "ungszimmer": 6281,
      "Ġhinterl": 6282,
      "losion": 6283,
      "Ġtaif": 6284,
      "Ġvorbeikommen": 6285,
      "Ġriete": 6286,
      "ĠlÃ¤chelt": 6287,
      "Ġschaue": 6288,
      "ĠÃ¤lterer": 6289,
      "ĠsÃ¼d": 6290,
      "ĠÃ¼bersetzung": 6291,
      "Ġredest": 6292,
      "Ġangefahren": 6293,
      "ĠgeschÃ¤ftlich": 6294,
      "Ġursache": 6295,
      "Ġunterrichten": 6296,
      "akter": 6297,
      "hoben": 6298,
      "Ġrett": 6299,
      "Ġniedergeschlagen": 6300,
      "Ġpolitiker": 6301,
      "Ġkilo": 6302,
      "Ġformular": 6303,
      "Ġzeichnen": 6304,
      "Ġharvard": 6305,
      "Ġverwandt": 6306,
      "Ġdiamanten": 6307,
      "filme": 6308,
      "Ġsilber": 6309,
      "Ġmordes": 6310,
      "Ġsushi": 6311,
      "ĠtÃ¤nzer": 6312,
      "Ġapril": 6313,
      "ĠspÃ¤testens": 6314,
      "beln": 6315,
      "kan": 6316,
      "ov": 6317,
      "por": 6318,
      "port": 6319,
      "rien": 6320,
      "wissen": 6321,
      "ender": 6322,
      "Ġskl": 6323,
      "eiter": 6324,
      "Ġwale": 6325,
      "Ġastron": 6326,
      "Ġtomaten": 6327,
      "Ġka": 6328,
      "Ġkissen": 6329,
      "Ġfange": 6330,
      "inat": 6331,
      "llos": 6332,
      "schutz": 6333,
      "Ġinv": 6334,
      "Ġinst": 6335,
      "Ġanhalten": 6336,
      "Ġanzunehmen": 6337,
      "Ġantrag": 6338,
      "Ġderselben": 6339,
      "Ġwasche": 6340,
      "ckst": 6341,
      "Ġgesessen": 6342,
      "ĠstÃ¼hle": 6343,
      "Ġkannten": 6344,
      "Ġra": 6345,
      "ĠrÃ¼hr": 6346,
      "ĠausdrÃ¼cken": 6347,
      "Ġnachsehen": 6348,
      "ischte": 6349,
      "Ġred": 6350,
      "Ã¤tzt": 6351,
      "Ġbesuche": 6352,
      "Ġend": 6353,
      "achtung": 6354,
      "Ġschwanz": 6355,
      "Ġlege": 6356,
      "Ġgewann": 6357,
      "Ġdaraus": 6358,
      "ĠtrÃ¤umte": 6359,
      "Ġtrugen": 6360,
      "Ġabb": 6361,
      "Ġklass": 6362,
      "Ġentz": 6363,
      "Ġbrauchten": 6364,
      "ĠverlÃ¤sst": 6365,
      "Ġverliebte": 6366,
      "Ġschuh": 6367,
      "Ġhinge": 6368,
      "Ġhinzugehen": 6369,
      "Ġgelungen": 6370,
      "Ġgelaunt": 6371,
      "ĠwÃ¤ret": 6372,
      "strau": 6373,
      "Ġirre": 6374,
      "Ã¤uft": 6375,
      "Ġwegwerfen": 6376,
      "ffiz": 6377,
      "verk": 6378,
      "ĠerfÃ¤hrt": 6379,
      "sport": 6380,
      "Ġwenden": 6381,
      "Ġinteressan": 6382,
      "Ġvermute": 6383,
      "Ġorig": 6384,
      "ĠanfÃ¤nger": 6385,
      "Ġbedarf": 6386,
      "Ġkeinerlei": 6387,
      "gewesen": 6388,
      "Ġrichter": 6389,
      "ĠÃ¤lteren": 6390,
      "Ġdecken": 6391,
      "Ġflusses": 6392,
      "ĠzugehÃ¶rt": 6393,
      "Ġaufsatz": 6394,
      "Ġfotoapparat": 6395,
      "Ġakten": 6396,
      "ĠhÃ¼bscher": 6397,
      "ative": 6398,
      "Ġmieten": 6399,
      "Ġverschlafen": 6400,
      "Ġunschuld": 6401,
      "ĠsÃ¤m": 6402,
      "Ġscheitern": 6403,
      "ĠhaustÃ¼r": 6404,
      "Ġexplosion": 6405,
      "Ġerbaut": 6406,
      "Ġgutaussehend": 6407,
      "Ġnagel": 6408,
      "Ġinsekten": 6409,
      "fÃ¼gen": 6410,
      "lange": 6411,
      "wurf": 6412,
      "yball": 6413,
      "ĠdÃ¤": 6414,
      "Ġsinge": 6415,
      "eige": 6416,
      "Ġmass": 6417,
      "Ġtafel": 6418,
      "Ġach": 6419,
      "Ġachte": 6420,
      "Ġnette": 6421,
      "Ġnahrung": 6422,
      "Ġkandid": 6423,
      "Ġeinstellen": 6424,
      "Ġeinschalten": 6425,
      "Ġschil": 6426,
      "genie": 6427,
      "ĠerÃ¶ff": 6428,
      "Ġunf": 6429,
      "scheibe": 6430,
      "ettel": 6431,
      "alist": 6432,
      "Ġaufnahme": 6433,
      "lichtet": 6434,
      "ehrt": 6435,
      "Ġstoff": 6436,
      "Ġraten": 6437,
      "Ġspann": 6438,
      "Ġspinnen": 6439,
      "Ġnachnamen": 6440,
      "Ġbrit": 6441,
      "ĠfÃ¼rchten": 6442,
      "Ġumziehen": 6443,
      "ĠÃ¼bernehmen": 6444,
      "Ġniedr": 6445,
      "Ã¼ckte": 6446,
      "ĠgefÃ¼hrt": 6447,
      "Ġschluck": 6448,
      "Ġtriff": 6449,
      "Ġgeschmack": 6450,
      "Ġverlang": 6451,
      "Ġstehlen": 6452,
      "Ġmaler": 6453,
      "gelte": 6454,
      "Ġeinfallen": 6455,
      "ĠkÃ¼he": 6456,
      "Ġproblemen": 6457,
      "Ġruin": 6458,
      "Ġgedanke": 6459,
      "Ġgedauert": 6460,
      "Ġfehlte": 6461,
      "Ġbegrei": 6462,
      "Ġbegraben": 6463,
      "ĠbÃ¼hne": 6464,
      "Ġwagens": 6465,
      "ĠvollstÃ¤ndig": 6466,
      "Ġbelieb": 6467,
      "Ġbedau": 6468,
      "Ġkrankenwagen": 6469,
      "ĠauÃŁergewÃ¶hn": 6470,
      "geworfen": 6471,
      "Ġschaffte": 6472,
      "Ġnotizen": 6473,
      "Ġreisepass": 6474,
      "Ġschritte": 6475,
      "Ġbedeuten": 6476,
      "Ġkofferraum": 6477,
      "Ġblickte": 6478,
      "Ġtatsachen": 6479,
      "Ġkaputtgemacht": 6480,
      "Ġakzent": 6481,
      "Ġbewusstsein": 6482,
      "ĠgefÃ¼hlt": 6483,
      "Ġkeks": 6484,
      "Ġschwimme": 6485,
      "ĠstraÃŁenseite": 6486,
      "Ġsymp": 6487,
      "ĠaufrÃ¤umen": 6488,
      "Ġvergesst": 6489,
      "Ġbewegt": 6490,
      "Ġgeburtstagsfeier": 6491,
      "Ġpech": 6492,
      "ĠernÃ¤hren": 6493,
      "Ġbetrogen": 6494,
      "Ġungeduldig": 6495,
      "bart": 6496,
      "futter": 6497,
      "hast": 6498,
      "kungen": 6499,
      "lub": 6500,
      "pot": 6501,
      "preis": 6502,
      "sa": 6503,
      "san": 6504,
      "zten": 6505,
      "erisch": 6506,
      "Ġwusch": 6507,
      "Ġhiel": 6508,
      "Ġgoss": 6509,
      "Ġag": 6510,
      "Ġaben": 6511,
      "Ġfang": 6512,
      "Ġvis": 6513,
      "Ġeinw": 6514,
      "Ġzut": 6515,
      "ĠlÃ¤ngst": 6516,
      "Ã¶ch": 6517,
      "auch": 6518,
      "ierer": 6519,
      "Ġpfe": 6520,
      "ckung": 6521,
      "bere": 6522,
      "Ġstich": 6523,
      "Ġgehirn": 6524,
      "Ġrund": 6525,
      "rop": 6526,
      "ĠÃ¼bersehen": 6527,
      "Ġbesprochen": 6528,
      "Ã¤nglich": 6529,
      "allergie": 6530,
      "Ġtritt": 6531,
      "Ġklingen": 6532,
      "gesetzt": 6533,
      "Ġzeitungen": 6534,
      "Ġhinsetzen": 6535,
      "Ã¤rchen": 6536,
      "Ġbescheiden": 6537,
      "Ġheiratet": 6538,
      "Ġplant": 6539,
      "ĠplÃ¤tze": 6540,
      "Ã¼ss": 6541,
      "Ġbenzin": 6542,
      "Ġtreten": 6543,
      "Ġbefinden": 6544,
      "Ġhosen": 6545,
      "uell": 6546,
      "perrt": 6547,
      "Ġstress": 6548,
      "ĠlÃ¶wen": 6549,
      "Ġtabl": 6550,
      "Ġaufzugeben": 6551,
      "Ġkriege": 6552,
      "peten": 6553,
      "Ġpfund": 6554,
      "Ġzahlt": 6555,
      "schuh": 6556,
      "Ġstarrte": 6557,
      "ĠÃ¼berlebt": 6558,
      "Ġmelde": 6559,
      "Ġehefrau": 6560,
      "Ġkraft": 6561,
      "Ġmilli": 6562,
      "Ġbeobachten": 6563,
      "Ġdokumente": 6564,
      "ĠschlÃ¤frig": 6565,
      "ĠsÃ¤he": 6566,
      "Ġsitzungszimmer": 6567,
      "ĠungewÃ¶hnliches": 6568,
      "odie": 6569,
      "Ġstaub": 6570,
      "Ġkreditkarte": 6571,
      "Ġerscheinen": 6572,
      "Ġadoptiert": 6573,
      "Ġautofahren": 6574,
      "Ġapfelsinen": 6575,
      "Ġmoderne": 6576,
      "Ġdutzend": 6577,
      "Ġgrausam": 6578,
      "Ġpassagiere": 6579,
      "Ġbrieftasche": 6580,
      "Ġordentlich": 6581,
      "bus": 6582,
      "bÃ¤ume": 6583,
      "fig": 6584,
      "hang": 6585,
      "iÃŁt": 6586,
      "ku": 6587,
      "krank": 6588,
      "mach": 6589,
      "oper": 6590,
      "ud": 6591,
      "Ġ-": 6592,
      "ichtete": 6593,
      "Ġwa": 6594,
      "Ġton": 6595,
      "Ġtrei": 6596,
      "Ġnoten": 6597,
      "unnen": 6598,
      "ĠzÃ¼ge": 6599,
      "Ġeingeb": 6600,
      "ĠschieÃŁen": 6601,
      "Ġscheidung": 6602,
      "Ġschoss": 6603,
      "itiv": 6604,
      "schild": 6605,
      "Ġinner": 6606,
      "Ġingenie": 6607,
      "Ġanstecken": 6608,
      "ĠstÃ¼cke": 6609,
      "Ġrab": 6610,
      "Ġspinat": 6611,
      "atze": 6612,
      "Ġumzubringen": 6613,
      "Ġvorstell": 6614,
      "Ġsollt": 6615,
      "Ã¤tzen": 6616,
      "Ġliefen": 6617,
      "ĠlieÃŁe": 6618,
      "ĠmÃ¼ÃŁte": 6619,
      "isieren": 6620,
      "Ġlande": 6621,
      "Ġverlob": 6622,
      "Ġkommun": 6623,
      "Ġgemocht": 6624,
      "Ġhelm": 6625,
      "Ã¤chst": 6626,
      "Ġechter": 6627,
      "ĠzurÃ¼ckgehen": 6628,
      "Ġheimlich": 6629,
      "trick": 6630,
      "Ġwohlha": 6631,
      "Ġaufgegessen": 6632,
      "Ġtechn": 6633,
      "Ġca": 6634,
      "Ġkathol": 6635,
      "Ġ15": 6636,
      "Ġverschoben": 6637,
      "Ġorte": 6638,
      "Ġverbrei": 6639,
      "Ġplanen": 6640,
      "Ġherauszu": 6641,
      "Ġbatter": 6642,
      "Ġschultern": 6643,
      "Ġfeiert": 6644,
      "holz": 6645,
      "ĠtÃ¤tet": 6646,
      "uli": 6647,
      "Ġanzuf": 6648,
      "Ġdachboden": 6649,
      "Ġlangweilen": 6650,
      "Ġgitarren": 6651,
      "Ġsonnenunter": 6652,
      "Ġhoffn": 6653,
      "Ġverwirr": 6654,
      "Ġgebrauchtwagen": 6655,
      "Ġskif": 6656,
      "ĠgemÃ¼tlich": 6657,
      "Ġbewusstlos": 6658,
      "Ġkerze": 6659,
      "ĠunterstÃ¼tzen": 6660,
      "Ġeurop": 6661,
      "seits": 6662,
      "Ġtempel": 6663,
      "Ġausgesprochen": 6664,
      "ĠtÃ¤tow": 6665,
      "ĠstÃ¼rzte": 6666,
      "ĠmÃ¼nze": 6667,
      "Ġzubereitet": 6668,
      "Ġebendas": 6669,
      "Ġkommentar": 6670,
      "Ġvolleyball": 6671,
      "Ġdeprim": 6672,
      "ĠmÃ¼tze": 6673,
      "ĠhÃ¼hner": 6674,
      "Ġverabredung": 6675,
      "Ġnachzudenken": 6676,
      "ĠsekretÃ¤rin": 6677,
      "Ġallgemeinen": 6678,
      "Ġvorgestern": 6679,
      "Ġegoistisch": 6680,
      "Ġnahrungsmittel": 6681,
      "Ġwohlhabend": 6682,
      "bchen": 6683,
      "cen": 6684,
      "kinder": 6685,
      "ollt": 6686,
      "sie": 6687,
      "saus": 6688,
      "uar": 6689,
      "Ġtank": 6690,
      "Ġille": 6691,
      "ĠaÃŁen": 6692,
      "Ġnorden": 6693,
      "esung": 6694,
      "teuer": 6695,
      "ĠfÃ¤r": 6696,
      "Ġfischen": 6697,
      "Ã¤mt": 6698,
      "Ġsieb": 6699,
      "Ġlen": 6700,
      "Ġlohn": 6701,
      "Ġschob": 6702,
      "deckt": 6703,
      "Ġunvor": 6704,
      "Ġunwohl": 6705,
      "denten": 6706,
      "Ġputz": 6707,
      "Ġauff": 6708,
      "Ġaufgenommen": 6709,
      "ĠaufhÃ¶rt": 6710,
      "Ġbestr": 6711,
      "Ġstir": 6712,
      "Ġstarten": 6713,
      "Ġausreden": 6714,
      "Ġwil": 6715,
      "lex": 6716,
      "Ġunsicher": 6717,
      "roh": 6718,
      "andt": 6719,
      "Ġdemselben": 6720,
      "Ġglatt": 6721,
      "Ġenden": 6722,
      "Ġschlitt": 6723,
      "Ġtrick": 6724,
      "Ġabk": 6725,
      "Ġgeschm": 6726,
      "Ġdeins": 6727,
      "Ġhingegen": 6728,
      "Ġhergekommen": 6729,
      "Ġweb": 6730,
      "ĠgelÃ¤ch": 6731,
      "Ġunseres": 6732,
      "ĠzurÃ¼ckkommt": 6733,
      "Ġentschluss": 6734,
      "Ġmannes": 6735,
      "geschichte": 6736,
      "Ġsitze": 6737,
      "Ġgabel": 6738,
      "Ġfernbe": 6739,
      "Ġhohen": 6740,
      "rifft": 6741,
      "Ġ16": 6742,
      "Ġenglischen": 6743,
      "Ġorange": 6744,
      "Ġmittags": 6745,
      "Ġstudiere": 6746,
      "Ġbedingungen": 6747,
      "Ġkurzem": 6748,
      "Ġanrufe": 6749,
      "Ġunbek": 6750,
      "Ġschicke": 6751,
      "Ġachtzehn": 6752,
      "Ġrestaurants": 6753,
      "fÃ¼hrung": 6754,
      "Ġatom": 6755,
      "aka": 6756,
      "Ġrotes": 6757,
      "Ġpostamt": 6758,
      "ĠberÃ¼hmte": 6759,
      "ĠhÃ¼bsches": 6760,
      "Ġterm": 6761,
      "Ġschmerzt": 6762,
      "Ġoberschule": 6763,
      "Ã¤lteste": 6764,
      "Ġsekunden": 6765,
      "ĠverfÃ¼gung": 6766,
      "Ġverpflichtet": 6767,
      "ĠumstÃ¤nden": 6768,
      "Ġentfernen": 6769,
      "Ġeintrittskarte": 6770,
      "Ġbeurt": 6771,
      "Ġfeucht": 6772,
      "Ã¤tzchen": 6773,
      "ĠbefÃ¼rchte": 6774,
      "Ġgeplant": 6775,
      "Ġtaifun": 6776,
      "Ġpfeffer": 6777,
      "Ġillegal": 6778,
      "col": 6779,
      "drei": 6780,
      "dacht": 6781,
      "danke": 6782,
      "ice": 6783,
      "mÃ¼": 6784,
      "nach": 6785,
      "yo": 6786,
      "zi": 6787,
      "eien": 6788,
      "Ġwettbewerb": 6789,
      "iell": 6790,
      "Ġhyp": 6791,
      "Ġhasste": 6792,
      "Ġtie": 6793,
      "omaten": 6794,
      "Ġhammer": 6795,
      "Ġeinkommen": 6796,
      "Ã¤chen": 6797,
      "Ġschatz": 6798,
      "ĠverÃ¤ngstigt": 6799,
      "Ġwarnung": 6800,
      "Ġankommt": 6801,
      "Ġpian": 6802,
      "Ġaufbrechen": 6803,
      "Ġmitleid": 6804,
      "Ġfried": 6805,
      "Ġstirn": 6806,
      "Ġroh": 6807,
      "Ġspion": 6808,
      "Ġbrennt": 6809,
      "Ġrezept": 6810,
      "Ġschwein": 6811,
      "Ġschweine": 6812,
      "Ġblu": 6813,
      "Ġabzunehmen": 6814,
      "Ġentgehen": 6815,
      "isation": 6816,
      "Ġstecke": 6817,
      "ĠfranzÃ¶sischunterricht": 6818,
      "prÃ¤che": 6819,
      "ĠeÃŁt": 6820,
      "Ġziehst": 6821,
      "Ġruh": 6822,
      "Ġleib": 6823,
      "Ġerwischen": 6824,
      "Ġzusammenarbeiten": 6825,
      "Ġzwang": 6826,
      "Ġtolle": 6827,
      "Ġhinterher": 6828,
      "Ġjapans": 6829,
      "Ġentschuldigte": 6830,
      "Ġerwartete": 6831,
      "Ġfreiheit": 6832,
      "Ġernstes": 6833,
      "ĠhÃ¤ngen": 6834,
      "ĠÃ¤rgern": 6835,
      "Ġmeiste": 6836,
      "ĠÃ¼blich": 6837,
      "Ġvorsitzen": 6838,
      "ĠrÃ¼cksicht": 6839,
      "Ġverbrachten": 6840,
      "Ġjenen": 6841,
      "Ġschicksal": 6842,
      "Ġtaxif": 6843,
      "Ġverzweifelt": 6844,
      "akten": 6845,
      "Ġbegannen": 6846,
      "appte": 6847,
      "maÃŁen": 6848,
      "Ġschliefen": 6849,
      "Ġliegenlassen": 6850,
      "Ġblutdruck": 6851,
      "Ġunverhei": 6852,
      "Ġhusten": 6853,
      "Ġphil": 6854,
      "ĠÃ¼berquerte": 6855,
      "Ġsekunde": 6856,
      "Ġrisiken": 6857,
      "ĠmÃ¼sstest": 6858,
      "warum": 6859,
      "Ġtoiletten": 6860,
      "ĠunzuverlÃ¤ssig": 6861,
      "ĠanlÃ¼gen": 6862,
      "Ġmahlzeiten": 6863,
      "Ġfriseur": 6864,
      "mangel": 6865,
      "Ġakzeptieren": 6866,
      "Ġspanisch": 6867,
      "Ġanstrengen": 6868,
      "vertrauen": 6869,
      "Ġehrgeizig": 6870,
      "Ġhamburger": 6871,
      "Ġrosa": 6872,
      "Ġdiplomat": 6873,
      "hafte": 6874,
      "ĠcafÃ©": 6875,
      "ĠglÃ¤ser": 6876,
      "ĠsÃ¤mtliche": 6877,
      "brett": 6878,
      "dauern": 6879,
      "fern": 6880,
      "ose": 6881,
      "pner": 6882,
      "swer": 6883,
      "ustr": 6884,
      "uppen": 6885,
      "vern": 6886,
      "wÃ¤": 6887,
      "Ġque": 6888,
      "erd": 6889,
      "ieger": 6890,
      "ieÃŁt": 6891,
      "Ġmau": 6892,
      "Ġad": 6893,
      "Ġast": 6894,
      "Ġasp": 6895,
      "Ġneigt": 6896,
      "Ã¼glich": 6897,
      "Ġvit": 6898,
      "Ġvalent": 6899,
      "Ġeinbrecher": 6900,
      "ĠschÃ¼sse": 6901,
      "Ġunn": 6902,
      "Ġunent": 6903,
      "agd": 6904,
      "ehme": 6905,
      "Ġdaheim": 6906,
      "hnen": 6907,
      "Ġauskommen": 6908,
      "Ġvoran": 6909,
      "anda": 6910,
      "Ġarg": 6911,
      "ĠlieÃŁen": 6912,
      "Ġlest": 6913,
      "Ġleichte": 6914,
      "Ġleiche": 6915,
      "Ġlebten": 6916,
      "Ġblass": 6917,
      "Ġabgeben": 6918,
      "Ġabgefahren": 6919,
      "isser": 6920,
      "Ġverliere": 6921,
      "Ġsteak": 6922,
      "weile": 6923,
      "Ġwirkst": 6924,
      "Ġhingelegt": 6925,
      "ĠgenÃ¼gt": 6926,
      "Ġgift": 6927,
      "Ġneuigkeit": 6928,
      "abschluss": 6929,
      "Ġbetrifft": 6930,
      "ĠgekÃ¼ndigt": 6931,
      "Ġweggegangen": 6932,
      "astrop": 6933,
      "Ġerfuhr": 6934,
      "bare": 6935,
      "Ġbefand": 6936,
      "Ġbefehl": 6937,
      "hÃ¶rst": 6938,
      "Ġweltkrieg": 6939,
      "Ġstritt": 6940,
      "ĠverhÃ¤lt": 6941,
      "flÃ¤che": 6942,
      "Ġherausbekommen": 6943,
      "ĠbelÃ¤st": 6944,
      "ĠprÃ¼f": 6945,
      "ĠschÃ¼lern": 6946,
      "Ġsolcher": 6947,
      "ĠlÃ¼gst": 6948,
      "Ġhierherkommen": 6949,
      "Ġvergif": 6950,
      "gewiesen": 6951,
      "ĠÃ¼bung": 6952,
      "Ġheft": 6953,
      "Ġjunger": 6954,
      "Ġdummen": 6955,
      "Ġdummkopf": 6956,
      "uls": 6957,
      "Ġexist": 6958,
      "Ġklarin": 6959,
      "Ġtrock": 6960,
      "ĠgrÃ¼ndlich": 6961,
      "Ġtausende": 6962,
      "ĠjÃ¼ngere": 6963,
      "Ġkreativ": 6964,
      "Ġmerkte": 6965,
      "ĠkÃ¼mmerte": 6966,
      "Ġehrlichkeit": 6967,
      "Ġmelodie": 6968,
      "site": 6969,
      "Ġsowie": 6970,
      "Ġgeputzt": 6971,
      "wiesen": 6972,
      "kriegen": 6973,
      "Ġumgehend": 6974,
      "musik": 6975,
      "ĠÃ¼bernachten": 6976,
      "drÃ¼cke": 6977,
      "Ġausgesucht": 6978,
      "Ġfreiwillige": 6979,
      "Ġorangensaft": 6980,
      "ĠgeschÃ¤ftsfÃ¼hrer": 6981,
      "kÃ¤me": 6982,
      "Ġgedenkst": 6983,
      "Ġkorrigieren": 6984,
      "Ġverwechselt": 6985,
      "Ġbeteiligt": 6986,
      "schÃ¼ler": 6987,
      "Ġumarmte": 6988,
      "Ġklempner": 6989,
      "ĠbeschÃ¤digt": 6990,
      "Ġerwartungen": 6991,
      "Ġjourn": 6992,
      "Ġtriffst": 6993,
      "Ġwebsite": 6994,
      "Ġvalentin": 6995,
      "bank": 6996,
      "cre": 6997,
      "gro": 6998,
      "gant": 6999,
      "la": 7000,
      "lÃ¶": 7001,
      "mÃ¤dchen": 7002,
      "nte": 7003,
      "tisch": 7004,
      "tro": 7005,
      "erchen": 7006,
      "ĠmiÃŁ": 7007,
      "ĠtÃ¶r": 7008,
      "Ġbir": 7009,
      "espe": 7010,
      "Ġkm": 7011,
      "Ġkol": 7012,
      "anger": 7013,
      "ĠzÃ¼": 7014,
      "Ġgeeignet": 7015,
      "inte": 7016,
      "Ã¶scht": 7017,
      "Ġerei": 7018,
      "onie": 7019,
      "rede": 7020,
      "Ġvergew": 7021,
      "eting": 7022,
      "Ġann": 7023,
      "Ġpess": 7024,
      "Ġruss": 7025,
      "Ġaussprache": 7026,
      "Ġausnahme": 7027,
      "atzen": 7028,
      "Ġumzu": 7029,
      "Ġumgeben": 7030,
      "Ġvorkommen": 7031,
      "ĠÃ¼bergeben": 7032,
      "amotten": 7033,
      "Ġbesetzt": 7034,
      "ĠweiÃŁen": 7035,
      "seel": 7036,
      "Ġgefreut": 7037,
      "Ġgewollt": 7038,
      "Ġentwe": 7039,
      "braucht": 7040,
      "Ġverlangen": 7041,
      "Ã¼ndete": 7042,
      "Ġgetreten": 7043,
      "ikan": 7044,
      "Ġmager": 7045,
      "Ġeinfluss": 7046,
      "Ġseiest": 7047,
      "Ġabendbrot": 7048,
      "Ġdrink": 7049,
      "Ġplatten": 7050,
      "Ġzimmermann": 7051,
      "Ġzusehen": 7052,
      "Ġdurchgefallen": 7053,
      "Ġbefehle": 7054,
      "Ġbekannte": 7055,
      "Ġgegenteil": 7056,
      "reichend": 7057,
      "Ġerwartest": 7058,
      "Ġperfe": 7059,
      "Ġwichtigste": 7060,
      "Ġbetrachtete": 7061,
      "Ġfreien": 7062,
      "ĠbewÃ¶l": 7063,
      "Ġteilzeit": 7064,
      "Ġunterschrieben": 7065,
      "Ġunterscheidet": 7066,
      "ĠbedÃ¼r": 7067,
      "Ġratschlag": 7068,
      "impf": 7069,
      "ĠkÃ¤mpf": 7070,
      "ĠauÃŁerhalb": 7071,
      "Ġkomp": 7072,
      "Ġhaltestelle": 7073,
      "Ġverfolgt": 7074,
      "Ġdachtet": 7075,
      "Ġauszuschalten": 7076,
      "Ġvorhang": 7077,
      "Ġstarben": 7078,
      "haltung": 7079,
      "Ġamerikanischen": 7080,
      "Ġstudentin": 7081,
      "Ġkarton": 7082,
      "Ġarbeitsstelle": 7083,
      "Ġhub": 7084,
      "Ġgefiele": 7085,
      "ĠschÃ¤me": 7086,
      "Ġschokoladen": 7087,
      "Ġkarotten": 7088,
      "Ġkontaktieren": 7089,
      "Ġbehauptete": 7090,
      "ĠÃ¼berlasse": 7091,
      "ĠverstÃ¤ndnis": 7092,
      "ĠerlÃ¤u": 7093,
      "ĠmerkwÃ¼rd": 7094,
      "Ġunerwar": 7095,
      "Ġzigarette": 7096,
      "freundlich": 7097,
      "Ġexperiment": 7098,
      "Ġnickerchen": 7099,
      "Ġgehorchen": 7100,
      "Ġberuhigt": 7101,
      "Ġversammlung": 7102,
      "Ġmaske": 7103,
      "Ġlediglich": 7104,
      "Ġobdachlos": 7105,
      "Ġsympath": 7106,
      "Ġaggr": 7107,
      "Ġabenteuer": 7108,
      "Ġskifahren": 7109,
      "Ġvitam": 7110,
      "Ġpessim": 7111,
      "Ġentweder": 7112,
      "flo": 7113,
      "hil": 7114,
      "passt": 7115,
      "rÃ¤n": 7116,
      "sw": 7117,
      "sweise": 7118,
      "tuch": 7119,
      "teile": 7120,
      "ĠÃ¤lteste": 7121,
      "Ġsendung": 7122,
      "Ġweine": 7123,
      "ĠmÃ¼cken": 7124,
      "Ġapot": 7125,
      "Ġbaut": 7126,
      "Ġkasse": 7127,
      "Ã¼llt": 7128,
      "Ġfakten": 7129,
      "Ã¶ten": 7130,
      "Ġerspar": 7131,
      "ierig": 7132,
      "Ġpun": 7133,
      "Ġaufmachen": 7134,
      "use": 7135,
      "Ġdaten": 7136,
      "Ġdamen": 7137,
      "ehren": 7138,
      "ĠbeÃ¤ngst": 7139,
      "Ġstiegen": 7140,
      "Ġrasch": 7141,
      "Ġausf": 7142,
      "Ġalib": 7143,
      "Ġnachhause": 7144,
      "Ġbreit": 7145,
      "Ġbrunnen": 7146,
      "Ġvorfall": 7147,
      "Ġvoneinander": 7148,
      "Ġimstande": 7149,
      "Ã¤nzen": 7150,
      "Ġgeflogen": 7151,
      "ĠgefÃ¼ttert": 7152,
      "Ġgewohn": 7153,
      "Ġklamotten": 7154,
      "gesprÃ¤ch": 7155,
      "ĠgeschÃ¤fte": 7156,
      "serv": 7157,
      "isse": 7158,
      "Ġgestand": 7159,
      "ĠgenieÃŁen": 7160,
      "ĠgelÃ¶scht": 7161,
      "Ġgrippe": 7162,
      "sterte": 7163,
      "Ġguck": 7164,
      "ffent": 7165,
      "apier": 7166,
      "eilung": 7167,
      "halter": 7168,
      "Ġkonntet": 7169,
      "ollen": 7170,
      "essel": 7171,
      "ĠglÃ¼cks": 7172,
      "ĠwÃ¼nscht": 7173,
      "Ġschweren": 7174,
      "wogen": 7175,
      "losen": 7176,
      "Ġ17": 7177,
      "werfer": 7178,
      "Ġjapanischen": 7179,
      "Ġmeeting": 7180,
      "ĠnÃ¤hm": 7181,
      "Ġholt": 7182,
      "Ġrichtiger": 7183,
      "ĠhÃ¼l": 7184,
      "Ġriechen": 7185,
      "Ġschaust": 7186,
      "Ġrechnen": 7187,
      "Ġverfassung": 7188,
      "Ġtraue": 7189,
      "Ġfolgt": 7190,
      "Ġherumzu": 7191,
      "Ġversuchten": 7192,
      "Ġeingest": 7193,
      "voller": 7194,
      "Ġabzuholen": 7195,
      "Ġfair": 7196,
      "Ġbesucher": 7197,
      "Ġkostenlos": 7198,
      "ĠmissverstÃ¤ndnis": 7199,
      "phon": 7200,
      "Ġtoller": 7201,
      "ĠschÃ¤men": 7202,
      "kriegt": 7203,
      "Ġtaler": 7204,
      "fÃ¤hig": 7205,
      "Ġcousine": 7206,
      "Ġirgendeinen": 7207,
      "ĠprÃ¤sidenten": 7208,
      "probiert": 7209,
      "Ġvergesse": 7210,
      "Ġgeklaut": 7211,
      "Ġaufregend": 7212,
      "Ġtouristen": 7213,
      "Ġherausforder": 7214,
      "Ġtraurige": 7215,
      "ĠfrÃ¶h": 7216,
      "Ġkletterte": 7217,
      "Ġdolmetscher": 7218,
      "Ġbuchstab": 7219,
      "ĠverÃ¶ffent": 7220,
      "Ġrettungs": 7221,
      "Ġinvest": 7222,
      "Ġklassische": 7223,
      "Ġvalentinstag": 7224,
      "di": 7225,
      "fehler": 7226,
      "gnete": 7227,
      "ienn": 7228,
      "lied": 7229,
      "ocke": 7230,
      "pfe": 7231,
      "rag": 7232,
      "tlem": 7233,
      "ven": 7234,
      "wÃ¶rter": 7235,
      "Ġsem": 7236,
      "ĠhÃ¤nd": 7237,
      "ĠgÃ¤n": 7238,
      "Ġbal": 7239,
      "Ġbietet": 7240,
      "Ã¼he": 7241,
      "Ġzehen": 7242,
      "Ġzuver": 7243,
      "aufe": 7244,
      "schicken": 7245,
      "Ġanblick": 7246,
      "elst": 7247,
      "eltern": 7248,
      "Ġdenselben": 7249,
      "bereiten": 7250,
      "Ġrunden": 7251,
      "Ġausgeben": 7252,
      "Ġwischte": 7253,
      "atsch": 7254,
      "Ġbrust": 7255,
      "Ġumwelt": 7256,
      "Ġvorhin": 7257,
      "Ġvormittag": 7258,
      "Ã¤tzlich": 7259,
      "Ġnied": 7260,
      "reif": 7261,
      "Ġendet": 7262,
      "Ġbeides": 7263,
      "Ġarro": 7264,
      "ilien": 7265,
      "Ġschwert": 7266,
      "Ġschwieg": 7267,
      "Ġleder": 7268,
      "rate": 7269,
      "Ġmehrmals": 7270,
      "ĠgewÃ¼n": 7271,
      "ĠabhÃ¤ng": 7272,
      "Ġklaus": 7273,
      "Ġklettern": 7274,
      "ktiv": 7275,
      "Ġgentlem": 7276,
      "Ġgipfel": 7277,
      "Ġbereitete": 7278,
      "ertigen": 7279,
      "Ġflag": 7280,
      "Ġflucht": 7281,
      "Ġgrau": 7282,
      "Ġkommenden": 7283,
      "Ġentschloss": 7284,
      "izieren": 7285,
      "Ġleihe": 7286,
      "Ġerkennt": 7287,
      "Ġschreibst": 7288,
      "Ġreif": 7289,
      "Ġreizend": 7290,
      "Ġbenimmt": 7291,
      "ĠbÃ¼chern": 7292,
      "Ġkolle": 7293,
      "Ã¼tze": 7294,
      "Ġ11": 7295,
      "Ġ12": 7296,
      "ĠschnÃ¼r": 7297,
      "Ġbetrachtet": 7298,
      "Ġplanet": 7299,
      "Ġweitaus": 7300,
      "Ġdummheit": 7301,
      "Ġhotels": 7302,
      "Ġklaren": 7303,
      "Ġnotfall": 7304,
      "boot": 7305,
      "mÃ¶gen": 7306,
      "grÃ¶": 7307,
      "Ġohrr": 7308,
      "Ġqual": 7309,
      "ĠwÃ¼sstest": 7310,
      "rechnung": 7311,
      "ĠÃ¼brigen": 7312,
      "Ġschlimmes": 7313,
      "otto": 7314,
      "Ġkompliz": 7315,
      "Ġmeeres": 7316,
      "Ġkuh": 7317,
      "Ġvergangenen": 7318,
      "Ġanfangs": 7319,
      "zahlen": 7320,
      "Ġtokyo": 7321,
      "zurÃ¤umen": 7322,
      "schrauber": 7323,
      "ĠkÃ¤mest": 7324,
      "ĠwÃ¤hlerisch": 7325,
      "ĠverfÃ¼g": 7326,
      "ĠverfÃ¼gt": 7327,
      "Ġgebrauch": 7328,
      "Ġreserviert": 7329,
      "ĠmÃ¼nzen": 7330,
      "salat": 7331,
      "Ġangenehm": 7332,
      "Ġscheck": 7333,
      "Ġeintrittskarten": 7334,
      "Ġentspannen": 7335,
      "Ġforderte": 7336,
      "Ġveranl": 7337,
      "Ġnutzlos": 7338,
      "Ġumarmen": 7339,
      "Ġverhungern": 7340,
      "Ġabbiegen": 7341,
      "Ġsonnenuntergang": 7342,
      "Ġhubschrauber": 7343,
      "Ġalibi": 7344,
      "ĠverÃ¶ffentlicht": 7345,
      "Ġgentleman": 7346,
      "abe": 7347,
      "gÃ¤": 7348,
      "hauen": 7349,
      "iffen": 7350,
      "iver": 7351,
      "kung": 7352,
      "samm": 7353,
      "swÃ¼rdig": 7354,
      "uscht": 7355,
      "stre": 7356,
      "Ġtiger": 7357,
      "Ġfuchs": 7358,
      "Ġeinlegen": 7359,
      "Ġsieg": 7360,
      "Ġlagen": 7361,
      "ĠerhÃ¶": 7362,
      "schul": 7363,
      "Ġverziehen": 7364,
      "Ġwarnte": 7365,
      "Ġinstr": 7366,
      "Ġandauern": 7367,
      "tere": 7368,
      "ĠfrÃ¼chte": 7369,
      "Ġran": 7370,
      "Ġaushalten": 7371,
      "Ġausdruck": 7372,
      "Ġausflug": 7373,
      "Ġnochmals": 7374,
      "Ġhierzu": 7375,
      "Ġvorgefallen": 7376,
      "ĠvorschlÃ¤ge": 7377,
      "Ã¶rse": 7378,
      "ĠmÃ¶hren": 7379,
      "Ã¤nzt": 7380,
      "Ġkeins": 7381,
      "ĠblÃ¼hen": 7382,
      "Ġschlauer": 7383,
      "Ġabschl": 7384,
      "gesund": 7385,
      "Ġversagen": 7386,
      "Ġverlass": 7387,
      "Ġverlasse": 7388,
      "Ġherab": 7389,
      "Ġherren": 7390,
      "ĠgenÃ¼": 7391,
      "Ġwege": 7392,
      "Ġbergen": 7393,
      "Ġflog": 7394,
      "Ġprotest": 7395,
      "Ġguckt": 7396,
      "Ġbesserer": 7397,
      "ĠzurÃ¼ckrufen": 7398,
      "Ġseife": 7399,
      "Ġbetrieb": 7400,
      "verb": 7401,
      "vermÃ¶gen": 7402,
      "ĠbestÃ¼rzt": 7403,
      "telte": 7404,
      "ĠreiÃŁ": 7405,
      "ĠbezÃ¼glich": 7406,
      "Ġaufgebracht": 7407,
      "Ġnah": 7408,
      "Ġerinnerte": 7409,
      "Ġschnurr": 7410,
      "Ġ25": 7411,
      "Ġbetrachte": 7412,
      "Ġanfassen": 7413,
      "ĠbelÃ¼gen": 7414,
      "Ġbedient": 7415,
      "Ġoffenbar": 7416,
      "ĠbemÃ¼hen": 7417,
      "spiele": 7418,
      "Ġschienen": 7419,
      "Ġaufzuhalten": 7420,
      "habt": 7421,
      "ĠenttÃ¤uschung": 7422,
      "Ġmeistens": 7423,
      "Ġerstenmal": 7424,
      "ĠverpaÃŁt": 7425,
      "Ġpfann": 7426,
      "Ġmomentan": 7427,
      "Ġlangweile": 7428,
      "Ġschrauben": 7429,
      "Ġschmeckte": 7430,
      "packen": 7431,
      "Ġkirsch": 7432,
      "Ġstattfinden": 7433,
      "Ġverkehrt": 7434,
      "zeichnen": 7435,
      "ĠgekÃ¼mmert": 7436,
      "Ġfolgenden": 7437,
      "Ġstellst": 7438,
      "melade": 7439,
      "ĠpersÃ¶nliche": 7440,
      "Ġweihnachtsmann": 7441,
      "Ġbeschwerden": 7442,
      "ĠschlÃ¤fst": 7443,
      "Ġuntersuch": 7444,
      "ĠkÃ¼ssten": 7445,
      "ĠÃ¤rgerlich": 7446,
      "rÃ¤glich": 7447,
      "Ġkritisiert": 7448,
      "Ġnarren": 7449,
      "Ġdiamant": 7450,
      "Ġbewegte": 7451,
      "Ġviertelstunde": 7452,
      "Ġschnarchen": 7453,
      "Ġpilot": 7454,
      "gleichen": 7455,
      "ĠfÃ¤higkeiten": 7456,
      "Ġrente": 7457,
      "ymn": 7458,
      "Ġverriet": 7459,
      "Ġbeunruhigt": 7460,
      "ĠbevÃ¶lkerung": 7461,
      "Ġstaats": 7462,
      "Ġassistent": 7463,
      "Ġorigin": 7464,
      "Ġklarinette": 7465,
      "Ġniedrig": 7466,
      "ix": 7467,
      "kre": 7468,
      "kurs": 7469,
      "to": 7470,
      "ziert": 7471,
      "chs": 7472,
      "Ġwh": 7473,
      "Ġwahren": 7474,
      "ĠtÃ¼te": 7475,
      "Ġis": 7476,
      "Ġgymn": 7477,
      "Ġaffen": 7478,
      "ome": 7479,
      "Ġneid": 7480,
      "Ġket": 7481,
      "anfall": 7482,
      "Ġfasste": 7483,
      "ĠgeÃ¼bt": 7484,
      "ĠlÃ¤ng": 7485,
      "Ġlotto": 7486,
      "Ġschar": 7487,
      "ordern": 7488,
      "Ġunert": 7489,
      "Ġunfreundlich": 7490,
      "Ġverreisen": 7491,
      "Ġansch": 7492,
      "Ġanprobieren": 7493,
      "elig": 7494,
      "Ġbeerd": 7495,
      "ĠgehÃ¶re": 7496,
      "utze": 7497,
      "Ġausgesehen": 7498,
      "ĠauswÃ¤rts": 7499,
      "ator": 7500,
      "Ġunsinn": 7501,
      "Ġbrav": 7502,
      "etzte": 7503,
      "bed": 7504,
      "Ġbesoffen": 7505,
      "Ġschwe": 7506,
      "Ġtrennen": 7507,
      "Ġklo": 7508,
      "Ġenth": 7509,
      "Ġgereist": 7510,
      "ĠwÃ¤chst": 7511,
      "bruder": 7512,
      "Ġzeitig": 7513,
      "heke": 7514,
      "geladen": 7515,
      "Ġweich": 7516,
      "Ġbereut": 7517,
      "menge": 7518,
      "Ġneuseel": 7519,
      "Ġverstorben": 7520,
      "ĠzurÃ¼ckgeben": 7521,
      "Ġangestell": 7522,
      "Ġsicherlich": 7523,
      "âĢľ,": 7524,
      "verkehr": 7525,
      "Ġbestra": 7526,
      "Ġrufst": 7527,
      "Ġgeduscht": 7528,
      "Ġerkenne": 7529,
      "artig": 7530,
      "Ġdurchaus": 7531,
      "Ġbefassen": 7532,
      "Ġbefolgt": 7533,
      "Ġkooper": 7534,
      "Ġkatastrop": 7535,
      "Ġgegenwart": 7536,
      "Ġfamilienn": 7537,
      "Ġerstaun": 7538,
      "ĠmuÃŁten": 7539,
      "Ġstrafe": 7540,
      "perte": 7541,
      "Ġknochen": 7542,
      "Ġtelefoniert": 7543,
      "Ġausgezogen": 7544,
      "sprachen": 7545,
      "ĠÃ¤rmel": 7546,
      "ĠlÃ¶schen": 7547,
      "Ġsetzten": 7548,
      "ĠsÃ¼den": 7549,
      "Ġtrafen": 7550,
      "Ġzahlreiche": 7551,
      "Ġgeister": 7552,
      "grÃ¼ndet": 7553,
      "ĠjÃ¼ngste": 7554,
      "Ġschrau": 7555,
      "Ġnachbarschaft": 7556,
      "Ġfremder": 7557,
      "Ġ199": 7558,
      "ĠsÃ¼ÃŁes": 7559,
      "Ġnahezu": 7560,
      "Ġgemeinsamkeiten": 7561,
      "Ġergebnissen": 7562,
      "Ġgeschwommen": 7563,
      "Ġ50": 7564,
      "ĠÃ¼berredet": 7565,
      "Ġwechselte": 7566,
      "Ġzuzugeben": 7567,
      "Ġsystem": 7568,
      "Ġdatum": 7569,
      "schreien": 7570,
      "Ġsammeln": 7571,
      "Ġverletzte": 7572,
      "alender": 7573,
      "Ġkrim": 7574,
      "ĠmillionÃ¤r": 7575,
      "Ġbauernhof": 7576,
      "ĠspÃ¼le": 7577,
      "Ġgrenzen": 7578,
      "Ġbewegung": 7579,
      "Ġnotizbuch": 7580,
      "Ġromantisch": 7581,
      "Ġmisstrau": 7582,
      "probleme": 7583,
      "Ġeinkaufszentrum": 7584,
      "Ġfrosch": 7585,
      "Ġchemie": 7586,
      "Ġcharakter": 7587,
      "Ġaufgefordert": 7588,
      "Ġzwiebeln": 7589,
      "Ġinteressanter": 7590,
      "Ġschilde": 7591,
      "Ġingenieur": 7592,
      "ĠeuropÃ¤": 7593,
      "Ġtermink": 7594,
      "Ġunverheiratet": 7595,
      "ĠtÃ¶richt": 7596,
      "ĠÃ¼brigens": 7597,
      "ĠverfÃ¼gbar": 7598,
      "Ġschnurrbart": 7599,
      "ĠunertrÃ¤glich": 7600,
      "corn": 7601,
      "fot": 7602,
      "feuer": 7603,
      "gÃ¤nger": 7604,
      "kord": 7605,
      "kraft": 7606,
      "name": 7607,
      "resse": 7608,
      "uckt": 7609,
      "wel": 7610,
      "zess": 7611,
      "chup": 7612,
      "enkt": 7613,
      "erkt": 7614,
      "Ġsc": 7615,
      "Ġsha": 7616,
      "Ġsingst": 7617,
      "Ġwunde": 7618,
      "ĠwÃ¤nde": 7619,
      "steh": 7620,
      "steig": 7621,
      "Ġhoh": 7622,
      "ĠgÃ¶n": 7623,
      "untern": 7624,
      "Ġdasein": 7625,
      "deut": 7626,
      "gehst": 7627,
      "Ġunhei": 7628,
      "ĠunfÃ¤lle": 7629,
      "Ġvergeb": 7630,
      "Ġankunft": 7631,
      "Ġannahme": 7632,
      "Ġpal": 7633,
      "Ġpuls": 7634,
      "Ġmitzunehmen": 7635,
      "bereit": 7636,
      "Ġfrucht": 7637,
      "Ġgehasst": 7638,
      "Ġrind": 7639,
      "Ġreiten": 7640,
      "ĠrÃ¤umte": 7641,
      "Ġspenden": 7642,
      "Ġausprobieren": 7643,
      "Ġaussteigen": 7644,
      "stellte": 7645,
      "Ġreal": 7646,
      "Ġhierhin": 7647,
      "Ġhiersein": 7648,
      "Ġvorschlagen": 7649,
      "Ġvorwurf": 7650,
      "amerik": 7651,
      "reist": 7652,
      "oler": 7653,
      "Ġschwamm": 7654,
      "Ġschwanger": 7655,
      "Ġlecker": 7656,
      "Ġgewachsen": 7657,
      "Ġmangel": 7658,
      "Ġabreise": 7659,
      "Ġklappt": 7660,
      "Ġunterhalte": 7661,
      "ĠgestÃ¶rt": 7662,
      "Ġzumindest": 7663,
      "ierend": 7664,
      "Ġmorgengr": 7665,
      "Ġweckte": 7666,
      "ĠberÃ¼hren": 7667,
      "ĠgroÃŁeltern": 7668,
      "Ġflur": 7669,
      "Ġgrus": 7670,
      "Ġbeschuld": 7671,
      "adresse": 7672,
      "apt": 7673,
      "Ġpasswort": 7674,
      "ickte": 7675,
      "ickelt": 7676,
      "Ġangestellt": 7677,
      "Ġangewiesen": 7678,
      "Ġdrachen": 7679,
      "Ġdritte": 7680,
      "essin": 7681,
      "Ġbestimm": 7682,
      "Ġdankte": 7683,
      "Ġdurcheinander": 7684,
      "Ġreiste": 7685,
      "Ġbeneide": 7686,
      "Ġclub": 7687,
      "Ġverknallt": 7688,
      "Ġweiteres": 7689,
      "ĠvermiÃŁt": 7690,
      "Ġkons": 7691,
      "ĠleichtglÃ¤ub": 7692,
      "Ġbetracht": 7693,
      "Ġanfing": 7694,
      "Ġstudierst": 7695,
      "spricht": 7696,
      "impft": 7697,
      "ĠfrÃ¼hstÃ¼ckt": 7698,
      "Ġsetze": 7699,
      "ioten": 7700,
      "Ġsterbe": 7701,
      "Ġpuppen": 7702,
      "Ġhemden": 7703,
      "ĠwÃ¼ssten": 7704,
      "Ġschlechteste": 7705,
      "Ġaufsuchen": 7706,
      "Ġpostkarte": 7707,
      "Ġebenfalls": 7708,
      "Ġblaues": 7709,
      "Ġzerr": 7710,
      "Ġprobier": 7711,
      "Ġrettete": 7712,
      "Ġherrscht": 7713,
      "Ġ196": 7714,
      "Ġschliefe": 7715,
      "Ġterr": 7716,
      "Ġaufgewacht": 7717,
      "zahlt": 7718,
      "Ġ500": 7719,
      "Ġlehren": 7720,
      "zwanzig": 7721,
      "Ġsonderbar": 7722,
      "icherung": 7723,
      "Ġwolf": 7724,
      "ampen": 7725,
      "ĠgenieÃŁt": 7726,
      "Ġspezial": 7727,
      "Ġvideos": 7728,
      "schreiber": 7729,
      "Ġzubereiten": 7730,
      "ĠzugestoÃŁen": 7731,
      "Ġspanien": 7732,
      "Ġerscheint": 7733,
      "Ġausgeraubt": 7734,
      "Ġscheune": 7735,
      "Ġgrenze": 7736,
      "reuen": 7737,
      "Ġveranst": 7738,
      "Ġsingle": 7739,
      "ĠtÃ¤uschen": 7740,
      "Ġliteratur": 7741,
      "Ġspeisekarte": 7742,
      "Ġtherap": 7743,
      "ĠerklÃ¤re": 7744,
      "Ġkultur": 7745,
      "Ġbombe": 7746,
      "Ġgesamte": 7747,
      "ĠminderjÃ¤hr": 7748,
      "Ġpopcorn": 7749,
      "Ġtabletten": 7750,
      "Ġdeprimiert": 7751,
      "Ġphilos": 7752,
      "creme": 7753,
      "ĠbewÃ¶lkt": 7754,
      "Ġaggressiv": 7755,
      "ĠabhÃ¤ngig": 7756,
      "Ġketchup": 7757,
      "Ġbeerdigung": 7758,
      "Ġneuseeland": 7759,
      "Ġterminkalender": 7760,
      "Ġunheimlich": 7761,
      "Ġmorgengrauen": 7762,
      "fle": 7763,
      "frage": 7764,
      "hungen": 7765,
      "ile": 7766,
      "kespe": 7767,
      "nitten": 7768,
      "seh": 7769,
      "saka": 7770,
      "tion": 7771,
      "Ġdin": 7772,
      "eigung": 7773,
      "Ġmehl": 7774,
      "ĠhÃ¤": 7775,
      "ĠgÃ¼ltig": 7776,
      "Ġnannte": 7777,
      "ĠbÃ¤r": 7778,
      "Ġhafen": 7779,
      "Ġkern": 7780,
      "Ġzeilen": 7781,
      "Ġfit": 7782,
      "Ġlade": 7783,
      "Ġleitung": 7784,
      "Ġlampe": 7785,
      "Ġschauf": 7786,
      "Ġunru": 7787,
      "Ġunif": 7788,
      "regeln": 7789,
      "Ġwarme": 7790,
      "Ġsoeben": 7791,
      "annter": 7792,
      "Ġjagen": 7793,
      "ehmer": 7794,
      "bert": 7795,
      "Ġbegeben": 7796,
      "Ġspitz": 7797,
      "Ġausreichend": 7798,
      "Ġalbum": 7799,
      "Ġbras": 7800,
      "Ġbrennen": 7801,
      "Ġbrannte": 7802,
      "Ġvorgenommen": 7803,
      "ami": 7804,
      "reibung": 7805,
      "Ġetage": 7806,
      "ĠbeiÃŁen": 7807,
      "Ġliege": 7808,
      "undzwanzig": 7809,
      "zuhalten": 7810,
      "zulassen": 7811,
      "Ġenthalten": 7812,
      "Ġgerissen": 7813,
      "Ġbrauch": 7814,
      "Ġzeitplan": 7815,
      "adel": 7816,
      "Ġwiederholt": 7817,
      "Ġwegl": 7818,
      "Ġwellen": 7819,
      "Ġbergst": 7820,
      "bstahl": 7821,
      "ĠflÃ¼cht": 7822,
      "Ġandermal": 7823,
      "prÃ¤": 7824,
      "Ġbiss": 7825,
      "Ġarbeitss": 7826,
      "Ġsack": 7827,
      "Ġhalsk": 7828,
      "Ġworin": 7829,
      "Ġscheinwerfer": 7830,
      "Ġfahrkarten": 7831,
      "ĠselbstverstÃ¤nd": 7832,
      "Ġseele": 7833,
      "Ã¼tig": 7834,
      "Ġjazz": 7835,
      "Ġreiche": 7836,
      "Ġteilgenommen": 7837,
      "ĠhÃ¤ngte": 7838,
      "Ġausgeb": 7839,
      "Ġbedauern": 7840,
      "Ġmenschliche": 7841,
      "spruch": 7842,
      "Ġzehntausend": 7843,
      "Ġmusstest": 7844,
      "andest": 7845,
      "andeln": 7846,
      "ĠkÃ¤men": 7847,
      "ĠlÃ¶ste": 7848,
      "Ġoffengelassen": 7849,
      "ĠhÃ¼te": 7850,
      "Ġunfalls": 7851,
      "ĠsÃ¼ÃŁe": 7852,
      "wai": 7853,
      "Ġtennisspieler": 7854,
      "Ġnord": 7855,
      "Ġfreute": 7856,
      "ĠheiÃŁes": 7857,
      "Ġreinkommen": 7858,
      "book": 7859,
      "Ġempfang": 7860,
      "ĠmÃ¼ssten": 7861,
      "ĠgrÃ¼nen": 7862,
      "lehrerin": 7863,
      "Ġeingebrochen": 7864,
      "Ġregion": 7865,
      "Ġgesichtsaus": 7866,
      "ĠlÃ¤ufer": 7867,
      "Ġgeschlossenen": 7868,
      "ĠverspÃ¤tete": 7869,
      "Ġfreundlichkeit": 7870,
      "Ġfremde": 7871,
      "ĠgehÃ¶rte": 7872,
      "Ġgefangene": 7873,
      "ĠgroÃŁartige": 7874,
      "Ġfallenlassen": 7875,
      "Ġziele": 7876,
      "Ġerhob": 7877,
      "Ġheutige": 7878,
      "Ġschlagzeug": 7879,
      "Ġjugendliche": 7880,
      "ĠflÃ¼sterte": 7881,
      "Ġausgelacht": 7882,
      "Ġarmee": 7883,
      "Ġverletzungen": 7884,
      "fÃ¼llen": 7885,
      "Ġsolches": 7886,
      "Ġ40": 7887,
      "Ġvegetarierin": 7888,
      "Ġvergleichen": 7889,
      "Ġwichtigeres": 7890,
      "Ġprinzessin": 7891,
      "Ġnull": 7892,
      "drehen": 7893,
      "Ġkontrollieren": 7894,
      "Ġomel": 7895,
      "ĠstÃ¤dte": 7896,
      "Ġusa": 7897,
      "Ġmexiko": 7898,
      "Ġafrika": 7899,
      "Ġmilliar": 7900,
      "Ġanzufangen": 7901,
      "Ġapotheke": 7902,
      "Ġflagge": 7903,
      "Ġmisstrauisch": 7904,
      "Ġshakespe": 7905,
      "ĠleichtglÃ¤ubig": 7906,
      "Ġarbeitssuche": 7907,
      "ĠselbstverstÃ¤ndlich": 7908,
      "ba": 7909,
      "co": 7910,
      "dÃ¤cht": 7911,
      "folge": 7912,
      "kÃ¼n": 7913,
      "nummer": 7914,
      "rau": 7915,
      "sitz": 7916,
      "ton": 7917,
      "yn": 7918,
      "ymp": 7919,
      "Ġwal": 7920,
      "stimmen": 7921,
      "Ġhunder": 7922,
      "Ġturm": 7923,
      "Ġbaten": 7924,
      "esst": 7925,
      "teste": 7926,
      "Ġhaufen": 7927,
      "Ġhawai": 7928,
      "Ġkle": 7929,
      "Ġkunde": 7930,
      "Ã¼l": 7931,
      "Ġzent": 7932,
      "ĠfÃ¤nde": 7933,
      "Ã¤hm": 7934,
      "Ġlungen": 7935,
      "Ġlapt": 7936,
      "Ġscheiben": 7937,
      "Ġaust": 7938,
      "Ã¶pfe": 7939,
      "Ġergeben": 7940,
      "gehalten": 7941,
      "Ġwirken": 7942,
      "iten": 7943,
      "schig": 7944,
      "regen": 7945,
      "ember": 7946,
      "etwegen": 7947,
      "agten": 7948,
      "Ã¼rzen": 7949,
      "Ã¼rzung": 7950,
      "ums": 7951,
      "ĠaufzurÃ¤umen": 7952,
      "ckten": 7953,
      "Ġbeachtung": 7954,
      "Ġspur": 7955,
      "Ġspitze": 7956,
      "Ġoze": 7957,
      "Ġopa": 7958,
      "Ġoffiz": 7959,
      "ĠbrÃ¤": 7960,
      "Ġbibel": 7961,
      "etzten": 7962,
      "ĠfÃ¼rchter": 7963,
      "Ġrev": 7964,
      "Ġvorteile": 7965,
      "hlt": 7966,
      "Ġimport": 7967,
      "Ġliegst": 7968,
      "Ġleb": 7969,
      "Ġgewinne": 7970,
      "Ġblock": 7971,
      "Ġbliebe": 7972,
      "Ġbitter": 7973,
      "immst": 7974,
      "brannt": 7975,
      "Ġzeitschriften": 7976,
      "Ġsteu": 7977,
      "weilen": 7978,
      "gerufen": 7979,
      "Ġwesten": 7980,
      "ĠberÃ¼ck": 7981,
      "ĠflÃ¶te": 7982,
      "Ġspielsachen": 7983,
      "ĠzurÃ¼cktreten": 7984,
      "ĠheiÃŁer": 7985,
      "Ġangehalten": 7986,
      "Ġfreundschaften": 7987,
      "glÃ¼ck": 7988,
      "Ġschnelle": 7989,
      "astik": 7990,
      "verdÃ¤cht": 7991,
      "Ġdaneben": 7992,
      "gehend": 7993,
      "ohle": 7994,
      "loser": 7995,
      "Ġinteressierst": 7996,
      "automaten": 7997,
      "Ġdennoch": 7998,
      "sichtigt": 7999,
      "Ġbehand": 8000,
      "Ġletztens": 8001,
      "Ġkurzen": 8002,
      "Ġverwundet": 8003,
      "ĠhÃ¶he": 8004,
      "Ġbewahr": 8005,
      "Ġreichlich": 8006,
      "endest": 8007,
      "Ġausgest": 8008,
      "Ġunterschrift": 8009,
      "Ġschuldest": 8010,
      "ĠdÃ¼rfe": 8011,
      "ordentlich": 8012,
      "imon": 8013,
      "Ġerlebt": 8014,
      "Ġverdienst": 8015,
      "Ġjungges": 8016,
      "zusein": 8017,
      "gebung": 8018,
      "Ġdefin": 8019,
      "Ã¼fft": 8020,
      "ĠkrÃ¤": 8021,
      "Ġnotwend": 8022,
      "Ġletztesmal": 8023,
      "Ġhundefutter": 8024,
      "Ġempfohlen": 8025,
      "ĠgrÃ¼ne": 8026,
      "Ġkonto": 8027,
      "Ġversuchung": 8028,
      "hose": 8029,
      "Ġzugezogen": 8030,
      "Ġkochst": 8031,
      "Ġblicken": 8032,
      "ĠfÃ¼rchtete": 8033,
      "Ġleidenschaft": 8034,
      "Ġschreckliche": 8035,
      "zeichnete": 8036,
      "Ġgefangenen": 8037,
      "Ġkomplett": 8038,
      "ĠgekÃ¼ÃŁt": 8039,
      "Ġtaschentuch": 8040,
      "Ġwindig": 8041,
      "Ġhineingehen": 8042,
      "Ġdreht": 8043,
      "Ġschwarzes": 8044,
      "phabet": 8045,
      "willig": 8046,
      "ĠuniversitÃ¤ts": 8047,
      "Ã¤use": 8048,
      "schnitt": 8049,
      "Ġpflanzte": 8050,
      "Ġgesetze": 8051,
      "ĠÃ¼berredete": 8052,
      "Ġanti": 8053,
      "ĠfÃ¤llen": 8054,
      "strafe": 8055,
      "Ġsym": 8056,
      "Ġbargeld": 8057,
      "Ġempfehle": 8058,
      "Ġheirateten": 8059,
      "Ġaussichten": 8060,
      "rÃ¤te": 8061,
      "Ġerlitt": 8062,
      "Ġmitglieder": 8063,
      "Ġlincol": 8064,
      "Ġzwillings": 8065,
      "Ġgedenkt": 8066,
      "ĠbegrÃ¼ÃŁte": 8067,
      "Ġversichert": 8068,
      "Ġnickte": 8069,
      "Ġertrunken": 8070,
      "ĠlÃ¤ÃŁt": 8071,
      "ĠÃ¼berraschend": 8072,
      "kosten": 8073,
      "Ġbeabsichtige": 8074,
      "Ġkopie": 8075,
      "Ġreligi": 8076,
      "Ġurteil": 8077,
      "Ġabstreiten": 8078,
      "Ġlocker": 8079,
      "Ġarchite": 8080,
      "Ġplaneten": 8081,
      "ĠverblÃ¼fft": 8082,
      "affnet": 8083,
      "Ġheiratsan": 8084,
      "Ġzitronen": 8085,
      "Ġzuletzt": 8086,
      "ĠhinterlieÃŁ": 8087,
      "ĠaufnahmeprÃ¼fung": 8088,
      "Ġverlangte": 8089,
      "Ġherauszufinden": 8090,
      "Ġbestritt": 8091,
      "Ġfernbedien": 8092,
      "ĠrÃ¼cksichts": 8093,
      "Ġtaxifahrer": 8094,
      "Ġvergiftet": 8095,
      "ĠbeÃ¤ngstigend": 8096,
      "Ġgesichtsausdruck": 8097,
      "Ġzentim": 8098,
      "Ġlaptop": 8099,
      "Ġlincoln": 8100,
      "da": 8101,
      "fol": 8102,
      "gi": 8103,
      "gift": 8104,
      "hÃ¼tte": 8105,
      "kÃ¶pf": 8106,
      "missen": 8107,
      "mod": 8108,
      "ocken": 8109,
      "sbe": 8110,
      "erung": 8111,
      "Ġsangen": 8112,
      "Ġmater": 8113,
      "Ġhy": 8114,
      "ĠhÃ¼tte": 8115,
      "Ġimm": 8116,
      "ĠgÃ¤rt": 8117,
      "ĠbÃ¤umen": 8118,
      "ĠkÃ¤tzchen": 8119,
      "unkel": 8120,
      "ĠzÃ¤hle": 8121,
      "Ġzahle": 8122,
      "ĠgegrÃ¼ndet": 8123,
      "llten": 8124,
      "Ġschlich": 8125,
      "Ġveranda": 8126,
      "Ġinne": 8127,
      "Ġanal": 8128,
      "Ġanstellung": 8129,
      "ierungs": 8130,
      "Ġpra": 8131,
      "igh": 8132,
      "Ġbewogen": 8133,
      "Ġfrustr": 8134,
      "Ġstach": 8135,
      "Ġstation": 8136,
      "Ġstifte": 8137,
      "Ġrennt": 8138,
      "Ġausw": 8139,
      "Ġausziehen": 8140,
      "Ġausgang": 8141,
      "Ġok": 8142,
      "lechter": 8143,
      "Ġbraune": 8144,
      "Ġbrote": 8145,
      "reiÃŁen": 8146,
      "Ġenge": 8147,
      "Ġhausarbeit": 8148,
      "Ġschwind": 8149,
      "Ġblond": 8150,
      "Ġbluse": 8151,
      "Ġschlicht": 8152,
      "Ġtrag": 8153,
      "gesprÃ¤che": 8154,
      "Ġgeschei": 8155,
      "ĠentfÃ¼hrt": 8156,
      "Ġzurzeit": 8157,
      "ison": 8158,
      "Ġverlieben": 8159,
      "otÃ¼r": 8160,
      "Ġwurdet": 8161,
      "ĠgetÃ¤u": 8162,
      "Ġunterl": 8163,
      "Ġunterlassen": 8164,
      "Ġgemerkt": 8165,
      "Ġgrie": 8166,
      "Ġbislang": 8167,
      "Ġsaal": 8168,
      "Ġevent": 8169,
      "Ã¤len": 8170,
      "Ġkindergarten": 8171,
      "Ġangemessen": 8172,
      "Ġfreundes": 8173,
      "Ġdru": 8174,
      "ĠdrÃ¼cke": 8175,
      "glos": 8176,
      "Ġwegzu": 8177,
      "Ġzweihundert": 8178,
      "ĠkÃ¼sst": 8179,
      "Ġgebiet": 8180,
      "Ġgebadet": 8181,
      "ptisch": 8182,
      "ĠglÃ¼cklicherweise": 8183,
      "Ġbegabt": 8184,
      "lose": 8185,
      "Ġbefahl": 8186,
      "Ġfernzusehen": 8187,
      "Ġverkaufe": 8188,
      "Ġzugang": 8189,
      "Ġsegeln": 8190,
      "Ġmenschenmenge": 8191,
      "zeuger": 8192,
      "Ġversprecht": 8193,
      "Ġloswerden": 8194,
      "Ġschnappte": 8195,
      "Ġschwierigste": 8196,
      "Ġbetrachten": 8197,
      "Ġverwickelt": 8198,
      "erstoff": 8199,
      "Ġflugzeu": 8200,
      "Ġstimmten": 8201,
      "Ġstimmung": 8202,
      "ĠkÃ¤fig": 8203,
      "Ġdaumen": 8204,
      "Ġanruft": 8205,
      "Ġnebeneinander": 8206,
      "Ġrechne": 8207,
      "Ġkrieges": 8208,
      "Ġwetters": 8209,
      "Ġehre": 8210,
      "Ġsauerstoff": 8211,
      "Ġurspr": 8212,
      "Ġsechzig": 8213,
      "Ġgeisel": 8214,
      "Ġcomic": 8215,
      "Ġwinkte": 8216,
      "Ġverzichten": 8217,
      "Ġdiag": 8218,
      "ĠÃ¼berlege": 8219,
      "Ġbabys": 8220,
      "Ġkochte": 8221,
      "teilt": 8222,
      "Ġherrschte": 8223,
      "Ġschreckliches": 8224,
      "Ġwandte": 8225,
      "zutreten": 8226,
      "Ġdicke": 8227,
      "Ġphys": 8228,
      "Ġschneide": 8229,
      "ummi": 8230,
      "Ġlehrbuch": 8231,
      "Ġentspannt": 8232,
      "kraut": 8233,
      "ĠregelmÃ¤ÃŁig": 8234,
      "ĠzuzuhÃ¶ren": 8235,
      "Ġbotschaft": 8236,
      "Ġfremdsprachen": 8237,
      "Ġantworte": 8238,
      "Ġkritik": 8239,
      "Ġscharfes": 8240,
      "Ġersetzen": 8241,
      "onto": 8242,
      "ĠtÃ¤tigen": 8243,
      "Ġbanane": 8244,
      "system": 8245,
      "Ġpicknicken": 8246,
      "ĠÃ¼berprÃ¼ft": 8247,
      "ĠerfÃ¼llt": 8248,
      "Ġmikrophon": 8249,
      "Ġidioten": 8250,
      "Ġaufgeschrieben": 8251,
      "ĠvernÃ¼nft": 8252,
      "Ġwahnsinn": 8253,
      "Ġcousins": 8254,
      "Ġberuhigen": 8255,
      "Ġmodell": 8256,
      "ĠverÃ¤ndern": 8257,
      "ĠgÃ¼nstig": 8258,
      "Ġnational": 8259,
      "Ġangriff": 8260,
      "ophon": 8261,
      "Ġbiene": 8262,
      "Ġbienen": 8263,
      "Ġpflegte": 8264,
      "Ġbenachrichtigen": 8265,
      "Ġbedienen": 8266,
      "Ġunternommen": 8267,
      "Ġmitbewohner": 8268,
      "Ġkennenlernte": 8269,
      "Ġbackt": 8270,
      "Ġzustimmung": 8271,
      "Ġmittlerweile": 8272,
      "Ġhielte": 8273,
      "Ġvisum": 8274,
      "Ġinnerhalb": 8275,
      "Ġrabatt": 8276,
      "Ġvorstellungs": 8277,
      "Ġvorsitzenden": 8278,
      "ĠhÃ¼lfe": 8279,
      "ĠgewÃ¼nscht": 8280,
      "ĠgenÃ¼gend": 8281,
      "Ġoriginal": 8282,
      "Ġomelett": 8283,
      "Ġhawaii": 8284,
      "Ġheiratsantrag": 8285,
      "Ġfernbedienung": 8286,
      "ĠgetÃ¤uscht": 8287,
      "ginge": 8288,
      "gÃ¼ltig": 8289,
      "ide": 8290,
      "kÃ¤u": 8291,
      "kaufen": 8292,
      "leu": 8293,
      "leute": 8294,
      "lant": 8295,
      "nd": 8296,
      "nel": 8297,
      "roren": 8298,
      "zieren": 8299,
      "zÃ¤hl": 8300,
      "zif": 8301,
      "Ġdra": 8302,
      "Ġdingen": 8303,
      "Ġser": 8304,
      "Ġske": 8305,
      "Ġsho": 8306,
      "Ġwesen": 8307,
      "Ġwange": 8308,
      "iegt": 8309,
      "Ġtieren": 8310,
      "Ġtrad": 8311,
      "Ġtreibt": 8312,
      "ĠbÃ¶s": 8313,
      "Ġkreis": 8314,
      "andet": 8315,
      "arr": 8316,
      "Ġvul": 8317,
      "Ġgedenken": 8318,
      "Ġeinig": 8319,
      "Ġeinschl": 8320,
      "Ġeinwohner": 8321,
      "inter": 8322,
      "indel": 8323,
      "Ġzueinander": 8324,
      "Ã¤bchen": 8325,
      "Ġlat": 8326,
      "Ġschmal": 8327,
      "Ġschalten": 8328,
      "ĠauÃŁen": 8329,
      "decke": 8330,
      "ittlich": 8331,
      "Ġunbeh": 8332,
      "Ġanb": 8333,
      "Ġsozial": 8334,
      "dert": 8335,
      "Ġjagd": 8336,
      "Ġauftrag": 8337,
      "Ġmithalten": 8338,
      "Ġmitzubringen": 8339,
      "ĠrÃ¶": 8340,
      "ĠrÃ¤um": 8341,
      "Ġspinne": 8342,
      "indig": 8343,
      "ennung": 8344,
      "Ġweis": 8345,
      "atisch": 8346,
      "Ġumhin": 8347,
      "Ġumgebung": 8348,
      "Ġvorurt": 8349,
      "Ġglocke": 8350,
      "Ġengel": 8351,
      "olgte": 8352,
      "Ġmanager": 8353,
      "Ġtranken": 8354,
      "Ġgeschieden": 8355,
      "Ġgerannt": 8356,
      "Ġgeraucht": 8357,
      "Ã¼nden": 8358,
      "ĠunterhÃ¤lt": 8359,
      "Ġhingetan": 8360,
      "Ġwiederhaben": 8361,
      "Ġwiedererk": 8362,
      "Ġherkommen": 8363,
      "ertigt": 8364,
      "ĠâĢĻ": 8365,
      "Ġbeschuldig": 8366,
      "Ġbuchladen": 8367,
      "Ġechte": 8368,
      "auff": 8369,
      "Ġobjekt": 8370,
      "Ġeinfache": 8371,
      "Ġangehen": 8372,
      "wechs": 8373,
      "spart": 8374,
      "Ġwenigen": 8375,
      "Ġdurchzu": 8376,
      "Ġzusammenhang": 8377,
      "Ġaufgetragen": 8378,
      "Ġstadtteil": 8379,
      "Ġantwortet": 8380,
      "Ġtote": 8381,
      "ationen": 8382,
      "Ġengland": 8383,
      "Ġverlorene": 8384,
      "ĠbetrÃ¤cht": 8385,
      "Ġverbunden": 8386,
      "Ġkenntnis": 8387,
      "ĠÃ¤rgerte": 8388,
      "Ġfingern": 8389,
      "Ġverdiente": 8390,
      "Ġgefressen": 8391,
      "zusp": 8392,
      "iforn": 8393,
      "Ġpartei": 8394,
      "Ġverschwinde": 8395,
      "Ġkram": 8396,
      "Ġtropfen": 8397,
      "Ġschmei": 8398,
      "Ġgespen": 8399,
      "ĠgrÃ¼nden": 8400,
      "Ġseltsamen": 8401,
      "Ġeingepackt": 8402,
      "Ġallerl": 8403,
      "aschinen": 8404,
      "Ġsonnenlicht": 8405,
      "Ġkirchen": 8406,
      "ĠqualitÃ¤t": 8407,
      "Ġaussage": 8408,
      "Ġchancen": 8409,
      "Ġhauptfach": 8410,
      "rechner": 8411,
      "Ġherrn": 8412,
      "Ġ195": 8413,
      "ĠjÃ¼ngeren": 8414,
      "Ġbegegnen": 8415,
      "Ġdrehen": 8416,
      "Ġfaust": 8417,
      "Ġdienstag": 8418,
      "Ġbeobachtete": 8419,
      "Ġeilte": 8420,
      "Ġzeugen": 8421,
      "Ġschneidet": 8422,
      "ĠstÃ¤rke": 8423,
      "Ġteures": 8424,
      "Ġvorbereiten": 8425,
      "ĠÃ¼berquert": 8426,
      "ĠfÃ¼tterte": 8427,
      "ĠkÃ¤mpft": 8428,
      "Ġschlagzeuger": 8429,
      "ĠwÃ¤hlte": 8430,
      "ĠlÃ¼gnerin": 8431,
      "Ġohnmacht": 8432,
      "ĠzurÃ¼ckgegeben": 8433,
      "Ġinternation": 8434,
      "Ġwichtigen": 8435,
      "Ġjahreszeit": 8436,
      "Ġsenken": 8437,
      "Ġschiefgehen": 8438,
      "Ġpool": 8439,
      "Ġsternen": 8440,
      "Ġheulen": 8441,
      "Ġgrab": 8442,
      "Ġstreitet": 8443,
      "bÃ¼rger": 8444,
      "Ġhorr": 8445,
      "Ġriskieren": 8446,
      "Ġsumme": 8447,
      "ĠzunÃ¤chst": 8448,
      "Ġrutschte": 8449,
      "Ġankamen": 8450,
      "Ġverabschiedet": 8451,
      "Ġinnenstadt": 8452,
      "Ġangeklagt": 8453,
      "Ġwidmete": 8454,
      "Ġfantastisch": 8455,
      "Ġbeantwortete": 8456,
      "Ġgrammatik": 8457,
      "Ġbedauere": 8458,
      "wÃ¤sche": 8459,
      "Ġjournalist": 8460,
      "Ġperfekte": 8461,
      "Ġpessimistisch": 8462,
      "Ġausfindig": 8463,
      "Ġherausforderung": 8464,
      "ĠhÃ¤ndchen": 8465,
      "Ġzuversichtlich": 8466,
      "Ġklausur": 8467,
      "Ġneidisch": 8468,
      "Ġvergeblich": 8469,
      "Ġphilosoph": 8470,
      "Ġzentimeter": 8471,
      "bett": 8472,
      "dd": 8473,
      "fess": 8474,
      "folgen": 8475,
      "halle": 8476,
      "kur": 8477,
      "les": 8478,
      "lungs": 8479,
      "ool": 8480,
      "setz": 8481,
      "taucht": 8482,
      "treffen": 8483,
      "zettel": 8484,
      "Ġsh": 8485,
      "star": 8486,
      "stap": 8487,
      "Ġmi": 8488,
      "Ġhir": 8489,
      "Ġhigh": 8490,
      "eingenommen": 8491,
      "omen": 8492,
      "Ġbre": 8493,
      "Ġbieten": 8494,
      "Ġkater": 8495,
      "Ġkoff": 8496,
      "Ġkohle": 8497,
      "unt": 8498,
      "Ġzogen": 8499,
      "ari": 8500,
      "irs": 8501,
      "irin": 8502,
      "Ġgezeichnet": 8503,
      "Ġlab": 8504,
      "Ġscheu": 8505,
      "ĠschÃ¼ssel": 8506,
      "aur": 8507,
      "gearbeitet": 8508,
      "ites": 8509,
      "ittel": 8510,
      "schiff": 8511,
      "schmei": 8512,
      "recken": 8513,
      "Ġverrichten": 8514,
      "etisch": 8515,
      "Ġankommst": 8516,
      "Ġsod": 8517,
      "Ġjan": 8518,
      "ĠjÃ¤ger": 8519,
      "Ġjuli": 8520,
      "Ġputzt": 8521,
      "Ġdableiben": 8522,
      "Ġbeeilt": 8523,
      "Ġstei": 8524,
      "Ġsteine": 8525,
      "Ġstart": 8526,
      "Ġstille": 8527,
      "Ġstroh": 8528,
      "Ġrum": 8529,
      "Ġrob": 8530,
      "Ġausrede": 8531,
      "Ġausprobiert": 8532,
      "Ġosten": 8533,
      "Ġalarm": 8534,
      "Ġbricht": 8535,
      "Ġbrachten": 8536,
      "Ġbiologie": 8537,
      "Ġvorerst": 8538,
      "ĠÃ¼berfÃ¼": 8539,
      "Ġglatze": 8540,
      "ĠweiÃŁwein": 8541,
      "Ã¶ren": 8542,
      "Ġliefer": 8543,
      "Ġschwindel": 8544,
      "Ġmehreren": 8545,
      "Ġschlamm": 8546,
      "Ġgutgeht": 8547,
      "Ġtrut": 8548,
      "Ġklagen": 8549,
      "Ġbittest": 8550,
      "Ġgeschaffen": 8551,
      "Ġentmut": 8552,
      "ĠgerÃ¤t": 8553,
      "Ġversagt": 8554,
      "Ġlanden": 8555,
      "hmen": 8556,
      "Ã¼nder": 8557,
      "Ġunterb": 8558,
      "Ġunterbrechen": 8559,
      "igem": 8560,
      "Ġgestattet": 8561,
      "gericht": 8562,
      "Ġhinsicht": 8563,
      "Ġwelpen": 8564,
      "Ġautomat": 8565,
      "mitt": 8566,
      "ĠfrÃ¼hzeitig": 8567,
      "ĠfÃ¼llen": 8568,
      "izont": 8569,
      "Ġleih": 8570,
      "ĠgedrÃ¼ckt": 8571,
      "ĠfahrgÃ¤": 8572,
      "Ġpaarmal": 8573,
      "geschmissen": 8574,
      "Ġaufgegangen": 8575,
      "Ġaufgehalten": 8576,
      "ĠerzÃ¤hlst": 8577,
      "Ġbegreifen": 8578,
      "Ġaltmod": 8579,
      "Ġtreu": 8580,
      "Ġbefanden": 8581,
      "Ġbusse": 8582,
      "Ġbusfahrer": 8583,
      "Ġstrate": 8584,
      "Ġbezahlte": 8585,
      "iven": 8586,
      "ĠstrÃ¶": 8587,
      "Ġverhand": 8588,
      "ĠbetrÃ¤gt": 8589,
      "ĠzufÃ¤": 8590,
      "Ġverbrecher": 8591,
      "ĠanfÃ¼hr": 8592,
      "Ġausgemacht": 8593,
      "Ġhaaren": 8594,
      "Ġmenschheit": 8595,
      "Ġrose": 8596,
      "Ġsohnes": 8597,
      "Ġverdiene": 8598,
      "Ġkompr": 8599,
      "Ġschauten": 8600,
      "uliert": 8601,
      "Ġzufriedenstellen": 8602,
      "Ġnervt": 8603,
      "Ġerlaubte": 8604,
      "Ġverschwendet": 8605,
      "ĠkrÃ¤ft": 8606,
      "Ġverbringst": 8607,
      "ĠerschieÃŁen": 8608,
      "Ġschmuck": 8609,
      "Ġpfei": 8610,
      "Ġpfiff": 8611,
      "getreten": 8612,
      "Ġatlant": 8613,
      "Ġauszukommen": 8614,
      "Ġstarr": 8615,
      "Ġquer": 8616,
      "Ġquad": 8617,
      "Ġmeldete": 8618,
      "Ġchefin": 8619,
      "Ġgesundheits": 8620,
      "Ġ194": 8621,
      "orfil": 8622,
      "aktion": 8623,
      "Ġdisko": 8624,
      "ingelt": 8625,
      "Ġgolden": 8626,
      "Ġmission": 8627,
      "Ġtolles": 8628,
      "Ġabsagen": 8629,
      "Ġgeschwindigkeit": 8630,
      "Ġignorierte": 8631,
      "ograph": 8632,
      "ummelt": 8633,
      "Ġweihnachtsbaum": 8634,
      "Ġteuren": 8635,
      "Ġscherze": 8636,
      "Ġkaliforn": 8637,
      "Ġkontaktlin": 8638,
      "vertiert": 8639,
      "Ġdrohte": 8640,
      "rott": 8641,
      "Ġoperiert": 8642,
      "ĠerwÃ¤hnte": 8643,
      "Ġspezie": 8644,
      "Ġinteressanteste": 8645,
      "Ġersetzt": 8646,
      "Ġstreet": 8647,
      "Ġstreckte": 8648,
      "Ġreservieren": 8649,
      "Ġreservierung": 8650,
      "Ġlinke": 8651,
      "Ġtalentiert": 8652,
      "geschenke": 8653,
      "Ġnirgendwohin": 8654,
      "Ġprofession": 8655,
      "Ġtrainer": 8656,
      "bewusst": 8657,
      "Ġserviert": 8658,
      "Ġhorizont": 8659,
      "Ġbeabsichtigt": 8660,
      "Ġanspruch": 8661,
      "verletzung": 8662,
      "Ġenkelkinder": 8663,
      "ĠarchÃ¤": 8664,
      "Ġkluger": 8665,
      "Ġkugelschreiber": 8666,
      "Ġverteidigen": 8667,
      "Ġfasziniert": 8668,
      "ĠalptrÃ¤ume": 8669,
      "Ġruiniert": 8670,
      "Ġpianist": 8671,
      "Ġaspirin": 8672,
      "groÃŁ": 8673,
      "Ġunerwartet": 8674,
      "ĠschnÃ¼rsen": 8675,
      "Ġandauernd": 8676,
      "krebs": 8677,
      "Ġangestellten": 8678,
      "Ġozean": 8679,
      "Ġarchitekt": 8680,
      "Ġeventuell": 8681,
      "Ġskeptisch": 8682,
      "Ġhorrorfil": 8683,
      "bad": 8684,
      "dungen": 8685,
      "folg": 8686,
      "han": 8687,
      "keln": 8688,
      "lativ": 8689,
      "messer": 8690,
      "phin": 8691,
      "papier": 8692,
      "wach": 8693,
      "xophon": 8694,
      "ya": 8695,
      "zei": 8696,
      "chan": 8697,
      "erten": 8698,
      "ichert": 8699,
      "ieh": 8700,
      "stunden": 8701,
      "station": 8702,
      "stifte": 8703,
      "Ġhind": 8704,
      "Ġgur": 8705,
      "Ġnenne": 8706,
      "Ġkg": 8707,
      "irk": 8708,
      "Ġeinstellung": 8709,
      "Ġzugegen": 8710,
      "Ġlok": 8711,
      "Ġerraten": 8712,
      "Ġunangen": 8713,
      "Ġungesch": 8714,
      "Ġungern": 8715,
      "Ġunkraut": 8716,
      "schuss": 8717,
      "Ġanz": 8718,
      "Ã¼rt": 8719,
      "ehin": 8720,
      "Ġpasste": 8721,
      "igter": 8722,
      "Ġmitgenommen": 8723,
      "Ġmitzukommen": 8724,
      "Ġbeten": 8725,
      "Ġbewerk": 8726,
      "Ġkanntest": 8727,
      "urlaub": 8728,
      "Ġausweg": 8729,
      "Ġauszumachen": 8730,
      "Ġbro": 8731,
      "ĠfÃ¼reinander": 8732,
      "Ġrelativ": 8733,
      "Ġumzugehen": 8734,
      "Ġvorent": 8735,
      "Ġvorhabe": 8736,
      "Ġvieler": 8737,
      "Ġbesitzen": 8738,
      "Ġbeizubringen": 8739,
      "Ġschlacht": 8740,
      "Ġmanieren": 8741,
      "Ġabstand": 8742,
      "Ġklin": 8743,
      "ĠgerÃ¼hrt": 8744,
      "ĠwÃ¤hle": 8745,
      "weil": 8746,
      "Ġunterhaltung": 8747,
      "Ġmalen": 8748,
      "Ġgestanden": 8749,
      "Ġgestimmt": 8750,
      "gelesen": 8751,
      "Ġwiederkommt": 8752,
      "Ġwiedergut": 8753,
      "Ġwecke": 8754,
      "Ġberlin": 8755,
      "Ġgelben": 8756,
      "ranten": 8757,
      "abdrÃ¼cke": 8758,
      "Ġbleistifte": 8759,
      "indert": 8760,
      "ĠsprÃ¤che": 8761,
      "aufgang": 8762,
      "Ġdrittel": 8763,
      "gner": 8764,
      "Ġschneemann": 8765,
      "asta": 8766,
      "twoch": 8767,
      "Ġworten": 8768,
      "Ġhundes": 8769,
      "Ġselbstvertrauen": 8770,
      "ustrie": 8771,
      "selig": 8772,
      "Ġzusammenzu": 8773,
      "Ġeinzig": 8774,
      "geschw": 8775,
      "Ġletztem": 8776,
      "Ġgutem": 8777,
      "Ġeigent": 8778,
      "Ġkonserv": 8779,
      "Ġbriefum": 8780,
      "Ġverschlechter": 8781,
      "Ġverdanke": 8782,
      "ĠhintertÃ¼r": 8783,
      "Ġloszu": 8784,
      "Ġteilzunehmen": 8785,
      "stÃ¼cke": 8786,
      "Ġparks": 8787,
      "ohnen": 8788,
      "Ġbedacht": 8789,
      "Ġbedankt": 8790,
      "okrat": 8791,
      "Ġratten": 8792,
      "ieÃŁlich": 8793,
      "Ġvergraben": 8794,
      "ĠkopfhÃ¶rer": 8795,
      "ĠlÃ¤chelten": 8796,
      "Ġgeburts": 8797,
      "Ġbildung": 8798,
      "ĠauslÃ¤nd": 8799,
      "Ġkriegt": 8800,
      "Ġmanches": 8801,
      "Ġmedit": 8802,
      "Ġkrach": 8803,
      "Ġehren": 8804,
      "Ġallzulange": 8805,
      "Ġlieblingsfarbe": 8806,
      "Ġfielen": 8807,
      "Ġanzuziehen": 8808,
      "Ġzahlte": 8809,
      "Ġapfelkuchen": 8810,
      "Ġalters": 8811,
      "Ġschlafanzug": 8812,
      "Ġtauschen": 8813,
      "Ġsorgt": 8814,
      "Ġschreit": 8815,
      "ordnung": 8816,
      "ĠbÃ¶sen": 8817,
      "Ġdiabet": 8818,
      "Ġsonnenaufgang": 8819,
      "leiter": 8820,
      "Ġyog": 8821,
[...]
