{
  "version": "1.0",
  "truncation": null,
  "padding": {
    "strategy": "BatchLongest",
    "direction": "Right",
    "pad_to_multiple_of": null,
    "pad_id": 2,
    "pad_type_id": 0,
    "pad_token": "[pad]"
  },
  "added_tokens": [
    {
      "id": 0,
      "content": "[start]",
      "single_word": false,
      "lstrip": false,
      "rstrip": false,
      "normalized": false,
      "special": true
    },
    {
      "id": 1,
      "content": "[end]",
      "single_word": false,
      "lstrip": false,
      "rstrip": false,
      "normalized": false,
      "special": true
    },
    {
      "id": 2,
      "content": "[pad]",
      "single_word": false,
      "lstrip": false,
      "rstrip": false,
      "normalized": false,
      "special": true
    }
  ],
  "normalizer": null,
  "pre_tokenizer": {
    "type": "ByteLevel",
    "add_prefix_space": true,
    "trim_offsets": true,
    "use_regex": true
  },
  "post_processor": null,
  "decoder": {
    "type": "ByteLevel",
    "add_prefix_space": true,
    "trim_offsets": true,
    "use_regex": true
  },
  "model": {
    "type": "BPE",
    "dropout": null,
    "unk_token": null,
    "continuing_subword_prefix": null,
    "end_of_word_suffix": null,
    "fuse_unk": false,
    "byte_fallback": false,
    "ignore_merges": false,
    "vocab": {
      "[start]": 0,
      "[end]": 1,
      "[pad]": 2,
      "!": 3,
      "\"": 4,
      "$": 5,
      "%": 6,
      "'": 7,
      "(": 8,
      ")": 9,
      "+": 10,
      ",": 11,
      "-": 12,
      ".": 13,
      "/": 14,
      "0": 15,
      "1": 16,
      "2": 17,
      "3": 18,
      "4": 19,
      "5": 20,
      "6": 21,
      "7": 22,
      "8": 23,
      "9": 24,
      ":": 25,
      ";": 26,
      "?": 27,
      "@": 28,
      "a": 29,
      "b": 30,
      "c": 31,
      "d": 32,
      "e": 33,
      "f": 34,
      "g": 35,
      "h": 36,
      "i": 37,
      "j": 38,
      "k": 39,
      "l": 40,
      "m": 41,
      "n": 42,
      "o": 43,
      "p": 44,
      "q": 45,
      "r": 46,
      "s": 47,
      "t": 48,
      "u": 49,
      "v": 50,
      "w": 51,
      "x": 52,
      "y": 53,
      "z": 54,
      "¡": 55,
      "¢": 56,
      "£": 57,
      "§": 58,
      "©": 59,
      "ª": 60,
      "¬": 61,
      "¯": 62,
      "°": 63,
      "±": 64,
      "º": 65,
      "¼": 66,
      "Â": 67,
      "Ã": 68,
      "Å": 69,
      "â": 70,
      "Ġ": 71,
      "Ģ": 72,
      "Ĥ": 73,
      "ĭ": 74,
      "į": 75,
      "ĵ": 76,
      "Ķ": 77,
      "ĺ": 78,
      "Ļ": 79,
      "ľ": 80,
      "Ŀ": 81,
      "ł": 82,
      "Ń": 83,
      "Ġt": 84,
      "Ġi": 85,
      "Ġto": 86,
      "ou": 87,
      "Ġth": 88,
      "Ġa": 89,
      "Ġw": 90,
      "Ġh": 91,
      "Ġy": 92,
      "re": 93,
      "Ġs": 94,
      "Ġyou": 95,
      "Ġd": 96,
      "in": 97,
      "Ġm": 98,
      "on": 99,
      "Ġthe": 100,
      "Ġtom": 101,
      "at": 102,
      "er": 103,
      "Ġb": 104,
      "Ġc": 105,
      "an": 106,
      "ed": 107,
      "Ġl": 108,
      "ing": 109,
      "Ġf": 110,
      "en": 111,
      "ll": 112,
      "is": 113,
      "'t": 114,
      "or": 115,
      "as": 116,
      "ve": 117,
      "Ġp": 118,
      "ar": 119,
      "Ġn": 120,
      "Ġg": 121,
      "Ġdo": 122,
      "Ġis": 123,
      "Ġwh": 124,
      "Ġhe": 125,
      "ow": 126,
      "es": 127,
      "Ġo": 128,
      "Ġthat": 129,
      "th": 130,
      "Ġha": 131,
      "id": 132,
      "om": 133,
      "Ġbe": 134,
      "Ġin": 135,
      "Ġwe": 136,
      "ay": 137,
      "Ġan": 138,
      "Ġit": 139,
      "ld": 140,
      "Ġe": 141,
      "'s": 142,
      "le": 143,
      "Ġof": 144,
      "ke": 145,
      "st": 146,
      "ver": 147,
      "Ġme": 148,
      "ot": 149,
      "Ġwas": 150,
      "ch": 151,
      "Ġli": 152,
      "oo": 153,
      "Ġk": 154,
      "et": 155,
      "Ġst": 156,
      "Ġhave": 157,
      "Ġon": 158,
      "Ġdid": 159,
      "Ġu": 160,
      "Ġsh": 161,
      "Ġre": 162,
      "Ġdon": 163,
      "gh": 164,
      "it": 165,
      "Ġthis": 166,
      "Ġfor": 167,
      "Ġwi": 168,
      "ic": 169,
      "ould": 170,
      "Ġwhat": 171,
      "ant": 172,
      "ome": 173,
      "im": 174,
      "Ġne": 175,
      "Ġare": 176,
      "Ġkn": 177,
      "se": 178,
      "Ġcan": 179,
      "al": 180,
      "Ġmy": 181,
      "ri": 182,
      "ght": 183,
      "Ġmar": 184,
      "Ġyour": 185,
      "Ġgo": 186,
      "Ġknow": 187,
      "ad": 188,
      "out": 189,
      "Ġwant": 190,
      "ly": 191,
      "Ġmary": 192,
      "ent": 193,
      "very": 194,
      "ro": 195,
      "all": 196,
      "'m": 197,
      "Ġas": 198,
      "Ġwith": 199,
      "ink": 200,
      "ter": 201,
      "Ġlike": 202,
      "Ġat": 203,
      "Ġnot": 204,
      "Ġand": 205,
      "Ġhis": 206,
      "Ġse": 207,
      "one": 208,
      "am": 209,
      "ion": 210,
      "pp": 211,
      "ir": 212,
      "ook": 213,
      "Ġj": 214,
      "ut": 215,
      "Ġany": 216,
      "Ġthink": 217,
      "Ġhow": 218,
      "'re": 219,
      "thing": 220,
      "ea": 221,
      "ust": 222,
      "Ġab": 223,
      "Ġsu": 224,
      "ce": 225,
      "ere": 226,
      "ain": 227,
      "'ve": 228,
      "ore": 229,
      "Ġch": 230,
      "ct": 231,
      "Ġal": 232,
      "Ġsome": 233,
      "Ġshe": 234,
      "Ġthere": 235,
      "'ll": 236,
      "ake": 237,
      "Ġtr": 238,
      "Ġno": 239,
      "Ġhere": 240,
      "Ġhas": 241,
      "Ġwor": 242,
      "ck": 243,
      "Ġdidn": 244,
      "op": 245,
      "ther": 246,
      "ost": 247,
      "Ġr": 248,
      "Ġget": 249,
      "ood": 250,
      "end": 251,
      "Ġso": 252,
      "ally": 253,
      "Ġtim": 254,
      "Ġabout": 255,
      "Ġdoes": 256,
      "Ġvery": 257,
      "ren": 258,
      "ur": 259,
      "Ġte": 260,
      "ong": 261,
      "Ġsa": 262,
      "Ġus": 263,
      "Ġall": 264,
      "Ġsp": 265,
      "nd": 266,
      "Ġneed": 267,
      "ge": 268,
      "Ġwhy": 269,
      "Ġwould": 270,
      "Ġpl": 271,
      "Ġtime": 272,
      "Ġsee": 273,
      "and": 274,
      "Ġif": 275,
      "ind": 276,
      "us": 277,
      "Ġone": 278,
      "Ġhel": 279,
      "Ġhim": 280,
      "Ġgoing": 281,
      "day": 282,
      "Ġhelp": 283,
      "Ġwho": 284,
      "Ġevery": 285,
      "Ġwill": 286,
      "ast": 287,
      "Ġfr": 288,
      "Ġup": 289,
      "Ġshould": 290,
      "ble": 291,
      "Ġout": 292,
      "il": 293,
      "ill": 294,
      "Ġwere": 295,
      "Ġhad": 296,
      "Ġex": 297,
      "est": 298,
      "Ġlook": 299,
      "un": 300,
      "ight": 301,
      "Ġcould": 302,
      "Ġthey": 303,
      "alk": 304,
      "ard": 305,
      "qu": 306,
      "Ġtoo": 307,
      "ish": 308,
      "ame": 309,
      "Ġgood": 310,
      "ate": 311,
      "ive": 312,
      "Ġwhen": 313,
      "ase": 314,
      "Ġman": 315,
      "ul": 316,
      "'d": 317,
      "Ġthan": 318,
      "Ġreally": 319,
      "ry": 320,
      "Ġtell": 321,
      "Ġhapp": 322,
      "ice": 323,
      "Ġlet": 324,
      "Ġfe": 325,
      "our": 326,
      "Ġde": 327,
      "ays": 328,
      "ought": 329,
      "ist": 330,
      "Ġisn": 331,
      "ack": 332,
      "Ġher": 333,
      "Ġwork": 334,
      "Ġbeen": 335,
      "ree": 336,
      "Ġfrom": 337,
      "ear": 338,
      "Ġlo": 339,
      "Ġjust": 340,
      "Ġwhere": 341,
      "ak": 342,
      "Ġcom": 343,
      "dy": 344,
      "Ġple": 345,
      "Ġag": 346,
      "art": 347,
      "Ġnow": 348,
      "ie": 349,
      "uch": 350,
      "Ġask": 351,
      "Ġby": 352,
      "Ġqu": 353,
      "ath": 354,
      "fe": 355,
      "ers": 356,
      "Ġdoesn": 357,
      "ep": 358,
      "ol": 359,
      "Ġnever": 360,
      "Ġplease": 361,
      "Ġgot": 362,
      "Ġen": 363,
      "Ġcome": 364,
      "Ġsaid": 365,
      "Ġint": 366,
      "Ġpro": 367,
      "Ġcon": 368,
      "ss": 369,
      "ess": 370,
      "Ġmuch": 371,
      "lf": 372,
      "are": 373,
      "Ġhome": 374,
      "Ġaf": 375,
      "Ġbo": 376,
      "Ġri": 377,
      "Ġcl": 378,
      "ra": 379,
      "Ġcar": 380,
      "row": 381,
      "rench": 382,
      "Ġfrench": 383,
      "Ġtalk": 384,
      "Ġwon": 385,
      "Ġlong": 386,
      "Ġco": 387,
      "ous": 388,
      "Ġeat": 389,
      "ven": 390,
      "Ġtake": 391,
      "Ġmore": 392,
      "ite": 393,
      "Ġun": 394,
      "Ġbut": 395,
      "el": 396,
      "Ġwr": 397,
      "Ġro": 398,
      "if": 399,
      "Ġoff": 400,
      "ation": 401,
      "Ġv": 402,
      "ound": 403,
      "Ġmo": 404,
      "Ġstu": 405,
      "Ġar": 406,
      "riend": 407,
      "Ġsomething": 408,
      "Ġbook": 409,
      "bo": 410,
      "Ġlot": 411,
      "au": 412,
      "Ġstill": 413,
      "Ġpre": 414,
      "Ġbost": 415,
      "Ġboston": 416,
      "Ġbu": 417,
      "Ġhappen": 418,
      "Ġback": 419,
      "ort": 420,
      "Ġjo": 421,
      "Ġlast": 422,
      "Ġsay": 423,
      "Ġtold": 424,
      "ap": 425,
      "mp": 426,
      "Ġanything": 427,
      "Ġle": 428,
      "ig": 429,
      "ire": 430,
      "eak": 431,
      "mb": 432,
      "Ġmany": 433,
      "Ġthought": 434,
      "Ġwa": 435,
      "Ġtoday": 436,
      "oney": 437,
      "ass": 438,
      "Ġread": 439,
      "body": 440,
      "Ġbet": 441,
      "Ġpe": 442,
      "ved": 443,
      "ine": 444,
      "Ġmoney": 445,
      "Ġspeak": 446,
      "Ġstay": 447,
      "Ġpr": 448,
      "Ġthree": 449,
      "Ġday": 450,
      "ried": 451,
      "Ġwait": 452,
      "Ġor": 453,
      "Ġwat": 454,
      "ure": 455,
      "Ġexp": 456,
      "ning": 457,
      "Ġnew": 458,
      "ool": 459,
      "Ġdoing": 460,
      "Ġmake": 461,
      "wn": 462,
      "Ġthing": 463,
      "Ġagain": 464,
      "ather": 465,
      "Ġke": 466,
      "self": 467,
      "ople": 468,
      "Ġpeople": 469,
      "Ġfriend": 470,
      "Ġonly": 471,
      "ang": 472,
      "Ġright": 473,
      "tt": 474,
      "Ġyear": 475,
      "ag": 476,
      "Ġour": 477,
      "Ġam": 478,
      "ade": 479,
      "ick": 480,
      "ild": 481,
      "ach": 482,
      "Ġfa": 483,
      "Ġbus": 484,
      "Ġplay": 485,
      "orrow": 486,
      "nder": 487,
      "Ġlove": 488,
      "ways": 489,
      "Ġsm": 490,
      "Ġalways": 491,
      "Ġdr": 492,
      "Ġlea": 493,
      "ving": 494,
      "Ġad": 495,
      "Ġtea": 496,
      "ten": 497,
      "ect": 498,
      "Ġunder": 499,
      "ouse": 500,
      "os": 501,
      "ough": 502,
      "Ġgive": 503,
      "ide": 504,
      "Ġbetter": 505,
      "Ġever": 506,
      "Ġold": 507,
      "iss": 508,
      "Ġsch": 509,
      "Ġmade": 510,
      "Ġway": 511,
      "urn": 512,
      "Ġcomp": 513,
      "Ġcall": 514,
      "Ġroom": 515,
      "Ġover": 516,
      "Ġlive": 517,
      "Ġtomorrow": 518,
      "Ġmay": 519,
      "Ġhouse": 520,
      "ia": 521,
      "ting": 522,
      "Ġac": 523,
      "Ġafter": 524,
      "read": 525,
      "Ġbel": 526,
      "Ġop": 527,
      "ft": 528,
      "Ġschool": 529,
      "age": 530,
      "Ġtw": 531,
      "Ġwent": 532,
      "ts": 533,
      "Ġwell": 534,
      "Ġplan": 535,
      "Ġother": 536,
      "Ġleave": 537,
      "ab": 538,
      "Ġbuy": 539,
      "fore": 540,
      "Ġbefore": 541,
      "Ġasked": 542,
      "Ġseem": 543,
      "Ġchild": 544,
      "Ġpo": 545,
      "Ġwasn": 546,
      "nt": 547,
      "ek": 548,
      "ave": 549,
      "Ġhop": 550,
      "Ġsure": 551,
      "Ġput": 552,
      "xt": 553,
      "Ġbl": 554,
      "Ġtry": 555,
      "Ġfeel": 556,
      "ose": 557,
      "Ġdown": 558,
      "Ġwhi": 559,
      "Ġgu": 560,
      "Ġeverything": 561,
      "Ġsw": 562,
      "Ġdone": 563,
      "Ġrem": 564,
      "Ġaw": 565,
      "Ġweek": 566,
      "Ġfind": 567,
      "Ġtru": 568,
      "Ġwanted": 569,
      "estion": 570,
      "Ġdog": 571,
      "Ġinto": 572,
      "Ġhard": 573,
      "mber": 574,
      "Ġbro": 575,
      "able": 576,
      "Ġbec": 577,
      "Ġleft": 578,
      "Ġmust": 579,
      "Ġyes": 580,
      "Ġear": 581,
      "Ġteach": 582,
      "iz": 583,
      "Ġquestion": 584,
      "Ġforg": 585,
      "Ġnext": 586,
      "Ġ\"": 587,
      "Ġapp": 588,
      "Ġfl": 589,
      "ustr": 590,
      "ress": 591,
      "leep": 592,
      "Ġnight": 593,
      "Ġbelie": 594,
      "Ġpa": 595,
      "ted": 596,
      "ise": 597,
      "Ġalread": 598,
      "Ġalready": 599,
      "irst": 600,
      "Ġunderst": 601,
      "blem": 602,
      "ustral": 603,
      "Ġaustral": 604,
      "Ġimp": 605,
      "ated": 606,
      "Ġproblem": 607,
      "Ġaustralia": 608,
      "Ġcare": 609,
      "terday": 610,
      "Ġyesterday": 611,
      "ity": 612,
      "Ġhappy": 613,
      "Ġwatch": 614,
      "Ġhand": 615,
      "Ġhope": 616,
      "der": 617,
      "Ġmon": 618,
      "um": 619,
      "Ġthese": 620,
      "ttle": 621,
      "Ġbr": 622,
      "Ġdrink": 623,
      "Ġwalk": 624,
      "Ġsaw": 625,
      "Ġbelieve": 626,
      "ance": 627,
      "Ġstop": 628,
      "Ġgl": 629,
      "ied": 630,
      "Ġfin": 631,
      "Ġlittle": 632,
      "ew": 633,
      "ies": 634,
      "Ġdis": 635,
      "Ġunderstand": 636,
      "Ġfirst": 637,
      "Ġsoon": 638,
      "Ġtwo": 639,
      "Ġstart": 640,
      "ark": 641,
      "Ġdoor": 642,
      "Ġaren": 643,
      "Ġjob": 644,
      "Ġpart": 645,
      "Ġkeep": 646,
      "Ġsc": 647,
      "Ġknows": 648,
      "iff": 649,
      "Ġhappened": 650,
      "Ġfather": 651,
      "Ġyet": 652,
      "ary": 653,
      "Ġanyone": 654,
      "Ġdec": 655,
      "Ġwants": 656,
      "Ġoften": 657,
      "Ġdri": 658,
      "Ġfriends": 659,
      "Ġturn": 660,
      "Ġyears": 661,
      "pt": 662,
      "ict": 663,
      "Ġused": 664,
      "ired": 665,
      "Ġchildren": 666,
      "Ġdiff": 667,
      "akes": 668,
      "ered": 669,
      "Ġopen": 670,
      "Ġph": 671,
      "Ġlik": 672,
      "Ġeven": 673,
      "ty": 674,
      "Ġshow": 675,
      "Ġaway": 676,
      "Ġnothing": 677,
      "Ġgr": 678,
      "Ġthings": 679,
      "Ġel": 680,
      "Ġid": 681,
      "Ġcou": 682,
      "Ġmeet": 683,
      "Ġknew": 684,
      "ange": 685,
      "ious": 686,
      "Ġwrong": 687,
      "gg": 688,
      "Ġenough": 689,
      "Ġlear": 690,
      "Ġlate": 691,
      "Ġacc": 692,
      "sw": 693,
      "Ġgir": 694,
      "Ġcame": 695,
      "Ġthem": 696,
      "Ġeveryone": 697,
      "Ġansw": 698,
      "Ġname": 699,
      "Ġwish": 700,
      "Ġtook": 701,
      "ian": 702,
      "Ġhur": 703,
      "ily": 704,
      "Ġelse": 705,
      "Ġpers": 706,
      "Ġbad": 707,
      "ctor": 708,
      "Ġalone": 709,
      "Ġthank": 710,
      "erest": 711,
      "Ġcat": 712,
      "Ġreme": 713,
      "Ġwithout": 714,
      "ful": 715,
      "Ġgre": 716,
      "Ġwear": 717,
      "ys": 718,
      "Ġcouldn": 719,
      "Ġhear": 720,
      "Ġsleep": 721,
      "Ġrain": 722,
      "Ġfam": 723,
      "Ġbre": 724,
      "og": 725,
      "ult": 726,
      "Ġinterest": 727,
      "Ġheard": 728,
      "ment": 729,
      "Ġlooking": 730,
      "Ġlist": 731,
      "Ġkind": 732,
      "Ġremember": 733,
      "ip": 734,
      "Ġmor": 735,
      "Ġstud": 736,
      "more": 737,
      "Ġable": 738,
      "Ġanymore": 739,
      "Ġmiss": 740,
      "ised": 741,
      "Ġsur": 742,
      "ence": 743,
      "Ġwouldn": 744,
      "Ġgave": 745,
      "aught": 746,
      "Ġteacher": 747,
      "Ġsit": 748,
      "most": 749,
      "Ġseen": 750,
      "Ġmorning": 751,
      "Ġfound": 752,
      "Ġmother": 753,
      "Ġsho": 754,
      "Ġlearn": 755,
      "Ġperson": 756,
      "ually": 757,
      "Ġlost": 758,
      "ffe": 759,
      "Ġres": 760,
      "te": 761,
      "ace": 762,
      "Ġsame": 763,
      "Ġalmost": 764,
      "ng": 765,
      "raid": 766,
      "oy": 767,
      "Ġow": 768,
      "Ġpol": 769,
      "Ġbusy": 770,
      "Ġbought": 771,
      "Ġfo": 772,
      "Ġafraid": 773,
      "Ġhour": 774,
      "Ġhaven": 775,
      "Ġstr": 776,
      "gry": 777,
      "Ġlife": 778,
      "Ġbed": 779,
      "Ġsomeone": 780,
      "Ġswim": 781,
      "Ġeach": 782,
      "Ġfinish": 783,
      "aking": 784,
      "Ġmin": 785,
      "Ġeas": 786,
      "igh": 787,
      "Ġstudy": 788,
      "Ġwater": 789,
      "red": 790,
      "Ġtheir": 791,
      "Ġeng": 792,
      "other": 793,
      "Ġuse": 794,
      "Ġanswer": 795,
      "Ġboth": 796,
      "Ġsing": 797,
      "Ġmist": 798,
      "Ġrep": 799,
      "Ġbig": 800,
      "Ġper": 801,
      "Ġcold": 802,
      "Ġwhich": 803,
      "Ġidea": 804,
      "Ġtrain": 805,
      "Ġrec": 806,
      "Ġcoffe": 807,
      "Ġlooked": 808,
      "ible": 809,
      "Ġadv": 810,
      "Ġcoffee": 811,
      "Ġlikes": 812,
      "Ġmat": 813,
      "ket": 814,
      "Ġhot": 815,
      "Ġmight": 816,
      "Ġ2": 817,
      "pped": 818,
      "ause": 819,
      "Ġdoctor": 820,
      "Ġatt": 821,
      "Ġprom": 822,
      "ail": 823,
      "ell": 824,
      "Ġfew": 825,
      "Ġlooks": 826,
      "ac": 827,
      "Ġten": 828,
      "Ġmind": 829,
      "Ġbest": 830,
      "Ġyoung": 831,
      "ans": 832,
      "Ġwind": 833,
      "Ġstudent": 834,
      "ner": 835,
      "Ġmarried": 836,
      "Ġwaiting": 837,
      "Ġtalking": 838,
      "wh": 839,
      "Ġgirl": 840,
      "Ġbrother": 841,
      "lish": 842,
      "Ġbeing": 843,
      "Ġfun": 844,
      "ull": 845,
      "Ġpay": 846,
      "Ġnobody": 847,
      "Ġcont": 848,
      "lain": 849,
      "Ġsn": 850,
      "ident": 851,
      "les": 852,
      "aut": 853,
      "Ġtried": 854,
      "Ġbreak": 855,
      "Ġlisten": 856,
      "Ġbeg": 857,
      "Ġexpect": 858,
      ".\"": 859,
      "vor": 860,
      "Ġpass": 861,
      "Ġdays": 862,
      "Ġmost": 863,
      "ory": 864,
      "Ġaround": 865,
      "Ġminut": 866,
      "Ġcle": 867,
      "rents": 868,
      "Ġletter": 869,
      "Ġfood": 870,
      "Ġcoming": 871,
      "Ġtrue": 872,
      "ue": 873,
      "Ġsor": 874,
      "Ġwar": 875,
      "Ġvis": 876,
      "Ġsec": 877,
      "Ġsorry": 878,
      "Ġanother": 879,
      "mm": 880,
      "Ġhimself": 881,
      "osed": 882,
      "Ġwin": 883,
      "air": 884,
      "Ġyourself": 885,
      "Ġdes": 886,
      "ater": 887,
      "Ġparents": 888,
      "ff": 889,
      "ince": 890,
      "Ġunt": 891,
      "Ġwhile": 892,
      "Ġsl": 893,
      "ond": 894,
      "Ġboy": 895,
      "Ġcook": 896,
      "Ġphone": 897,
      "ably": 898,
      "act": 899,
      "Ġbeaut": 900,
      "Ġsupp": 901,
      "Ġbooks": 902,
      "ph": 903,
      "Ġarri": 904,
      "side": 905,
      "Ġsat": 906,
      "ited": 907,
      "Ġthose": 908,
      "gether": 909,
      "Ġgetting": 910,
      "Ġrun": 911,
      "Ġtogether": 912,
      "Ġfamily": 913,
      "ream": 914,
      "Ġbecause": 915,
      "Ġpain": 916,
      "pr": 917,
      "ister": 918,
      "Ġwonder": 919,
      "Ġforget": 920,
      "cle": 921,
      "Ġpark": 922,
      "Ġenj": 923,
      "Ġnice": 924,
      "Ġearly": 925,
      "cer": 926,
      "ons": 927,
      "Ġkill": 928,
      "Ġuntil": 929,
      "Ġtired": 930,
      "Ġmonth": 931,
      "night": 932,
      "Ġche": 933,
      "be": 934,
      "Ġmov": 935,
      "Ġseems": 936,
      "ign": 937,
      "Ġsays": 938,
      "Ġcount": 939,
      "30": 940,
      "Ġprett": 941,
      "Ġbit": 942,
      "Ġmet": 943,
      "Ġprob": 944,
      "Ġparty": 945,
      "no": 946,
      "Ġrest": 947,
      "Ġpict": 948,
      "Ġclass": 949,
      "Ġpicture": 950,
      "iful": 951,
      "Ġprobably": 952,
      "ced": 953,
      "Ġmatter": 954,
      "Ġenglish": 955,
      "Ġimport": 956,
      "Ġfar": 957,
      "Ġey": 958,
      "Ġbeautiful": 959,
      "Ġthir": 960,
      "Ġchange": 961,
      "Ġ1": 962,
      "Ġjap": 963,
      "Ġgreat": 964,
      "Ġjapan": 965,
      "Ġdrive": 966,
      "Ġinv": 967,
      "up": 968,
      "Ġquite": 969,
      "Ġworking": 970,
      "Ġsister": 971,
      "Ġkid": 972,
      "Ġwindow": 973,
      "Ġenjoy": 974,
      "Ġbir": 975,
      "orm": 976,
      "Ġword": 977,
      "ize": 978,
      "Ġpolice": 979,
      "Ġap": 980,
      "Ġla": 981,
      "Ġpretty": 982,
      "Ġwrite": 983,
      "Ġact": 984,
      "Ġhun": 985,
      "Ġlau": 986,
      "Ġplace": 987,
      "Ġown": 988,
      "Ġwom": 989,
      "Ġanybody": 990,
      "Ġlight": 991,
      "Ġsk": 992,
      "Ġsurpr": 993,
      "Ġfavor": 994,
      "Ġdiffic": 995,
      "oke": 996,
      "ided": 997,
      "Ġneeds": 998,
      "ok": 999,
      "ank": 1000,
      "Ġlonger": 1001,
      "ens": 1002,
      "Ġquestions": 1003,
      "Ġeverybody": 1004,
      "Ġusually": 1005,
      "ci": 1006,
      "Ġsince": 1007,
      "Ġworld": 1008,
      "Ġshouldn": 1009,
      "Ġtruth": 1010,
      "ix": 1011,
      "Ġimportant": 1012,
      "Ġfish": 1013,
      "ock": 1014,
      "Ġeasy": 1015,
      "where": 1016,
      "Ġstarted": 1017,
      "Ġhours": 1018,
      "Ġonce": 1019,
      "Ġtrust": 1020,
      "ared": 1021,
      "Ġmus": 1022,
      "Ġdied": 1023,
      "ars": 1024,
      "Ġreal": 1025,
      "Ġsuch": 1026,
      "00": 1027,
      "Ġcr": 1028,
      "Ġaccident": 1029,
      "Ġdin": 1030,
      "Ġbeh": 1031,
      "Ġkiss": 1032,
      "Ġtrying": 1033,
      "sp": 1034,
      "Ġlaugh": 1035,
      "Ġforgot": 1036,
      "ier": 1037,
      "Ġtimes": 1038,
      "Ġwrit": 1039,
      "ud": 1040,
      "Ġwash": 1041,
      "Ġago": 1042,
      "Ġtonight": 1043,
      "hn": 1044,
      "ves": 1045,
      "used": 1046,
      "mit": 1047,
      "Ġjohn": 1048,
      "Ġglass": 1049,
      "Ġser": 1050,
      "Ġlives": 1051,
      "ote": 1052,
      "Ġdifficult": 1053,
      "ese": 1054,
      "Ġcalled": 1055,
      "Ġglad": 1056,
      "Ġmeeting": 1057,
      "Ġminutes": 1058,
      "Ġstand": 1059,
      "Ġend": 1060,
      "ision": 1061,
      "unch": 1062,
      "ret": 1063,
      "ork": 1064,
      "Ġwife": 1065,
      "Ġreading": 1066,
      "Ġhurt": 1067,
      "Ġchang": 1068,
      "Ġmean": 1069,
      "Ġcons": 1070,
      "ssible": 1071,
      "Ġfinished": 1072,
      "llow": 1073,
      "Ġgone": 1074,
      "Ġhair": 1075,
      "Ġdiffere": 1076,
      "Ġvisit": 1077,
      "Ġair": 1078,
      "app": 1079,
      "ile": 1080,
      "ating": 1081,
      "ason": 1082,
      "Ġdinner": 1083,
      "?\"": 1084,
      "Ġmom": 1085,
      "led": 1086,
      "Ġmusic": 1087,
      "Ġfast": 1088,
      "ub": 1089,
      "Ġtable": 1090,
      "Ġrel": 1091,
      "Ġmonday": 1092,
      "Ġsto": 1093,
      "Ġoffice": 1094,
      "Ġsnow": 1095,
      "Ġmyself": 1096,
      "Ġwearing": 1097,
      "Ġtv": 1098,
      "Ġdecided": 1099,
      "Ġclose": 1100,
      "ber": 1101,
      "Ġpres": 1102,
      "Ġfavorite": 1103,
      "Ġspend": 1104,
      "cess": 1105,
      "ord": 1106,
      "ors": 1107,
      "Ġstation": 1108,
      "Ġready": 1109,
      "oud": 1110,
      "Ġlang": 1111,
      "ush": 1112,
      "Ġlangu": 1113,
      "man": 1114,
      "Ġfire": 1115,
      "lic": 1116,
      "Ġwhe": 1117,
      "Ġsick": 1118,
      "Ġhead": 1119,
      "int": 1120,
      "Ġliving": 1121,
      "Ġconf": 1122,
      "icy": 1123,
      "ross": 1124,
      "Ġhat": 1125,
      "Ġhigh": 1126,
      "em": 1127,
      "olog": 1128,
      "orn": 1129,
      "ention": 1130,
      "Ġlater": 1131,
      "Ġsound": 1132,
      "Ġdi": 1133,
      "Ġmil": 1134,
      "anger": 1135,
      "Ġmovie": 1136,
      "Ġangry": 1137,
      "ple": 1138,
      "Ġmakes": 1139,
      "Ġlunch": 1140,
      "ger": 1141,
      "Ġdisc": 1142,
      "Ġfollow": 1143,
      "Ġdress": 1144,
      "Ġeyes": 1145,
      "Ġtre": 1146,
      "per": 1147,
      "ense": 1148,
      "Ġexplain": 1149,
      "Ġho": 1150,
      "Ġnu": 1151,
      "Ġplaying": 1152,
      "sh": 1153,
      "Ġret": 1154,
      "br": 1155,
      "Ġnear": 1156,
      "Ġmistake": 1157,
      "uck": 1158,
      "Ġclo": 1159,
      "Ġmine": 1160,
      "ert": 1161,
      "Ġcut": 1162,
      "Ġfell": 1163,
      "Ġate": 1164,
      "ions": 1165,
      "Ġsent": 1166,
      "Ġhands": 1167,
      "ient": 1168,
      "Ġpick": 1169,
      "itch": 1170,
      "Ġob": 1171,
      "ital": 1172,
      "ount": 1173,
      "Ġsmall": 1174,
      "lt": 1175,
      "Ġinterested": 1176,
      "ouble": 1177,
      "pid": 1178,
      "Ġfore": 1179,
      "Ġstory": 1180,
      "Ġsol": 1181,
      "Ġstupid": 1182,
      "Ġson": 1183,
      "Ġmaybe": 1184,
      "Ġeating": 1185,
      "Ġbroke": 1186,
      "Ġstudents": 1187,
      "reet": 1188,
      "ying": 1189,
      "Ġsong": 1190,
      "Ġhungry": 1191,
      "Ġok": 1192,
      "Ġhaving": 1193,
      "fast": 1194,
      "Ġsom": 1195,
      "Ġcry": 1196,
      "Ġinteresting": 1197,
      "less": 1198,
      "Ġexact": 1199,
      "Ġbreakfast": 1200,
      "Ġref": 1201,
      "Ġcho": 1202,
      "Ġcost": 1203,
      "Ġran": 1204,
      "Ġrich": 1205,
      "Ġbring": 1206,
      "Ġele": 1207,
      "Ġspe": 1208,
      "Ġclean": 1209,
      "Ġent": 1210,
      "Ġhelped": 1211,
      "Ġshoes": 1212,
      "Ġreason": 1213,
      "Ġfeeling": 1214,
      "Ġstreet": 1215,
      "ball": 1216,
      "Ġarrived": 1217,
      "Ġthirty": 1218,
      "Ġchanged": 1219,
      "use": 1220,
      "Ġturned": 1221,
      "Ġtall": 1222,
      "mmer": 1223,
      "Ġtown": 1224,
      "ash": 1225,
      "Ġred": 1226,
      "ract": 1227,
      "Ġhate": 1228,
      "Ġworry": 1229,
      "Ġwhether": 1230,
      "unk": 1231,
      "Ġquick": 1232,
      "Ġcloth": 1233,
      "Ġfelt": 1234,
      "Ġwatching": 1235,
      "ither": 1236,
      "ming": 1237,
      "Ġfree": 1238,
      "Ġthr": 1239,
      "Ġoutside": 1240,
      "work": 1241,
      "Ġflow": 1242,
      "Ġdanger": 1243,
      "Ġpromise": 1244,
      "Ġtele": 1245,
      "aper": 1246,
      "Ġlar": 1247,
      "als": 1248,
      "Ġchance": 1249,
      "Ġbegin": 1250,
      "Ġagree": 1251,
      "Ġcup": 1252,
      "vel": 1253,
      "Ġhasn": 1254,
      "Ġthrough": 1255,
      "Ġbicy": 1256,
      "Ġafterno": 1257,
      "Ġexactly": 1258,
      "ever": 1259,
      "cept": 1260,
      "Ġcoll": 1261,
      "Ġsurprised": 1262,
      "Ġtrouble": 1263,
      "Ġcity": 1264,
      "av": 1265,
      "Ġdro": 1266,
      "Ġafternoon": 1267,
      "een": 1268,
      "Ġtaking": 1269,
      "Ġcam": 1270,
      "alth": 1271,
      "Ġsaying": 1272,
      "ont": 1273,
      "Ġcomple": 1274,
      "Ġadvice": 1275,
      "ax": 1276,
      "ike": 1277,
      "Ġadd": 1278,
      "Ġnumber": 1279,
      "Ġclothes": 1280,
      "Ġhu": 1281,
      "Ġbecome": 1282,
      "Ġdisapp": 1283,
      "Ġtri": 1284,
      "Ġsal": 1285,
      "Ġsummer": 1286,
      "Ġneeded": 1287,
      "Ġbehind": 1288,
      "Ġdream": 1289,
      "Ġasleep": 1290,
      "Ġolder": 1291,
      "Ġlaw": 1292,
      "Ġgoes": 1293,
      "Ġwine": 1294,
      "Ġcountry": 1295,
      "Ġreg": 1296,
      "Ġmed": 1297,
      "Ġallow": 1298,
      "aughter": 1299,
      "Ġbirth": 1300,
      "pe": 1301,
      "etim": 1302,
      "Ġexam": 1303,
      "Ġstayed": 1304,
      "ized": 1305,
      "Ġgrand": 1306,
      "Ġdoll": 1307,
      "Ġbicycle": 1308,
      "cl": 1309,
      "Ġplanning": 1310,
      "ject": 1311,
      "Ġwall": 1312,
      "Ġsuc": 1313,
      "iet": 1314,
      "Ġsugg": 1315,
      "Ġcor": 1316,
      "Ġweather": 1317,
      "ended": 1318,
      "uter": 1319,
      "Ġcanad": 1320,
      "Ġspent": 1321,
      "Ġkilled": 1322,
      "Ġkids": 1323,
      "Ġwoman": 1324,
      "Ġpossible": 1325,
      "Ġmilk": 1326,
      "ned": 1327,
      "Ġbab": 1328,
      "ately": 1329,
      "Ġdark": 1330,
      "ative": 1331,
      "Ġtrave": 1332,
      "Ġtrans": 1333,
      "Ġwrote": 1334,
      "Ġmoment": 1335,
      "ience": 1336,
      "Ġpaid": 1337,
      "ison": 1338,
      "Ġcomputer": 1339,
      "Ġsometim": 1340,
      "ical": 1341,
      "Ġlose": 1342,
      "Ġexc": 1343,
      "Ġworks": 1344,
      "Ġbox": 1345,
      "Ġnews": 1346,
      "Ġhos": 1347,
      "Ġsun": 1348,
      "Ġhosp": 1349,
      "Ġtree": 1350,
      "Ġmen": 1351,
      "Ġlived": 1352,
      "Ġhurry": 1353,
      "Ġhospital": 1354,
      "ition": 1355,
      "Ġyours": 1356,
      "Ġweren": 1357,
      "zy": 1358,
      "Ġsuit": 1359,
      "ces": 1360,
      "Ġfront": 1361,
      "Ġmaking": 1362,
      "Ġdep": 1363,
      "Ġhotel": 1364,
      "Ġinter": 1365,
      "Ġbag": 1366,
      "iled": 1367,
      "fer": 1368,
      "Ġwalked": 1369,
      "Ġcaught": 1370,
      "Ġbeer": 1371,
      "Ġriver": 1372,
      "Ġdecision": 1373,
      "eric": 1374,
      "Ġhomework": 1375,
      "Ġsecret": 1376,
      "Ġblack": 1377,
      "Ġter": 1378,
      "raw": 1379,
      "Ġsmok": 1380,
      "airs": 1381,
      "fect": 1382,
      "Ġsign": 1383,
      "Ġpat": 1384,
      "Ġguys": 1385,
      "Ġweekend": 1386,
      "Ġcareful": 1387,
      "Ġfull": 1388,
      "Ġquiet": 1389,
      "Ġseemed": 1390,
      "Ġresp": 1391,
      "Ġdaughter": 1392,
      "Ġtenn": 1393,
      "rist": 1394,
      "Ġserious": 1395,
      "Ġbirthday": 1396,
      "Ġfive": 1397,
      "Ġass": 1398,
      "Ġtennis": 1399,
      "Ġthen": 1400,
      "Ġbuild": 1401,
      "Ġloves": 1402,
      "Ġstudying": 1403,
      "irt": 1404,
      "Ġthinks": 1405,
      "ages": 1406,
      "Ġameric": 1407,
      "iness": 1408,
      "Ġlie": 1409,
      "Ġabs": 1410,
      "Ġpresent": 1411,
      "Ġsomebody": 1412,
      "Ġworried": 1413,
      "Ġsupposed": 1414,
      "Ġpen": 1415,
      "Ġconsid": 1416,
      "Ġgame": 1417,
      "Ġknown": 1418,
      "bed": 1419,
      "Ġchrist": 1420,
      "Ġwhole": 1421,
      "Ġconcer": 1422,
      "Ġthinking": 1423,
      "aken": 1424,
      "Ġkey": 1425,
      "erv": 1426,
      "Ġless": 1427,
      "Ġart": 1428,
      "inted": 1429,
      "Ġcanadian": 1430,
      "by": 1431,
      "Ġbecame": 1432,
      "Ġrather": 1433,
      "Ġreturn": 1434,
      "aur": 1435,
      "port": 1436,
      "room": 1437,
      "Ġapolog": 1438,
      "Ġquickly": 1439,
      "ward": 1440,
      "Ġgi": 1441,
      "vers": 1442,
      "Ġdrunk": 1443,
      "dd": 1444,
      "Ġkept": 1445,
      "Ġswimming": 1446,
      "Ġcheck": 1447,
      "Ġdifferent": 1448,
      "Ġset": 1449,
      "uss": 1450,
      "Ġflo": 1451,
      "Ġcour": 1452,
      "ling": 1453,
      "Ġpie": 1454,
      "Ġcomplete": 1455,
      "ensive": 1456,
      "Ġsometimes": 1457,
      "eal": 1458,
      "Ġstopped": 1459,
      "ib": 1460,
      "Ġhor": 1461,
      "ries": 1462,
      "Ġdead": 1463,
      "ates": 1464,
      "Ġluck": 1465,
      "Ġshort": 1466,
      "ured": 1467,
      "Ġgrow": 1468,
      "Ġclosed": 1469,
      "Ġhealth": 1470,
      "arden": 1471,
      "mas": 1472,
      "Ġage": 1473,
      "pping": 1474,
      "ored": 1475,
      "Ġdisappo": 1476,
      "Ġproblems": 1477,
      "any": 1478,
      "Ġju": 1479,
      "Ġgarden": 1480,
      "ott": 1481,
      "Ġsell": 1482,
      "ular": 1483,
      "Ġcomplain": 1484,
      "Ġeaten": 1485,
      "Ġtic": 1486,
      "Ġgets": 1487,
      "Ġguess": 1488,
      "Ġlanguage": 1489,
      "ased": 1490,
      "Ġcatch": 1491,
      "Ġchristmas": 1492,
      "Ġlock": 1493,
      "Ġprefer": 1494,
      "Ġrestaur": 1495,
      "Ġrestaurant": 1496,
      "Ġegg": 1497,
      "mon": 1498,
      "Ġalong": 1499,
      "Ġface": 1500,
      "Ġve": 1501,
      "Ġtouch": 1502,
      "Ġstrong": 1503,
      "Ġborn": 1504,
      "lfriend": 1505,
      "Ġtalked": 1506,
      "Ġpian": 1507,
      "Ġseat": 1508,
      "Ġbaby": 1509,
      "Ġtransl": 1510,
      "Ġhit": 1511,
      "Ġliked": 1512,
      "Ġhalf": 1513,
      "Ġstrange": 1514,
      "nce": 1515,
      "rect": 1516,
      "Ġinc": 1517,
      "Ġcake": 1518,
      "Ġjapanese": 1519,
      "Ġfall": 1520,
      "Ġcomes": 1521,
      "Ġswe": 1522,
      "Ġthanks": 1523,
      "Ġdeath": 1524,
      "Ġflowers": 1525,
      "Ġbath": 1526,
      "ressed": 1527,
      "Ġgirlfriend": 1528,
      "Ġpret": 1529,
      "Ġfoot": 1530,
      "Ġfight": 1531,
      "Ġleg": 1532,
      "Ġdollars": 1533,
      "Ġsuggest": 1534,
      "get": 1535,
      "Ġloved": 1536,
      "Ġbegan": 1537,
      "ual": 1538,
      "Ġglasses": 1539,
      "Ġsmoking": 1540,
      "phone": 1541,
      "Ġlarge": 1542,
      "Ġmess": 1543,
      "Ġscared": 1544,
      "ead": 1545,
      "Ġarm": 1546,
      "Ġfloor": 1547,
      "Ġcompany": 1548,
      "Ġevening": 1549,
      "Ġmove": 1550,
      "Ġexpensive": 1551,
      "Ġagainst": 1552,
      "Ġteam": 1553,
      "Ġsend": 1554,
      "Ġsitting": 1555,
      "Ġsim": 1556,
      "Ġfix": 1557,
      "Ġlibr": 1558,
      "Ġra": 1559,
      "Ġleast": 1560,
      "aged": 1561,
      "du": 1562,
      "Ġeither": 1563,
      "Ġshut": 1564,
      "uation": 1565,
      "Ġspeaks": 1566,
      "Ġopin": 1567,
      "Ġmistakes": 1568,
      "Ġimm": 1569,
      "Ġbott": 1570,
      "Ġcol": 1571,
      "Ġworth": 1572,
      "Ġtelling": 1573,
      "Ġorder": 1574,
      "Ġmissed": 1575,
      "rew": 1576,
      "iction": 1577,
      "Ġopened": 1578,
      "Ġ20": 1579,
      "Ġlibrary": 1580,
      "Ġdet": 1581,
      "Ġneigh": 1582,
      "Ġreport": 1583,
      "Ġpromised": 1584,
      "Ġneighb": 1585,
      "ely": 1586,
      "Ġroad": 1587,
      "Ġpop": 1588,
      "Ġspeaking": 1589,
      "Ġbuilding": 1590,
      "Ġdeal": 1591,
      "ober": 1592,
      "Ġdie": 1593,
      "Ġheart": 1594,
      "Ġoct": 1595,
      "Ġtrip": 1596,
      "Ġpiano": 1597,
      "dered": 1598,
      "Ġhid": 1599,
      "Ġpaper": 1600,
      "idge": 1601,
      "Ġoctober": 1602,
      "Ġbeach": 1603,
      "Ġinf": 1604,
      "ny": 1605,
      "Ġtax": 1606,
      "Ġinst": 1607,
      "Ġdogs": 1608,
      "Ġhardly": 1609,
      "Ġlying": 1610,
      "Ġprison": 1611,
      "ertain": 1612,
      "fort": 1613,
      "Ġsou": 1614,
      "ently": 1615,
      "Ġsold": 1616,
      "Ġworked": 1617,
      "Ġplayed": 1618,
      "Ġsecond": 1619,
      "Ġapart": 1620,
      "Ġsafe": 1621,
      "Ġmedic": 1622,
      "Ġproud": 1623,
      "Ġbusiness": 1624,
      "Ġattention": 1625,
      "Ġcap": 1626,
      "Ġwarm": 1627,
      "Ġdiscuss": 1628,
      "Ġill": 1629,
      "rell": 1630,
      "Ġemp": 1631,
      "not": 1632,
      "ween": 1633,
      "Ġsense": 1634,
      "era": 1635,
      "Ġheav": 1636,
      "Ġumb": 1637,
      "Ġbetween": 1638,
      "Ġsituation": 1639,
      "Ġumbrell": 1640,
      "Ġquit": 1641,
      "Ġev": 1642,
      "Ġearth": 1643,
      "ully": 1644,
      "Ġcorrect": 1645,
      "oub": 1646,
      "Ġext": 1647,
      "Ġtest": 1648,
      "Ġcertain": 1649,
      "Ġstore": 1650,
      "Ġconv": 1651,
      "Ġslow": 1652,
      "Ġhold": 1653,
      "Ġsix": 1654,
      "Ġsmell": 1655,
      "Ġdriver": 1656,
      "az": 1657,
      "Ġsusp": 1658,
      "Ġbrought": 1659,
      "iced": 1660,
      "Ġguy": 1661,
      "fully": 1662,
      "Ġgif": 1663,
      "Ġallowed": 1664,
      "Ġumbrella": 1665,
      "Ġinside": 1666,
      "amed": 1667,
      "Ġice": 1668,
      "Ġpast": 1669,
      "ime": 1670,
      "Ġvo": 1671,
      "Ġbird": 1672,
      "ountain": 1673,
      "cy": 1674,
      "ator": 1675,
      "Ġchar": 1676,
      "Ġopinion": 1677,
      "ness": 1678,
      "Ġdiction": 1679,
      "Ġcra": 1680,
      "Ġfine": 1681,
      "Ġwomen": 1682,
      "Ġind": 1683,
      "Ġsomewhere": 1684,
      "Ġaff": 1685,
      "Ġguit": 1686,
      "Ġlawy": 1687,
      "Ġbill": 1688,
      "Ġkitch": 1689,
      "Ġsub": 1690,
      "Ġanim": 1691,
      "Ġtra": 1692,
      "Ġacross": 1693,
      "Ġkitchen": 1694,
      "Ġes": 1695,
      "Ġdan": 1696,
      "Ġship": 1697,
      "Ġdangerous": 1698,
      "Ġdist": 1699,
      "Ġlikely": 1700,
      "Ġfinally": 1701,
      "Ġca": 1702,
      "Ġsever": 1703,
      "Ġothers": 1704,
      "Ġdisappointed": 1705,
      "Ġav": 1706,
      "Ġhon": 1707,
      "ations": 1708,
      "Ġseveral": 1709,
      "Ġbread": 1710,
      "Ġbank": 1711,
      "Ġdesk": 1712,
      "band": 1713,
      "Ġdoub": 1714,
      "Ġnotice": 1715,
      "Ġexper": 1716,
      "Ġtakes": 1717,
      "Ġsad": 1718,
      "Ġcross": 1719,
      "Ġsund": 1720,
      "Ġwaited": 1721,
      "Ġpoor": 1722,
      "Ġwritten": 1723,
      "Ġhum": 1724,
      "Ġins": 1725,
      "Ġtemp": 1726,
      "Ġadmit": 1727,
      "Ġgirls": 1728,
      "ived": 1729,
      "Ġnerv": 1730,
      "Ġlearned": 1731,
      "Ġperfect": 1732,
      "Ġnervous": 1733,
      "rest": 1734,
      "Ġpur": 1735,
      "Ġwhite": 1736,
      "Ġits": 1737,
      "sel": 1738,
      "Ġchoice": 1739,
      "Ġlend": 1740,
      "Ġfre": 1741,
      "Ġrece": 1742,
      "usband": 1743,
      "Ġguitar": 1744,
      "Ġspoke": 1745,
      "Ġpoint": 1746,
      "Ġmonths": 1747,
      "io": 1748,
      "Ġdance": 1749,
      "Ġapple": 1750,
      "Ġcouple": 1751,
      "Ġeggs": 1752,
      "Ġleaving": 1753,
      "Ġball": 1754,
      "Ġgen": 1755,
      "Ġblue": 1756,
      "Ġterri": 1757,
      "way": 1758,
      "Ġsil": 1759,
      "Ġprep": 1760,
      "Ġdictionary": 1761,
      "Ġmountain": 1762,
      "erg": 1763,
      "Ġcamera": 1764,
      "Ġcompletely": 1765,
      "so": 1766,
      "Ġtast": 1767,
      "aster": 1768,
      "Ġelect": 1769,
      "Ġought": 1770,
      "Ġweight": 1771,
      "Ġdrinking": 1772,
      "Ġinvited": 1773,
      "Ġtravel": 1774,
      "iv": 1775,
      "Ġmad": 1776,
      "Ġcannot": 1777,
      "Ġdef": 1778,
      "Ġdriving": 1779,
      "ken": 1780,
      "Ġpri": 1781,
      "ants": 1782,
      "Ġcarry": 1783,
      "ffic": 1784,
      "Ġconsider": 1785,
      "Ġthrow": 1786,
      "Ġside": 1787,
      "Ġsudd": 1788,
      "Ġvac": 1789,
      "Ġsudden": 1790,
      "Ġhusband": 1791,
      "Ġborrow": 1792,
      "Ġcard": 1793,
      "Ġwhose": 1794,
      "Ġweeks": 1795,
      "Ġlawyer": 1796,
      "Ġtaken": 1797,
      "Ġim": 1798,
      "Ġclim": 1799,
      "Ġhorse": 1800,
      "Ġveget": 1801,
      "Ġmedicine": 1802,
      "Ġcal": 1803,
      "Ġsmoke": 1804,
      "Ġcolle": 1805,
      "selves": 1806,
      "Ġpost": 1807,
      "ics": 1808,
      "ames": 1809,
      "Ġasking": 1810,
      "Ġsleeping": 1811,
      "lier": 1812,
      "Ġrid": 1813,
      "ru": 1814,
      "Ġbase": 1815,
      "Ġris": 1816,
      "Ġcoat": 1817,
      "Ġbelong": 1818,
      "Ġshopping": 1819,
      "Ġcollege": 1820,
      "ined": 1821,
      "isf": 1822,
      "Ġraining": 1823,
      "Ġmot": 1824,
      "oose": 1825,
      "Ġshirt": 1826,
      "Ġphot": 1827,
      "Ġir": 1828,
      "enty": 1829,
      "Ġcrying": 1830,
      "lc": 1831,
      "Ġru": 1832,
      "Ġbroken": 1833,
      "Ġclear": 1834,
      "Ġcrazy": 1835,
      "Ġbri": 1836,
      "Ġwelc": 1837,
      "acks": 1838,
      "Ġplans": 1839,
      "Ġyounger": 1840,
      "Ġlistening": 1841,
      "cial": 1842,
      "ding": 1843,
      "ove": 1844,
      "Ġtop": 1845,
      "Ġnoise": 1846,
      "Ġhappens": 1847,
      "ins": 1848,
      "Ġpub": 1849,
      "Ġnecess": 1850,
      "Ġboys": 1851,
      "Ġexpected": 1852,
      "Ġfour": 1853,
      "Ġboss": 1854,
      "Ġprot": 1855,
      "Ġrunning": 1856,
      "Ġpictures": 1857,
      "Ġunl": 1858,
      "Ġarrive": 1859,
      "cent": 1860,
      "Ġsle": 1861,
      "Ġdish": 1862,
      "edi": 1863,
      "Ġanywhere": 1864,
      "Ġearlier": 1865,
      "Ġimag": 1866,
      "land": 1867,
      "amp": 1868,
      "Ġoffer": 1869,
      "Ġactually": 1870,
      "Ġpatient": 1871,
      "Ġpiece": 1872,
      "uit": 1873,
      "uring": 1874,
      "ument": 1875,
      "Ġshowed": 1876,
      "Ġfamous": 1877,
      "Ġminute": 1878,
      "Ġwords": 1879,
      "Ġnoticed": 1880,
      "Ġwriting": 1881,
      "Ġty": 1882,
      "Ġfig": 1883,
      "Ġgra": 1884,
      "Ġnovel": 1885,
      "Ġsuccess": 1886,
      "Ġkeys": 1887,
      "oken": 1888,
      "Ġkissed": 1889,
      "Ġafford": 1890,
      "Ġann": 1891,
      "Ġtelephone": 1892,
      "Ġfool": 1893,
      "Ġblame": 1894,
      "Ġimmedi": 1895,
      "ky": 1896,
      "Ġcats": 1897,
      "Ġpassed": 1898,
      "Ġapologize": 1899,
      "gn": 1900,
      "Ġbar": 1901,
      "Ġcur": 1902,
      "oof": 1903,
      "ogn": 1904,
      "Ġrecogn": 1905,
      "Ġsolve": 1906,
      "Ġcase": 1907,
      "Ġfut": 1908,
      "Ġfired": 1909,
      "Ġmeat": 1910,
      "Ġmovies": 1911,
      "ife": 1912,
      "Ġwhatever": 1913,
      "Ġticket": 1914,
      "Ġtie": 1915,
      "Ġhadn": 1916,
      "Ġfair": 1917,
      "Ġsmart": 1918,
      "Ġesc": 1919,
      "Ġdraw": 1920,
      "Ġchair": 1921,
      "ilt": 1922,
      "Ġagre": 1923,
      "Ġarrest": 1924,
      "Ġfunny": 1925,
      "ature": 1926,
      "set": 1927,
      "Ġz": 1928,
      "Ġring": 1929,
      "Ġfeed": 1930,
      "Ġlaughed": 1931,
      "Ġmid": 1932,
      "Ġlow": 1933,
      "Ġrad": 1934,
      "Ġexpl": 1935,
      "Ġgiven": 1936,
      "Ġtraffic": 1937,
      "ric": 1938,
      "ots": 1939,
      "Ġalso": 1940,
      "Ġsave": 1941,
      "Ġaccept": 1942,
      "Ġwinter": 1943,
      "clock": 1944,
      "Ġconcert": 1945,
      "Ġimmediately": 1946,
      "Ġjok": 1947,
      "Ġtaxi": 1948,
      "pl": 1949,
      "oned": 1950,
      "Ġprice": 1951,
      "Ġplane": 1952,
      "izz": 1953,
      "Ġappro": 1954,
      "Ġdifference": 1955,
      "Ġfuture": 1956,
      "vious": 1957,
      "Ġduring": 1958,
      "arm": 1959,
      "Ġalive": 1960,
      "iling": 1961,
      "arely": 1962,
      "Ġsatisf": 1963,
      "Ġfishing": 1964,
      "cing": 1965,
      "Ġrul": 1966,
      "ndred": 1967,
      "Ġjoke": 1968,
      "Ġhundred": 1969,
      "Ġgift": 1970,
      "Ġwelcome": 1971,
      "gar": 1972,
      "oring": 1973,
      "ceed": 1974,
      "Ġworse": 1975,
      "Ġcolor": 1976,
      "Ġheavy": 1977,
      "Ġdoubt": 1978,
      "friend": 1979,
      "Ġem": 1980,
      "Ġstaying": 1981,
      "Ġhonest": 1982,
      "Ġbas": 1983,
      "Ġpract": 1984,
      "Ġeasily": 1985,
      "Ġreach": 1986,
      "ented": 1987,
      "road": 1988,
      "Ġapples": 1989,
      "Ġowe": 1990,
      "Ġairport": 1991,
      "Ġlanguages": 1992,
      "Ġbike": 1993,
      "Ġpizz": 1994,
      "Ġchoose": 1995,
      "urch": 1996,
      "aps": 1997,
      "col": 1998,
      "Ġden": 1999,
      "Ġinj": 2000,
      "vision": 2001,
      "Ġfly": 2002,
      "Ġfill": 2003,
      "Ġgun": 2004,
      "Ġmach": 2005,
      "Ġhappening": 2006,
      "Ġapartment": 2007,
      "Ġnecessary": 2008,
      "Ġmood": 2009,
      "Ġchurch": 2010,
      "Ġyell": 2011,
      "reci": 2012,
      "Ġsand": 2013,
      "Ġstep": 2014,
      "Ġcrow": 2015,
      "Ġwalking": 2016,
      "Ġgrad": 2017,
      "teen": 2018,
      "Ġmessage": 2019,
      "Ġmag": 2020,
      "ices": 2021,
      "Ġspoken": 2022,
      "Ġfruit": 2023,
      "Ġinform": 2024,
      "Ġtaught": 2025,
      "Ġlad": 2026,
      "Ġshop": 2027,
      "Ġopt": 2028,
      "Ġsinging": 2029,
      "Ġpar": 2030,
      "Ġpot": 2031,
      "Ġlied": 2032,
      "Ġappreci": 2033,
      "Ġdeser": 2034,
      "Ġtelevision": 2035,
      "Ġexcuse": 2036,
      "Ġseeing": 2037,
      "Ġsqu": 2038,
      "Ġshot": 2039,
      "Ġdeep": 2040,
      "olen": 2041,
      "Ġarg": 2042,
      "Ġharder": 2043,
      "Ġaddress": 2044,
      "Ġagreed": 2045,
      "Ġma": 2046,
      "Ġsooner": 2047,
      "Ġ19": 2048,
      "Ġrules": 2049,
      "Ġpizza": 2050,
      "father": 2051,
      "Ġign": 2052,
      "Ġbored": 2053,
      "Ġabroad": 2054,
      "olut": 2055,
      "Ġfault": 2056,
      "Ġplayer": 2057,
      "Ġescap": 2058,
      "ech": 2059,
      "Ġce": 2060,
      "Ġstuff": 2061,
      "Ġbreath": 2062,
      "Ġsounds": 2063,
      "Ġsuitc": 2064,
      "Ġneighbor": 2065,
      "eth": 2066,
      "ug": 2067,
      "Ġthough": 2068,
      "Ġwood": 2069,
      "Ġchin": 2070,
      "Ġnewsp": 2071,
      "Ġforgotten": 2072,
      "Ġvoice": 2073,
      "ey": 2074,
      "Ġstolen": 2075,
      "Ġalice": 2076,
      "Ġsoc": 2077,
      "Ġlucky": 2078,
      "Ġsuddenly": 2079,
      "Ġbridge": 2080,
      "bit": 2081,
      "Ġtoky": 2082,
      "ato": 2083,
      "kets": 2084,
      "Ġknife": 2085,
      "Ġhelping": 2086,
      "Ġbother": 2087,
      "Ġuni": 2088,
      "Ġspeech": 2089,
      "ring": 2090,
      "Ġwake": 2091,
      "Ġsugar": 2092,
      "ished": 2093,
      "Ġbeginning": 2094,
      "Ġprotect": 2095,
      "Ġslept": 2096,
      "Ġtokyo": 2097,
      "ial": 2098,
      "Ġpack": 2099,
      "Ġmeans": 2100,
      "Ġstanding": 2101,
      "Ġhide": 2102,
      "Ġbra": 2103,
      "Ġopp": 2104,
      "Ġeight": 2105,
      "ustom": 2106,
      "Ġexcept": 2107,
      "Ġcontin": 2108,
      "Ġsky": 2109,
      "Ġsurprise": 2110,
      "Ġobvious": 2111,
      "tain": 2112,
      "Ġhang": 2113,
      "stairs": 2114,
      "Ġforward": 2115,
      "Ġchea": 2116,
      "Ġboyfriend": 2117,
      "Ġradio": 2118,
      "Ġsoccer": 2119,
      "dle": 2120,
      "irty": 2121,
      "iew": 2122,
      "Ġsucceed": 2123,
      "Ġanimals": 2124,
      "Ġsunday": 2125,
      "Ġvacation": 2126,
      "Ġsmile": 2127,
      "Ġpartic": 2128,
      "Ġdel": 2129,
      "Ġpress": 2130,
      "Ġtrees": 2131,
      "Ġjump": 2132,
      "co": 2133,
      "Ġmis": 2134,
      "Ġbur": 2135,
      "ened": 2136,
      "Ġgar": 2137,
      "Ġmachine": 2138,
      "mer": 2139,
      "Ġpull": 2140,
      "ained": 2141,
      "ction": 2142,
      "Ġride": 2143,
      "Ġcarefully": 2144,
      "Ġcooking": 2145,
      "Ġwindows": 2146,
      "iday": 2147,
      "Ġwaste": 2148,
      "ists": 2149,
      "Ġeats": 2150,
      "Ġuncle": 2151,
      "Ġshower": 2152,
      "Ġlearning": 2153,
      "Ġbottle": 2154,
      "Ġdetail": 2155,
      "ossible": 2156,
      "Ġupset": 2157,
      "Ġrecently": 2158,
      "Ġlaughing": 2159,
      "miss": 2160,
      "Ġsuper": 2161,
      "Ġcond": 2162,
      "Ġimpossible": 2163,
      "Ġwatched": 2164,
      "Ġeye": 2165,
      "Ġarrested": 2166,
      "cts": 2167,
      "Ġrice": 2168,
      "Ġvisited": 2169,
      "Ġforeign": 2170,
      "Ġempty": 2171,
      "gr": 2172,
      "Ġstar": 2173,
      "Ġmoved": 2174,
      "000": 2175,
      "ton": 2176,
      "Ġstood": 2177,
      "Ġval": 2178,
      "ache": 2179,
      "ude": 2180,
      "Ġavo": 2181,
      "Ġwed": 2182,
      "Ġline": 2183,
      "Ġwilling": 2184,
      "Ġtranslate": 2185,
      "cri": 2186,
      "uri": 2187,
      "Ġrent": 2188,
      "Ġtwice": 2189,
      "Ġblood": 2190,
      "Ġpretend": 2191,
      "cket": 2192,
      "Ġcommon": 2193,
      "ushed": 2194,
      "Ġpopular": 2195,
      "Ġsatisfied": 2196,
      "Ġtill": 2197,
      "Ġsy": 2198,
      "Ġcop": 2199,
      "Ġenem": 2200,
      "rem": 2201,
      "Ġland": 2202,
      "Ġpun": 2203,
      "Ġseven": 2204,
      "istic": 2205,
      "aked": 2206,
      "Ġclos": 2207,
      "Ġvill": 2208,
      "Ġfailed": 2209,
      "ables": 2210,
      "Ġlos": 2211,
      "itely": 2212,
      "Ġmur": 2213,
      "Ġfail": 2214,
      "Ġanswered": 2215,
      "Ġgener": 2216,
      "Ġbaseball": 2217,
      "Ġrisk": 2218,
      "asure": 2219,
      "ume": 2220,
      "gged": 2221,
      "Ġgreen": 2222,
      "Ġgrandfather": 2223,
      "mission": 2224,
      "Ġburn": 2225,
      "Ġcow": 2226,
      "Ġfit": 2227,
      "Ġjacks": 2228,
      "Ġprof": 2229,
      "Ġdecide": 2230,
      "Ġwallet": 2231,
      "Ġterrible": 2232,
      "cil": 2233,
      "ination": 2234,
      "Ġcream": 2235,
      "ults": 2236,
      "Ġjoin": 2237,
      "Ġwears": 2238,
      "Ġconfused": 2239,
      "cc": 2240,
      "ef": 2241,
      "mar": 2242,
      "Ġdad": 2243,
      "Ġmail": 2244,
      "Ġintro": 2245,
      "Ġbuilt": 2246,
      "Ġadvised": 2247,
      "Ġdepend": 2248,
      "Ġappreciate": 2249,
      "head": 2250,
      "Ġ5": 2251,
      "Ġattack": 2252,
      "Ġcontact": 2253,
      "Ġed": 2254,
      "Ġcent": 2255,
      "ility": 2256,
      "Ġremind": 2257,
      "Ġtruck": 2258,
      "Ġgrew": 2259,
      "Ġenjoyed": 2260,
      "Ġlights": 2261,
      "Ġpicked": 2262,
      "fortable": 2263,
      "Ġlake": 2264,
      "Ġmem": 2265,
      "Ġsport": 2266,
      "Ġdelic": 2267,
      "Ġdropped": 2268,
      "Ġrespect": 2269,
      "pose": 2270,
      "Ġnor": 2271,
      "ldom": 2272,
      "Ġmeant": 2273,
      "Ġseldom": 2274,
      "Ġvol": 2275,
      "Ġbrothers": 2276,
      "Ġdressed": 2277,
      "Ġchocol": 2278,
      "Ġabsolut": 2279,
      "Ġextrem": 2280,
      "haps": 2281,
      "rol": 2282,
      "une": 2283,
      "Ġgoodby": 2284,
      "Ġsurv": 2285,
      "Ġstole": 2286,
      "Ġrefused": 2287,
      "Ġamerica": 2288,
      "Ġreceived": 2289,
      "med": 2290,
      "rit": 2291,
      "Ġplays": 2292,
      "Ġvi": 2293,
      "Ġperhaps": 2294,
      "Ġexpecting": 2295,
      "Ġpublic": 2296,
      "Ġhol": 2297,
      "Ġben": 2298,
      "Ġrequ": 2299,
      "ief": 2300,
      "Ġdrank": 2301,
      "Ġpainting": 2302,
      "Ġpea": 2303,
      "omm": 2304,
      "ities": 2305,
      "Ġteeth": 2306,
      "Ġimpro": 2307,
      "Ġimpressed": 2308,
      "Ġsupport": 2309,
      "Ġspecial": 2310,
      "Ġsoup": 2311,
      "Ġfigure": 2312,
      "Ġdate": 2313,
      "Ġlone": 2314,
      "Ġloud": 2315,
      "Ġeu": 2316,
      "Ġsea": 2317,
      "intment": 2318,
      "Ġdefin": 2319,
      "Ġdishes": 2320,
      "hood": 2321,
      "Ġmap": 2322,
      "Ġfat": 2323,
      "Ġappo": 2324,
      "Ġtaller": 2325,
      "ps": 2326,
      "Ġnorm": 2327,
      "Ġleaves": 2328,
      "Ġsuspect": 2329,
      "Ġexperience": 2330,
      "Ġlonely": 2331,
      "Ġger": 2332,
      "Ġgas": 2333,
      "uts": 2334,
      "Ġchess": 2335,
      "Ġgotten": 2336,
      "mbers": 2337,
      "Ġregret": 2338,
      "Ġfootball": 2339,
      "Ġvillage": 2340,
      "ued": 2341,
      "Ġthous": 2342,
      "Ġfif": 2343,
      "Ġwashing": 2344,
      "Ġgoodbye": 2345,
      "Ġthousand": 2346,
      "rel": 2347,
      "Ġfeet": 2348,
      "Ġhates": 2349,
      "Ġsimple": 2350,
      "Ġwedding": 2351,
      "ze": 2352,
      "Ġmath": 2353,
      "Ġemb": 2354,
      "Ġgolf": 2355,
      "Ġintend": 2356,
      "Ġappear": 2357,
      "Ġdrinks": 2358,
      "Ġpencil": 2359,
      "Ġinformation": 2360,
      "Ġeuro": 2361,
      "Ġcars": 2362,
      "Ġbasket": 2363,
      "Ġinjured": 2364,
      "ror": 2365,
      "cks": 2366,
      "Ġrecomm": 2367,
      "Ġnewspaper": 2368,
      "Ġjackson": 2369,
      "Ġabsolutely": 2370,
      "cument": 2371,
      "Ġthrew": 2372,
      "Ġdocument": 2373,
      "omp": 2374,
      "Ġpoem": 2375,
      "Ġextremely": 2376,
      "Ġdefinitely": 2377,
      "con": 2378,
      "Ġdire": 2379,
      "Ġfing": 2380,
      "idence": 2381,
      "Ġstorm": 2382,
      "ution": 2383,
      "Ġski": 2384,
      "Ġavoid": 2385,
      "book": 2386,
      "ior": 2387,
      "Ġdut": 2388,
      "Ġocc": 2389,
      "Ġmarry": 2390,
      "Ġpleased": 2391,
      "Ġlead": 2392,
      "Ġpolit": 2393,
      "Ġattend": 2394,
      "Ġsweet": 2395,
      "Ġslowly": 2396,
      "Ġunivers": 2397,
      "Ġchocolate": 2398,
      "Ġdirty": 2399,
      "Ġmill": 2400,
      "arch": 2401,
      "own": 2402,
      "ower": 2403,
      "Ġsisters": 2404,
      "Ġgrandm": 2405,
      "Ġcourse": 2406,
      "Ġdelicious": 2407,
      "Ġneither": 2408,
      "Ġsuff": 2409,
      "Ġimpress": 2410,
      "Ġmissing": 2411,
      "Ġsinger": 2412,
      "Ġrealized": 2413,
      "Ġmou": 2414,
      "Ġfaster": 2415,
      "Ġroof": 2416,
      "Ġawake": 2417,
      "Ġpainted": 2418,
      "Ġfresh": 2419,
      "time": 2420,
      "inced": 2421,
      "Ġchick": 2422,
      "Ġscream": 2423,
      "Ġpermission": 2424,
      "Ġfeelings": 2425,
      "Ġrespons": 2426,
      "Ġ30": 2427,
      "Ġpu": 2428,
      "Ġnone": 2429,
      "Ġbeat": 2430,
      "Ġherself": 2431,
      "Ġadm": 2432,
      "Ġposs": 2433,
      "Ġcourage": 2434,
      "Ġvegetables": 2435,
      "Ġcrowd": 2436,
      "Ġintrodu": 2437,
      "Ġviol": 2438,
      "ee": 2439,
      "Ġtot": 2440,
      "Ġtow": 2441,
      "Ġmuse": 2442,
      "Ġwet": 2443,
      "Ġjud": 2444,
      "Ġsaved": 2445,
      "Ġtreat": 2446,
      "Ġdrove": 2447,
      "Ġreturned": 2448,
      "Ġpretended": 2449,
      "Ġpurpose": 2450,
      "Ġgerman": 2451,
      "Ġmuseum": 2452,
      "Ġsight": 2453,
      "Ġcool": 2454,
      "ches": 2455,
      "Ġhist": 2456,
      "Ġmoon": 2457,
      "ager": 2458,
      "Ġfollowed": 2459,
      "Ġsentence": 2460,
      "Ġhiding": 2461,
      "bs": 2462,
      "Ġamb": 2463,
      "Ġwore": 2464,
      "Ġaware": 2465,
      "Ġforgive": 2466,
      "Ġentire": 2467,
      "Ġannoy": 2468,
      "Ġrecognize": 2469,
      "Ġuniversity": 2470,
      "ises": 2471,
      "Ġisland": 2472,
      "Ġinno": 2473,
      "oted": 2474,
      "Ġclock": 2475,
      "Ġcute": 2476,
      "Ġ201": 2477,
      "ik": 2478,
      "Ġwoke": 2479,
      "att": 2480,
      "raph": 2481,
      "Ġflu": 2482,
      "Ġsingle": 2483,
      "Ġpaint": 2484,
      "Ġcamp": 2485,
      "Ġbirds": 2486,
      "Ġpeace": 2487,
      "eas": 2488,
      "loy": 2489,
      "reat": 2490,
      "Ġgold": 2491,
      "Ġself": 2492,
      "Ġpair": 2493,
      "Ġletters": 2494,
      "Ġamerican": 2495,
      "Ġpotato": 2496,
      "ged": 2497,
      "Ġsteal": 2498,
      "rent": 2499,
      "Ġcalling": 2500,
      "Ġlocked": 2501,
      "Ġgradu": 2502,
      "Ġmouth": 2503,
      "od": 2504,
      "Ġaut": 2505,
      "Ġban": 2506,
      "eared": 2507,
      "Ġworst": 2508,
      "Ġseriously": 2509,
      "Ġevent": 2510,
      "Ġsubject": 2511,
      "Ġdancing": 2512,
      "urious": 2513,
      "Ġduty": 2514,
      "Ġmention": 2515,
      "ery": 2516,
      "Ġtalks": 2517,
      "ealous": 2518,
      "Ġexplan": 2519,
      "Ġjokes": 2520,
      "Ġappointment": 2521,
      "arr": 2522,
      "Ġfort": 2523,
      "Ġjealous": 2524,
      "Ġplant": 2525,
      "Ġwashed": 2526,
      "Ġcaused": 2527,
      "Ġcalm": 2528,
      "Ġeurope": 2529,
      "ayed": 2530,
      "ili": 2531,
      "Ġconst": 2532,
      "Ġtemper": 2533,
      "Ġyen": 2534,
      "ane": 2535,
      "Ġspring": 2536,
      "Ġstarting": 2537,
      "acket": 2538,
      "Ġcookies": 2539,
      "Ġabsent": 2540,
      "Ġconvinced": 2541,
      "Ġgrandmother": 2542,
      "gan": 2543,
      "light": 2544,
      "ines": 2545,
      "Ġcustom": 2546,
      "Ġnative": 2547,
      "Ġvote": 2548,
      "ounded": 2549,
      "Ġordered": 2550,
      "Ġpassport": 2551,
      "Ġcheese": 2552,
      "Ġinvite": 2553,
      "Ġrealize": 2554,
      "ering": 2555,
      "Ġfil": 2556,
      "Ġgod": 2557,
      "ards": 2558,
      "Ġcla": 2559,
      "Ġsmiled": 2560,
      "Ġhoping": 2561,
      "Ġtal": 2562,
      "Ġste": 2563,
      "Ġnote": 2564,
      "Ġbutton": 2565,
      "Ġoffic": 2566,
      "ograph": 2567,
      "Ġcontrol": 2568,
      "Ġsalt": 2569,
      "Ġlegs": 2570,
      "Ġ2013": 2571,
      "gest": 2572,
      "ugg": 2573,
      "wi": 2574,
      "ically": 2575,
      "Ġdem": 2576,
      "Ġbutter": 2577,
      "Ġoffered": 2578,
      "Ġstudied": 2579,
      "Ġexplanation": 2580,
      "Ġbear": 2581,
      "Ġshy": 2582,
      "Ġprodu": 2583,
      "Ġwondered": 2584,
      "Ġdivor": 2585,
      "Ġnearly": 2586,
      "Ġsongs": 2587,
      "velop": 2588,
      "Ġsuggested": 2589,
      "Ġsuitcase": 2590,
      "inc": 2591,
      "Ġlic": 2592,
      "Ġshall": 2593,
      "Ġloc": 2594,
      "Ġcomm": 2595,
      "Ġlots": 2596,
      "Ġamaz": 2597,
      "Ġunderstood": 2598,
      "Ġengine": 2599,
      "Ġthird": 2600,
      "Ġenemy": 2601,
      "aw": 2602,
      "look": 2603,
      "oon": 2604,
      "ases": 2605,
      "ters": 2606,
      "ird": 2607,
      "Ġunited": 2608,
      "Ġcomplic": 2609,
      "irsty": 2610,
      "Ġbelieves": 2611,
      "aces": 2612,
      "Ġgiving": 2613,
      "Ġjuice": 2614,
      "Ġmotor": 2615,
      "Ġsandwi": 2616,
      "Ġble": 2617,
      "Ġcous": 2618,
      "ories": 2619,
      "Ġnames": 2620,
      "Ġstick": 2621,
      "Ġexh": 2622,
      "Ġcomfortable": 2623,
      "Ġprop": 2624,
      "Ġboring": 2625,
      "Ġstates": 2626,
      "ilty": 2627,
      "Ġguilty": 2628,
      "Ġpersonal": 2629,
      "Ġraise": 2630,
      "Ġnormal": 2631,
      "Ġdest": 2632,
      "Ġmir": 2633,
      "vered": 2634,
      "Ġsof": 2635,
      "Ġboat": 2636,
      "Ġbody": 2637,
      "Ġcovered": 2638,
      "Ġblind": 2639,
      "Ġpoliceman": 2640,
      "Ġforever": 2641,
      "Ġtickets": 2642,
      "Ġconvince": 2643,
      "Ġtaste": 2644,
      "Ġclimb": 2645,
      "Ġpossib": 2646,
      "Ġ6": 2647,
      "Ġash": 2648,
      "Ġunc": 2649,
      "Ġaccomp": 2650,
      "Ġexplained": 2651,
      "Ġinstead": 2652,
      "Ġpractice": 2653,
      "Ġchinese": 2654,
      "rat": 2655,
      "under": 2656,
      "Ġhar": 2657,
      "ings": 2658,
      "Ġfu": 2659,
      "Ġfro": 2660,
      "Ġpool": 2661,
      "Ġshar": 2662,
      "Ġjail": 2663,
      "usted": 2664,
      "Ġusing": 2665,
      "astic": 2666,
      "unately": 2667,
      "Ġcommit": 2668,
      "Ġintell": 2669,
      "Ġcouch": 2670,
      "Ġ10": 2671,
      "Ġassist": 2672,
      "Ġpriv": 2673,
      "oun": 2674,
      "ific": 2675,
      "Ġhandle": 2676,
      "Ġsuppose": 2677,
      "Ġpresident": 2678,
      "Ġcertainly": 2679,
      "Ġunlike": 2680,
      "Ġhistory": 2681,
      "do": 2682,
      "Ġcre": 2683,
      "Ġpos": 2684,
      "Ġplenty": 2685,
      "Ġlistened": 2686,
      "Ġobject": 2687,
      "Ġpulled": 2688,
      "Ġprofess": 2689,
      "lebr": 2690,
      "key": 2691,
      "Ġstairs": 2692,
      "els": 2693,
      "Ġswitch": 2694,
      "Ġwonderful": 2695,
      "Ġcountries": 2696,
      "Ġthirteen": 2697,
      "Ġprepared": 2698,
      "Ġcards": 2699,
      "Ġcelebr": 2700,
      "Ġlosing": 2701,
      "Ġembarr": 2702,
      "Ġsofa": 2703,
      "Ġembarrass": 2704,
      "Ġtur": 2705,
      "vest": 2706,
      "Ġclub": 2707,
      "Ġtreated": 2708,
      "Ġconsidered": 2709,
      "Ġfairly": 2710,
      "Ġfilled": 2711,
      "Ġcheap": 2712,
      "bbed": 2713,
      "Ġlay": 2714,
      "Ġstra": 2715,
      "Ġarea": 2716,
      "Ġproject": 2717,
      "Ġcarp": 2718,
      "Ġmoving": 2719,
      "Ġbelieved": 2720,
      "Ġglo": 2721,
      "Ġhurts": 2722,
      "Ġdrop": 2723,
      "Ġmiddle": 2724,
      "Ġmaj": 2725,
      "Ġlicense": 2726,
      "Ġcomplicated": 2727,
      "hip": 2728,
      "Ġ3": 2729,
      "Ġahead": 2730,
      "Ġdam": 2731,
      "Ġbarely": 2732,
      "Ġcell": 2733,
      "Ġnine": 2734,
      "Ġheat": 2735,
      "Ġoil": 2736,
      "Ġknock": 2737,
      "Ġcance": 2738,
      "aded": 2739,
      "Ġtrick": 2740,
      "Ġmanaged": 2741,
      "Ġview": 2742,
      "Ġfriendly": 2743,
      "Ġfact": 2744,
      "Ġearn": 2745,
      "Ġgrate": 2746,
      "Ġsleepy": 2747,
      "Ġshock": 2748,
      "Ġinvit": 2749,
      "Ġsweater": 2750,
      "Ġdistance": 2751,
      "Ġmillion": 2752,
      "uc": 2753,
      "Ġpity": 2754,
      "ute": 2755,
      "olved": 2756,
      "Ġstuck": 2757,
      "Ġspeaker": 2758,
      "Ġorange": 2759,
      "Ġbuying": 2760,
      "Ġkeeps": 2761,
      "Ġideas": 2762,
      "Ġfarm": 2763,
      "Ġcondition": 2764,
      "Ġcried": 2765,
      "Ġstraw": 2766,
      "Ġur": 2767,
      "Ġsearch": 2768,
      "Ġanyway": 2769,
      "ural": 2770,
      "Ġmanage": 2771,
      "Ġsli": 2772,
      "Ġrelax": 2773,
      "Ġfighting": 2774,
      "Ġbright": 2775,
      "Ġemail": 2776,
      "bb": 2777,
      "Ġheld": 2778,
      "ets": 2779,
      "ains": 2780,
      "Ġusual": 2781,
      "Ġprev": 2782,
      "Ġtwenty": 2783,
      "Ġpermit": 2784,
      "Ġsolution": 2785,
      "Ġhealthy": 2786,
      "Ġrecommend": 2787,
      "Ġsharp": 2788,
      "Ġunlikely": 2789,
      "gress": 2790,
      "Ġtoile": 2791,
      "Ġpower": 2792,
      "Ġtext": 2793,
      "igent": 2794,
      "Ġcoun": 2795,
      "Ġheadache": 2796,
      "Ġartic": 2797,
      "Ġelectric": 2798,
      "Ġreached": 2799,
      "Ġgrateful": 2800,
      "iers": 2801,
      "old": 2802,
      "Ġthirsty": 2803,
      "Ġbow": 2804,
      "Ġcast": 2805,
      "Ġcause": 2806,
      "eng": 2807,
      "Ġweap": 2808,
      "Ġliar": 2809,
      "using": 2810,
      "ires": 2811,
      "Ġguest": 2812,
      "Ġteachers": 2813,
      "Ġrains": 2814,
      "Ġreply": 2815,
      "Ġended": 2816,
      "gram": 2817,
      "Ġsports": 2818,
      "Ġchicken": 2819,
      "Ġtotally": 2820,
      "cious": 2821,
      "hol": 2822,
      "line": 2823,
      "Ġau": 2824,
      "ask": 2825,
      "Ġacce": 2826,
      "Ġcollect": 2827,
      "Ġneighbors": 2828,
      "Ġtype": 2829,
      "Ġsupermar": 2830,
      "Ġholiday": 2831,
      "Ġinnocent": 2832,
      "Ġ$": 2833,
      "Ġthreat": 2834,
      "Ġhated": 2835,
      "Ġund": 2836,
      "ung": 2837,
      "Ġfear": 2838,
      "Ġorgan": 2839,
      "iable": 2840,
      "Ġresult": 2841,
      "Ġcrit": 2842,
      "Ġoptim": 2843,
      "Ġparticular": 2844,
      "Ġvolun": 2845,
      "Ġstraight": 2846,
      "Ġsort": 2847,
      "Ġdent": 2848,
      "Ġfurn": 2849,
      "Ġhabit": 2850,
      "Ġequ": 2851,
      "Ġmeal": 2852,
      "Ġneck": 2853,
      "right": 2854,
      "Ġyourselves": 2855,
      "Ġroll": 2856,
      "Ġpocket": 2857,
      "Ġeasier": 2858,
      "Ġattract": 2859,
      "Ġentered": 2860,
      "Ġsupermarket": 2861,
      "yed": 2862,
      "Ġach": 2863,
      "ones": 2864,
      "Ġpic": 2865,
      "Ġform": 2866,
      "Ġrum": 2867,
      "Ġallerg": 2868,
      "osal": 2869,
      "Ġbrush": 2870,
      "Ġidi": 2871,
      "Ġresults": 2872,
      "what": 2873,
      "iest": 2874,
      "Ġdry": 2875,
      "Ġrang": 2876,
      "Ġrarely": 2877,
      "Ġflight": 2878,
      "Ġshoot": 2879,
      "Ġrepe": 2880,
      "Ġbigger": 2881,
      "Ġadvant": 2882,
      "Ġsoldiers": 2883,
      "Ġdeserve": 2884,
      "Ġkil": 2885,
      "Ġjacket": 2886,
      "Ġnose": 2887,
      "Ġrude": 2888,
      "Ġfridge": 2889,
      "Ġprove": 2890,
      "Ġboard": 2891,
      "ouses": 2892,
      "Ġrepl": 2893,
      "Ġpaying": 2894,
      "ashed": 2895,
      "Ġfixed": 2896,
      "Ġsuspic": 2897,
      "Ġimagine": 2898,
      "Ġtoilet": 2899,
      "Ġauth": 2900,
      "Ġfed": 2901,
      "Ġweird": 2902,
      "Ġforced": 2903,
      "antly": 2904,
      "Ġupstairs": 2905,
      "Ġquar": 2906,
      "Ġunh": 2907,
      "ify": 2908,
      "Ġwarned": 2909,
      "Ġdescri": 2910,
      "Ġobviously": 2911,
      "Ġbench": 2912,
      "how": 2913,
      "umb": 2914,
      "Ġast": 2915,
      "Ġdating": 2916,
      "Ġtheater": 2917,
      "ism": 2918,
      "arian": 2919,
      "Ġgate": 2920,
      "Ġhey": 2921,
      "Ġunf": 2922,
      "Ġfactor": 2923,
      "Ġgrou": 2924,
      "Ġlady": 2925,
      "Ġdetails": 2926,
      "Ġaccep": 2927,
      "aired": 2928,
      "Ġcig": 2929,
      "Ġlift": 2930,
      "Ġstamp": 2931,
      "itive": 2932,
      "Ġwhenever": 2933,
      "Ġdeb": 2934,
      "Ġprices": 2935,
      "icked": 2936,
      "Ġscar": 2937,
      "Ġbedroom": 2938,
      "Ġfollowing": 2939,
      "Ġraised": 2940,
      "Ġcharge": 2941,
      "Ġescape": 2942,
      "Ġvolunte": 2943,
      "ale": 2944,
      "ule": 2945,
      "Ġsize": 2946,
      "Ġnamed": 2947,
      "Ġweigh": 2948,
      "Ġgover": 2949,
      "Ġcalls": 2950,
      "Ġfeels": 2951,
      "Ġaccount": 2952,
      "Ġmistaken": 2953,
      "Ġrecord": 2954,
      "Ġcontract": 2955,
      "Ġclassroom": 2956,
      "Ġeventually": 2957,
      "bby": 2958,
      "Ġhy": 2959,
      "Ġcurious": 2960,
      "Ġnur": 2961,
      "Ġbell": 2962,
      "Ġspell": 2963,
      "unity": 2964,
      "rap": 2965,
      "Ġvide": 2966,
      "board": 2967,
      "Ġappl": 2968,
      "gging": 2969,
      "lished": 2970,
      "Ġbehav": 2971,
      "Ġmiles": 2972,
      "ship": 2973,
      "Ġdreams": 2974,
      "Ġexcited": 2975,
      "Ġadmitted": 2976,
      "Ġyellow": 2977,
      "Ġbehavior": 2978,
      "Ġthief": 2979,
      "Ġhouses": 2980,
      "Ġcab": 2981,
      "Ġhall": 2982,
      "ury": 2983,
      "Ġprogram": 2984,
      "Ġunfort": 2985,
      "Ġbetr": 2986,
      "Ġground": 2987,
      "Ġlazy": 2988,
      "Ġartist": 2989,
      "Ġmagaz": 2990,
      "Ġauthor": 2991,
      "cut": 2992,
      "de": 2993,
      "form": 2994,
      "nic": 2995,
      "âĢ": 2996,
      "Ġdying": 2997,
      "ency": 2998,
      "Ġpan": 2999,
      "Ġgent": 3000,
      "ilar": 3001,
      "Ġtooth": 3002,
      "Ġdev": 3003,
      "Ġune": 3004,
      "Ġunus": 3005,
      "apers": 3006,
      "Ġteaching": 3007,
      "Ġforest": 3008,
      "Ġsmells": 3009,
      "Ġbelongs": 3010,
      "Ġrule": 3011,
      "Ġzoo": 3012,
      "Ġbrave": 3013,
      "Ġdemand": 3014,
      "Ġarticle": 3015,
      "ls": 3016,
      "oc": 3017,
      "Ġtend": 3018,
      "Ġmain": 3019,
      "Ġfright": 3020,
      "Ġord": 3021,
      "Ġpoison": 3022,
      "Ġpersu": 3023,
      "Ġbadly": 3024,
      "Ġresign": 3025,
      "Ġsuggestion": 3026,
      "overed": 3027,
      "Ġmidnight": 3028,
      "cohol": 3029,
      "Ġfinger": 3030,
      "Ġproposal": 3031,
      "Ġashamed": 3032,
      "Ġintelligent": 3033,
      "Ġgovern": 3034,
      "erc": 3035,
      "Ġbrow": 3036,
      "Ġbark": 3037,
      "Ġtears": 3038,
      "Ġdece": 3039,
      "Ġhopes": 3040,
      "Ġrepaired": 3041,
      "Ġinvolved": 3042,
      "Ġelev": 3043,
      "Ġflower": 3044,
      "Ġpatience": 3045,
      "Ġgentle": 3046,
      "sc": 3047,
      "Ġhors": 3048,
      "Ġpill": 3049,
      "Ġsocks": 3050,
      "appy": 3051,
      "Ġhole": 3052,
      "Ġearthqu": 3053,
      "Ġdenied": 3054,
      "Ġmemory": 3055,
      "Ġpotatoes": 3056,
      "Ġbanan": 3057,
      "Ġsandwich": 3058,
      "Ġdentist": 3059,
      "ses": 3060,
      "ues": 3061,
      "Ġwise": 3062,
      "Ġlent": 3063,
      "Ġpath": 3064,
      "cell": 3065,
      "Ġalarm": 3066,
      "urday": 3067,
      "Ġsaving": 3068,
      "Ġrained": 3069,
      "ments": 3070,
      "Ġrepair": 3071,
      "Ġsaturday": 3072,
      "Ġcrime": 3073,
      "Ġsalad": 3074,
      "Ġcomplaining": 3075,
      "Ġhuman": 3076,
      "Ġcurtain": 3077,
      "Ġpunished": 3078,
      "rently": 3079,
      "rets": 3080,
      "Ġlond": 3081,
      "Ġfle": 3082,
      "enced": 3083,
      "Ġstars": 3084,
      "riger": 3085,
      "Ġexcell": 3086,
      "Ġsmiling": 3087,
      "Ġdrug": 3088,
      "Ġtrusted": 3089,
      "Ġrefriger": 3090,
      "Ġcapital": 3091,
      "Ġsilent": 3092,
      "Ġjumped": 3093,
      "Ġburned": 3094,
      "Ġbasketball": 3095,
      "Ġadmire": 3096,
      "Ġelevator": 3097,
      "Ġlondon": 3098,
      "Ġexcellent": 3099,
      "zen": 3100,
      "Ġcash": 3101,
      "iture": 3102,
      "ified": 3103,
      "Ġwalks": 3104,
      "Ġparked": 3105,
      "Ġskin": 3106,
      "Ġphotograph": 3107,
      "Ġopport": 3108,
      "Ġgarage": 3109,
      "Ġexha": 3110,
      "Ġrefrigerator": 3111,
      "bile": 3112,
      "sy": 3113,
      "Ġhom": 3114,
      "Ġpush": 3115,
      "Ġweak": 3116,
      "Ġabove": 3117,
      "unt": 3118,
      "ounds": 3119,
      "Ġhoped": 3120,
      "Ġhanded": 3121,
      "Ġdiam": 3122,
      "Ġintern": 3123,
      "Ġmurder": 3124,
      "Ġresponsible": 3125,
      "underst": 3126,
      "Ġfurniture": 3127,
      "ms": 3128,
      "Ġaud": 3129,
      "Ġbat": 3130,
      "Ġnat": 3131,
      "omach": 3132,
      "Ġwebs": 3133,
      "Ġstomach": 3134,
      "ician": 3135,
      "iment": 3136,
      "arett": 3137,
      "ape": 3138,
      "Ġdownstairs": 3139,
      "Ġlately": 3140,
      "Ġhearing": 3141,
      "Ġborrowed": 3142,
      "Ġiron": 3143,
      "Ġneighborhood": 3144,
      "iliar": 3145,
      "Ġtemperature": 3146,
      "Ġhorses": 3147,
      "den": 3148,
      "ne": 3149,
      "Ġ4": 3150,
      "Ġsang": 3151,
      "inal": 3152,
      "Ġcir": 3153,
      "orter": 3154,
      "Ġgames": 3155,
      "Ġwhis": 3156,
      "Ġrom": 3157,
      "Ġspace": 3158,
      "uses": 3159,
      "ulation": 3160,
      "Ġtells": 3161,
      "Ġgives": 3162,
      "Ġkinds": 3163,
      "Ġpolite": 3164,
      "Ġadvise": 3165,
      "Ġ18": 3166,
      "Ġcleaned": 3167,
      "Ġtraveling": 3168,
      "Ġassume": 3169,
      "Ġanimal": 3170,
      "Ġvegetarian": 3171,
      "Ġappears": 3172,
      "ker": 3173,
      "Ġer": 3174,
      "Ġtight": 3175,
      "Ġda": 3176,
      "Ġcred": 3177,
      "Ġcancer": 3178,
      "irrel": 3179,
      "Ġalcohol": 3180,
      "Ġprov": 3181,
      "Ġproper": 3182,
      "Ġadop": 3183,
      "Ġdoors": 3184,
      "Ġmatch": 3185,
      "ailable": 3186,
      "Ġdiary": 3187,
      "Ġcorner": 3188,
      "Ġdepart": 3189,
      "Ġchecked": 3190,
      "Ġstronger": 3191,
      "rupt": 3192,
      "Ġcontinue": 3193,
      "Ġjudge": 3194,
      "Ġmotorcy": 3195,
      "Ġprivate": 3196,
      "Ġgloves": 3197,
      "Ġpicnic": 3198,
      "Ġidiot": 3199,
      "Ġcigarett": 3200,
      "Ġdiamond": 3201,
      "Ġhill": 3202,
      "Ġfur": 3203,
      "let": 3204,
      "Ġintention": 3205,
      "Ġconvers": 3206,
      "Ġunless": 3207,
      "ology": 3208,
      "Ġcosts": 3209,
      "Ġenter": 3210,
      "Ġcanadians": 3211,
      "Ġbathroom": 3212,
      "Ġsquirrel": 3213,
      "Ġallergic": 3214,
      "Ġunfortunately": 3215,
      "Ġdue": 3216,
      "inet": 3217,
      "Ġfence": 3218,
      "ences": 3219,
      "Ġgh": 3220,
      "Ġobe": 3221,
      "ides": 3222,
      "Ġwealth": 3223,
      "Ġecon": 3224,
      "Ġneg": 3225,
      "Ġsched": 3226,
      "Ġhighly": 3227,
      "Ġavailable": 3228,
      "Ġprepare": 3229,
      "Ġofficer": 3230,
      "Ġadvantage": 3231,
      "Ġunhappy": 3232,
      "Ġaccepted": 3233,
      "Ġexhausted": 3234,
      "Ġwebsite": 3235,
      "Ġeconom": 3236,
      "ump": 3237,
      "zz": 3238,
      "Ġdise": 3239,
      "tery": 3240,
      "Ġrock": 3241,
      "Ġdisag": 3242,
      "Ġdrives": 3243,
      "Ġjoking": 3244,
      "Ġsuspicious": 3245,
      "Ġghost": 3246,
      "eg": 3247,
      "ron": 3248,
      "Ġ8": 3249,
      "Ġthin": 3250,
      "Ġking": 3251,
      "Ġones": 3252,
      "Ġseason": 3253,
      "ctions": 3254,
      "Ġamong": 3255,
      "Ġears": 3256,
      "Ġfamiliar": 3257,
      "Ġconcerned": 3258,
      "Ġtastes": 3259,
      "Ġwoods": 3260,
      "Ġachie": 3261,
      "Ġmotorcycle": 3262,
      "asons": 3263,
      "Ġhell": 3264,
      "Ġinvest": 3265,
      "Ġjam": 3266,
      "Ġrace": 3267,
      "Ġshoulder": 3268,
      "Ġmanager": 3269,
      "Ġworkers": 3270,
      "Ġrope": 3271,
      "Ġmod": 3272,
      "Ġscare": 3273,
      "Ġhandsome": 3274,
      "Ġgrown": 3275,
      "Ġfallen": 3276,
      "Ġsilence": 3277,
      "Ġprize": 3278,
      "Ġmisunderst": 3279,
      "Ġattacked": 3280,
      "Ġfifteen": 3281,
      "Ġoccur": 3282,
      "Ġdestro": 3283,
      "Ġvideo": 3284,
      "Ġconversation": 3285,
      "fet": 3286,
      "ius": 3287,
      "ji": 3288,
      "lo": 3289,
      "ler": 3290,
      "ances": 3291,
      "ched": 3292,
      "Ġstories": 3293,
      "Ġshare": 3294,
      "its": 3295,
      "Ġmarket": 3296,
      "tern": 3297,
      "Ġrab": 3298,
      "Ġfever": 3299,
      "ational": 3300,
      "Ġscient": 3301,
      "Ġmatters": 3302,
      "Ġlawn": 3303,
      "Ġserv": 3304,
      "Ġvisiting": 3305,
      "Ġcleaning": 3306,
      "Ġamericans": 3307,
      "Ġdiscussed": 3308,
      "Ġemploy": 3309,
      "Ġmountains": 3310,
      "Ġclimbed": 3311,
      "Ġparticip": 3312,
      "Ġcastle": 3313,
      "âĢĻ": 3314,
      "Ġunusual": 3315,
      "Ġgovernment": 3316,
      "Ġbrown": 3317,
      "na": 3318,
      "Ġtour": 3319,
      "Ġharm": 3320,
      "ints": 3321,
      "Ġsung": 3322,
      "Ġsheep": 3323,
      "Ġcloud": 3324,
      "Ġvict": 3325,
      "Ġbull": 3326,
      "Ġbecom": 3327,
      "Ġslight": 3328,
      "Ġruns": 3329,
      "Ġmeaning": 3330,
      "Ġbottom": 3331,
      "Ġtyp": 3332,
      "Ġguests": 3333,
      "Ġcritic": 3334,
      "Ġnurse": 3335,
      "we": 3336,
      "Ġtoward": 3337,
      "ising": 3338,
      "Ġpage": 3339,
      "Ġstone": 3340,
      "Ġeverywhere": 3341,
      "Ġexist": 3342,
      "ield": 3343,
      "Ġprogress": 3344,
      "Ġmoder": 3345,
      "Ġdoctors": 3346,
      "Ġ100": 3347,
      "Ġchanges": 3348,
      "Ġrelation": 3349,
      "Ġdiet": 3350,
      "Ġsundays": 3351,
      "Ġignore": 3352,
      "Ġskiing": 3353,
      "Ġclaim": 3354,
      "Ġamazing": 3355,
      "ging": 3356,
      "Ġ9": 3357,
      "oured": 3358,
      "Ġlack": 3359,
      "Ġpond": 3360,
      "Ġbeard": 3361,
      "Ġreasons": 3362,
      "antic": 3363,
      "Ġcand": 3364,
      "irm": 3365,
      "Ġexerc": 3366,
      "Ġloss": 3367,
      "Ġpleasure": 3368,
      "Ġcarried": 3369,
      "Ġpred": 3370,
      "Ġexpress": 3371,
      "Ġcompet": 3372,
      "Ġunderstands": 3373,
      "Ġanswers": 3374,
      "Ġwinning": 3375,
      "Ġairpl": 3376,
      "Ġmusician": 3377,
      "Ġhuge": 3378,
      "Ġcomplained": 3379,
      "Ġsimilar": 3380,
      "Ġargue": 3381,
      "looking": 3382,
      "Ġstrawber": 3383,
      "Ġgroup": 3384,
      "Ġways": 3385,
      "Ġdess": 3386,
      "Ġfriday": 3387,
      "Ġpron": 3388,
      "Ġoper": 3389,
      "Ġremain": 3390,
      "temp": 3391,
      "Ġsolved": 3392,
      "Ġlesson": 3393,
      "Ġapologized": 3394,
      "Ġtranslated": 3395,
      "Ġincre": 3396,
      "Ġrecognized": 3397,
      "Ġflying": 3398,
      "Ġescaped": 3399,
      "Ġpressure": 3400,
      "Ġdivorced": 3401,
      "Ġcousin": 3402,
      "Ġrelationship": 3403,
      "aved": 3404,
      "view": 3405,
      "Ġactor": 3406,
      "Ġdrow": 3407,
      "Ġmic": 3408,
      "Ġbi": 3409,
      "Ġant": 3410,
      "ional": 3411,
      "Ġsuic": 3412,
      "Ġshelf": 3413,
      "Ġdeg": 3414,
      "Ġqual": 3415,
      "Ġpieces": 3416,
      "Ġcrossed": 3417,
      "Ġmajor": 3418,
      "Ġurg": 3419,
      "Ġoptimistic": 3420,
      "Ġfactory": 3421,
      "Ġnatural": 3422,
      "Ġcredit": 3423,
      "Ġdessert": 3424,
      "bel": 3425,
      "writ": 3426,
      "Ġyork": 3427,
      "Ġsi": 3428,
      "Ġoce": 3429,
      "Ġshout": 3430,
      "iting": 3431,
      "aint": 3432,
      "ulous": 3433,
      "Ġorang": 3434,
      "Ġourselves": 3435,
      "Ġcareless": 3436,
      "Ġscience": 3437,
      "Ġparking": 3438,
      "Ġsnowing": 3439,
      "Ġinterp": 3440,
      "Ġquietly": 3441,
      "Ġapproach": 3442,
      "Ġcontinued": 3443,
      "Ġdepends": 3444,
      "Ġposition": 3445,
      "Ġinvitation": 3446,
      "Ġoranges": 3447,
      "go": 3448,
      "lass": 3449,
      "men": 3450,
      "oved": 3451,
      "par": 3452,
      "Ġ7": 3453,
      "Ġtor": 3454,
      "Ġaunt": 3455,
      "Ġhi": 3456,
      "Ġsour": 3457,
      "Ġmt": 3458,
      "Ġpoured": 3459,
      "ster": 3460,
      "Ġneare": 3461,
      "oph": 3462,
      "ulty": 3463,
      "Ġdifficulty": 3464,
      "Ġrefuse": 3465,
      "Ġsales": 3466,
      "Ġsalary": 3467,
      "Ġcheaper": 3468,
      "Ġearthquake": 3469,
      "Ġopportunity": 3470,
      "Ġhello": 3471,
      "bage": 3472,
      "here": 3473,
      "sit": 3474,
      "Ġsens": 3475,
      "Ġiss": 3476,
      "itions": 3477,
      "Ġwild": 3478,
      "Ġmarri": 3479,
      "Ġexch": 3480,
      "essed": 3481,
      "Ġaffect": 3482,
      "Ġroses": 3483,
      "ected": 3484,
      "Ġaccused": 3485,
      "Ġattended": 3486,
      "aced": 3487,
      "Ġcookie": 3488,
      "Ġclasses": 3489,
      "Ġlargest": 3490,
      "Ġhug": 3491,
      "Ġtraveled": 3492,
      "Ġsouth": 3493,
      "Ġphoto": 3494,
      "Ġfoolish": 3495,
      "Ġfailure": 3496,
      "Ġfurther": 3497,
      "Ġschedule": 3498,
      "xious": 3499,
      "Ġhired": 3500,
      "Ġdea": 3501,
      "Ġtheory": 3502,
      "Ġband": 3503,
      "Ġbaked": 3504,
      "eday": 3505,
      "Ġhesit": 3506,
      "Ġplanned": 3507,
      "Ġremoved": 3508,
      "Ġthemselves": 3509,
      "Ġspends": 3510,
      "Ġsomeday": 3511,
      "Ġentr": 3512,
      "Ġpopulation": 3513,
      "Ġbrief": 3514,
      "Ġdrawer": 3515,
      "Ġsuitcases": 3516,
      "Ġintroduced": 3517,
      "lies": 3518,
      "rots": 3519,
      "xic": 3520,
      "Ġhoney": 3521,
      "Ġsons": 3522,
      "Ġug": 3523,
      "Ġwithin": 3524,
      "Ġsoft": 3525,
      "Ġplaces": 3526,
      "Ġfrank": 3527,
      "Ġhero": 3528,
      "Ġremained": 3529,
      "Ġstranger": 3530,
      "Ġperform": 3531,
      "Ġkissing": 3532,
      "ologist": 3533,
      "Ġspeed": 3534,
      "Ġdepressed": 3535,
      "Ġgenerous": 3536,
      "Ġmirror": 3537,
      "Ġrepeat": 3538,
      "Ġsunglass": 3539,
      "Ġnearest": 3540,
      "Ġdeaf": 3541,
      "Ġsunglasses": 3542,
      "hand": 3543,
      "tle": 3544,
      "Ġest": 3545,
      "Ġcough": 3546,
      "Ġfond": 3547,
      "arter": 3548,
      "Ġnap": 3549,
      "Ġeff": 3550,
      "Ġshorter": 3551,
      "pper": 3552,
      "erence": 3553,
      "Ġhelps": 3554,
      "Ġenvelop": 3555,
      "Ġsmarter": 3556,
      "Ġkidding": 3557,
      "Ġhung": 3558,
      "Ġwrites": 3559,
      "Ġhobby": 3560,
      "ashion": 3561,
      "Ġilleg": 3562,
      "Ġbills": 3563,
      "Ġmotiv": 3564,
      "Ġdeny": 3565,
      "Ġcloser": 3566,
      "Ġeduc": 3567,
      "Ġrumor": 3568,
      "Ġmagazine": 3569,
      "Ġobey": 3570,
      "Ġrabbit": 3571,
      "Ġsuicide": 3572,
      "ners": 3573,
      "pack": 3574,
      "ugh": 3575,
      "Ġtough": 3576,
      "Ġcong": 3577,
      "Ġnuts": 3578,
      "stem": 3579,
      "icted": 3580,
      "rib": 3581,
      "Ġje": 3582,
      "Ġrose": 3583,
      "Ġburied": 3584,
      "Ġpasseng": 3585,
      "Ġclever": 3586,
      "Ġextra": 3587,
      "Ġperfectly": 3588,
      "Ġelected": 3589,
      "Ġgarbage": 3590,
      "Ġrequest": 3591,
      "Ġimprove": 3592,
      "Ġgraduated": 3593,
      "Ġmodern": 3594,
      "Ġeffort": 3595,
      "Ġpassengers": 3596,
      "Ġwit": 3597,
      "Ġsink": 3598,
      "Ġpushed": 3599,
      "Ġkicked": 3600,
      "Ġrele": 3601,
      "Ġrese": 3602,
      "Ġaband": 3603,
      "Ġenv": 3604,
      "Ġdisg": 3605,
      "Ġgrass": 3606,
      "Ġuseful": 3607,
      "Ġspending": 3608,
      "Ġworrying": 3609,
      "Ġarms": 3610,
      "Ġimagination": 3611,
      "Ġchina": 3612,
      "Ġstaring": 3613,
      "Ġpretending": 3614,
      "Ġsystem": 3615,
      "Ġviolin": 3616,
      "Ġtalented": 3617,
      "Ġfuji": 3618,
      "Ġdisease": 3619,
      "Ġocean": 3620,
      "Ġmarriage": 3621,
      "uff": 3622,
      "ining": 3623,
      "Ġlies": 3624,
      "Ġforce": 3625,
      "Ġgoal": 3626,
      "Ġspare": 3627,
      "Ġplants": 3628,
      "Ġhelpful": 3629,
      "Ġcarrots": 3630,
      "Ġorig": 3631,
      "ago": 3632,
      "Ġfacts": 3633,
      "Ġscary": 3634,
      "Ġsurr": 3635,
      "Ġengaged": 3636,
      "Ġreceive": 3637,
      "Ġphotos": 3638,
      "Ġgermany": 3639,
      "Ġblew": 3640,
      "Ġorders": 3641,
      "Ġurgent": 3642,
      "cast": 3643,
      "ees": 3644,
      "ks": 3645,
      "Ġheight": 3646,
      "owing": 3647,
      "ider": 3648,
      "Ġital": 3649,
      "Ġeffe": 3650,
      "Ġwasting": 3651,
      "icago": 3652,
      "Ġattemp": 3653,
      "Ġchicago": 3654,
      "Ġrub": 3655,
      "Ġmobile": 3656,
      "Ġblan": 3657,
      "Ġflat": 3658,
      "Ġdecl": 3659,
      "Ġstudies": 3660,
      "Ġswimmer": 3661,
      "Ġadvance": 3662,
      "Ġacting": 3663,
      "Ġconference": 3664,
      "Ġlarger": 3665,
      "Ġassum": 3666,
      "Ġseats": 3667,
      "ergy": 3668,
      "Ġignored": 3669,
      "Ġshocked": 3670,
      "Ġbetrayed": 3671,
      "Ġdestroyed": 3672,
      "ium": 3673,
      "mate": 3674,
      "mates": 3675,
      "ney": 3676,
      "uing": 3677,
      "Ġfan": 3678,
      "etic": 3679,
      "rog": 3680,
      "ores": 3681,
      "Ġrush": 3682,
      "Ġspread": 3683,
      "Ġasks": 3684,
      "Ġcoinc": 3685,
      "Ġlasted": 3686,
      "Ġpoet": 3687,
      "Ġaccord": 3688,
      "Ġfold": 3689,
      "Ġlaund": 3690,
      "ocked": 3691,
      "Ġcrim": 3692,
      "Ġbehave": 3693,
      "Ġfigured": 3694,
      "Ġcamping": 3695,
      "Ġembarrassed": 3696,
      "Ġaudience": 3697,
      "Ġadopted": 3698,
      "ai": 3699,
      "ped": 3700,
      "uce": 3701,
      "Ġhire": 3702,
      "Ġbes": 3703,
      "verage": 3704,
      "Ġmeth": 3705,
      "Ġstate": 3706,
      "irts": 3707,
      "Ġchose": 3708,
      "Ġnoon": 3709,
      "isted": 3710,
      "Ġenergy": 3711,
      "Ġexpert": 3712,
      "Ġdisl": 3713,
      "Ġsupper": 3714,
      "Ġmondays": 3715,
      "Ġdisappeared": 3716,
      "Ġirre": 3717,
      "Ġnovels": 3718,
      "Ġsurvive": 3719,
      "Ġcarpent": 3720,
      "Ġweapon": 3721,
      "Ġstamps": 3722,
      "Ġentrance": 3723,
      "Ġenvelope": 3724,
      "Ġess": 3725,
      "atic": 3726,
      "Ġcoo": 3727,
      "anced": 3728,
      "Ġfile": 3729,
      "Ġstri": 3730,
      "Ġconcent": 3731,
      "Ġcover": 3732,
      "Ġlean": 3733,
      "Ġdrum": 3734,
      "Ġfriendship": 3735,
      "Ġpromises": 3736,
      "Ġbeauty": 3737,
      "Ġowns": 3738,
      "cially": 3739,
      "Ġsigned": 3740,
      "Ġcaptain": 3741,
      "Ġpurse": 3742,
      "Ġclearly": 3743,
      "Ġlower": 3744,
      "Ġdeli": 3745,
      "Ġburst": 3746,
      "Ġcopy": 3747,
      "Ġcoward": 3748,
      "Ġintroduce": 3749,
      "Ġannoying": 3750,
      "Ġnotebook": 3751,
      "Ġcanceled": 3752,
      "Ġelectricity": 3753,
      "Ġcirc": 3754,
      "Ġugly": 3755,
      "Ġconcentr": 3756,
      "to": 3757,
      "uct": 3758,
      "Ġwounded": 3759,
      "Ġnaked": 3760,
      "Ġoven": 3761,
      "Ġinse": 3762,
      "Ġcandy": 3763,
      "ainted": 3764,
      "Ġguard": 3765,
      "Ġappeared": 3766,
      "Ġphys": 3767,
      "Ġphoned": 3768,
      "Ġreco": 3769,
      "Ġenjoying": 3770,
      "emat": 3771,
      "Ġdiv": 3772,
      "Ġeleph": 3773,
      "Ġholding": 3774,
      "Ġdancer": 3775,
      "Ġbasement": 3776,
      "Ġmathemat": 3777,
      "Ġpolitics": 3778,
      "Ġmicro": 3779,
      "Ġlaundry": 3780,
      "you": 3781,
      "Ġthro": 3782,
      "Ġbite": 3783,
      "Ġlugg": 3784,
      "Ġpounds": 3785,
      "Ġanger": 3786,
      "Ġmembers": 3787,
      "aled": 3788,
      "Ġknowled": 3789,
      "rop": 3790,
      "Ġteen": 3791,
      "Ġspl": 3792,
      "Ġfrance": 3793,
      "Ġhappiness": 3794,
      "Ġunable": 3795,
      "Ġjogging": 3796,
      "anged": 3797,
      "Ġteaches": 3798,
      "Ġsurf": 3799,
      "Ġrelative": 3800,
      "Ġhugged": 3801,
      "Ġexciting": 3802,
      "ibility": 3803,
      "Ġinstru": 3804,
      "Ġevidence": 3805,
      "Ġgunsh": 3806,
      "Ġladder": 3807,
      "Ġpoems": 3808,
      "Ġtowel": 3809,
      "iking": 3810,
      "Ġplanted": 3811,
      "Ġprofessor": 3812,
      "Ġpermitted": 3813,
      "Ġthreatened": 3814,
      "Ġattractive": 3815,
      "Ġbananas": 3816,
      "Ġaccording": 3817,
      "Ġluggage": 3818,
      "tom": 3819,
      "yes": 3820,
      "Ġmaster": 3821,
      "Ġpet": 3822,
      "Ġpants": 3823,
      "Ġpsy": 3824,
      "Ġnail": 3825,
      "Ġinsp": 3826,
      "Ġanxious": 3827,
      "Ġknit": 3828,
      "Ġknee": 3829,
      "urity": 3830,
      "Ġproof": 3831,
      "Ġchildhood": 3832,
      "Ġfinds": 3833,
      "Ġaccustom": 3834,
      "ips": 3835,
      "Ġdesper": 3836,
      "Ġlaid": 3837,
      "Ġexamination": 3838,
      "Ġinterview": 3839,
      "Ġpresents": 3840,
      "Ġconcern": 3841,
      "Ġhorri": 3842,
      "Ġfalling": 3843,
      "Ġevil": 3844,
      "Ġpostp": 3845,
      "Ġgrabbed": 3846,
      "Ġcrowded": 3847,
      "Ġannoyed": 3848,
      "Ġstepped": 3849,
      "Ġprevent": 3850,
      "Ġhomes": 3851,
      "case": 3852,
      "xp": 3853,
      "Ġtong": 3854,
      "Ġthick": 3855,
      "Ġbal": 3856,
      "aring": 3857,
      "Ġna": 3858,
      "Ġshape": 3859,
      "amb": 3860,
      "agger": 3861,
      "Ġours": 3862,
      "umn": 3863,
      "Ġjobs": 3864,
      "Ġkeeping": 3865,
      "Ġscen": 3866,
      "Ġspec": 3867,
      "Ġterms": 3868,
      "Ġgrowing": 3869,
      "Ġincred": 3870,
      "Ġsteps": 3871,
      "Ġoptions": 3872,
      "Ġsymp": 3873,
      "Ġnorth": 3874,
      "Ġfilm": 3875,
      "weight": 3876,
      "Ġstrawberries": 3877,
      "Ġillegal": 3878,
      "Ġcooper": 3879,
      "Ġpsych": 3880,
      "Ġaccustomed": 3881,
      "ith": 3882,
      "ym": 3883,
      "Ġtail": 3884,
      "Ġdare": 3885,
      "ats": 3886,
      "Ġbom": 3887,
      "Ġlou": 3888,
      "Ġaside": 3889,
      "Ġjour": 3890,
      "uted": 3891,
      "Ġsale": 3892,
      "illy": 3893,
      "Ġnowhere": 3894,
      "Ġenc": 3895,
      "box": 3896,
      "apt": 3897,
      "Ġoldest": 3898,
      "Ġacqu": 3899,
      "Ġswear": 3900,
      "Ġbrit": 3901,
      "Ġfinan": 3902,
      "Ġreserv": 3903,
      "Ġtrains": 3904,
      "Ġwarn": 3905,
      "Ġbitten": 3906,
      "Ġactress": 3907,
      "Ġhunting": 3908,
      "Ġnearby": 3909,
      "Ġobs": 3910,
      "Ġselling": 3911,
      "Ġinfl": 3912,
      "Ġgenius": 3913,
      "Ġapprove": 3914,
      "Ġloudly": 3915,
      "Ġpuzz": 3916,
      "Ġdisagree": 3917,
      "oys": 3918,
      "umber": 3919,
      "val": 3920,
      "word": 3921,
      "zing": 3922,
      "Ġtire": 3923,
      "Ġdig": 3924,
      "Ġdrew": 3925,
      "Ġlat": 3926,
      "Ġfashion": 3927,
      "ening": 3928,
      "order": 3929,
      "Ġmeals": 3930,
      "Ġround": 3931,
      "Ġspo": 3932,
      "ouraged": 3933,
      "Ġdevelop": 3934,
      "Ġpleas": 3935,
      "Ġboots": 3936,
      "elve": 3937,
      "Ġstubb": 3938,
      "Ġarch": 3939,
      "Ġpray": 3940,
      "Ġamount": 3941,
      "Ġoverweight": 3942,
      "Ġtwelve": 3943,
      "Ġapply": 3944,
      "Ġbegun": 3945,
      "Ġsecurity": 3946,
      "Ġenjoys": 3947,
      "Ġcru": 3948,
      "Ġwriter": 3949,
      "Ġserved": 3950,
      "Ġreliable": 3951,
      "Ġdreamed": 3952,
      "Ġcomputers": 3953,
      "Ġbags": 3954,
      "Ġsuccessful": 3955,
      "Ġoppos": 3956,
      "Ġcenter": 3957,
      "Ġimproved": 3958,
      "Ġslipped": 3959,
      "Ġgentleman": 3960,
      "Ġromantic": 3961,
      "Ġexercise": 3962,
      "Ġinterpre": 3963,
      "Ġjeans": 3964,
      "Ġstubborn": 3965,
      "Ġtoys": 3966,
      "erry": 3967,
      "thy": 3968,
      "Ġmember": 3969,
      "Ġmeasure": 3970,
      "Ġstat": 3971,
      "Ġexagger": 3972,
      "Ġrode": 3973,
      "Ġfinding": 3974,
      "ipl": 3975,
      "Ġrelig": 3976,
      "Ġwheel": 3977,
      "Ġdiscovered": 3978,
      "Ġcups": 3979,
      "Ġsimp": 3980,
      "Ġriding": 3981,
      "Ġparis": 3982,
      "Ġdeeply": 3983,
      "Ġarguing": 3984,
      "Ġbothering": 3985,
      "Ġsurvived": 3986,
      "Ġdirection": 3987,
      "Ġpossibly": 3988,
      "Ġuncom": 3989,
      "Ġbarking": 3990,
      "Ġairplane": 3991,
      "Ġnaive": 3992,
      "bly": 3993,
      "mare": 3994,
      "pa": 3995,
      "Ġver": 3996,
      "Ġaim": 3997,
      "Ġmouse": 3998,
      "erve": 3999,
      "Ġfield": 4000,
      "omet": 4001,
      "iculous": 4002,
      "cted": 4003,
      "Ġspin": 4004,
      "Ġages": 4005,
      "Ġafric": 4006,
      "Ġpointed": 4007,
      "aves": 4008,
      "Ġflash": 4009,
      "Ġnightmare": 4010,
      "Ġpale": 4011,
      "Ġbrand": 4012,
      "Ġwished": 4013,
      "ipe": 4014,
      "Ġresc": 4015,
      "Ġacted": 4016,
      "Ġaccidents": 4017,
      "Ġexample": 4018,
      "Ġraw": 4019,
      "Ġinsur": 4020,
      "Ġemerg": 4021,
      "Ġscreaming": 4022,
      "Ġentirely": 4023,
      "Ġgraduate": 4024,
      "Ġconstru": 4025,
      "ratul": 4026,
      "Ġfrightened": 4027,
      "Ġcongratul": 4028,
      "Ġcoincidence": 4029,
      "Ġmathematics": 4030,
      "Ġthroat": 4031,
      "yond": 4032,
      "Ġwide": 4033,
      "Ġdouble": 4034,
      "Ġcit": 4035,
      "eding": 4036,
      "Ġbeyond": 4037,
      "Ġlimit": 4038,
      "Ġshame": 4039,
      "Ġrely": 4040,
      "Ġforty": 4041,
      "Ġrough": 4042,
      "Ġconn": 4043,
      "Ġbucket": 4044,
      "Ġprin": 4045,
      "Ġflag": 4046,
      "Ġpersonally": 4047,
      "Ġstrict": 4048,
      "Ġbiggest": 4049,
      "Ġwarning": 4050,
      "Ġsecrets": 4051,
      "Ġclassmates": 4052,
      "Ġtallest": 4053,
      "Ġsometime": 4054,
      "Ġcourt": 4055,
      "Ġexperi": 4056,
      "Ġruined": 4057,
      "Ġdeserves": 4058,
      "Ġsucceeded": 4059,
      "Ġfortune": 4060,
      "Ġclimbing": 4061,
      "ounced": 4062,
      "Ġearns": 4063,
      "Ġwealthy": 4064,
      "Ġachieve": 4065,
      "Ġvictim": 4066,
      "Ġabandoned": 4067,
      "Ġmethod": 4068,
      "Ġknowledge": 4069,
      "Ġtongue": 4070,
      "apped": 4071,
      "made": 4072,
      "Ġtag": 4073,
      "Ġtoy": 4074,
      "Ġaverage": 4075,
      "Ġcath": 4076,
      "Ġpil": 4077,
      "Ġnons": 4078,
      "Ġincl": 4079,
      "ett": 4080,
      "Ġreact": 4081,
      "Ġsepar": 4082,
      "ams": 4083,
      "Ġplate": 4084,
      "ives": 4085,
      "Ġwherever": 4086,
      "igr": 4087,
      "Ġstarts": 4088,
      "Ġpromoted": 4089,
      "Ġcooked": 4090,
      "Ġcheer": 4091,
      "Ġends": 4092,
      "Ġretired": 4093,
      "Ġsecretary": 4094,
      "Ġelection": 4095,
      "Ġcarrying": 4096,
      "Ġvalue": 4097,
      "Ġfifty": 4098,
      "Ġpossibility": 4099,
      "Ġdescribe": 4100,
      "Ġbecoming": 4101,
      "Ġmotivated": 4102,
      "Ġeducation": 4103,
      "Ġwitness": 4104,
      "Ġcarpenter": 4105,
      "cul": 4106,
      "he": 4107,
      "Ġtent": 4108,
      "inary": 4109,
      "Ġba": 4110,
      "Ġnar": 4111,
      "Ġoh": 4112,
      "Ġstab": 4113,
      "Ġrev": 4114,
      "riate": 4115,
      "Ġhowever": 4116,
      "ulted": 4117,
      "Ġlog": 4118,
      "Ġpeel": 4119,
      "Ġfaith": 4120,
      "Ġblo": 4121,
      "Ġremark": 4122,
      "Ġhardest": 4123,
      "Ġappa": 4124,
      "Ġscrew": 4125,
      "Ġscrat": 4126,
      "Ġthanked": 4127,
      "Ġstrugg": 4128,
      "Ġskill": 4129,
      "Ġrelie": 4130,
      "Ġsounded": 4131,
      "Ġretire": 4132,
      "Ġsmaller": 4133,
      "Ġdecisions": 4134,
      "Ġhumor": 4135,
      "Ġceiling": 4136,
      "Ġambul": 4137,
      "Ġslipp": 4138,
      "Ġunfair": 4139,
      "Ġdebt": 4140,
      "Ġcurtains": 4141,
      "Ġsixt": 4142,
      "Ġlouder": 4143,
      "Ġsimply": 4144,
      "Ġinsurance": 4145,
      "agh": 4146,
      "Ġcy": 4147,
      "aries": 4148,
      "Ġnature": 4149,
      "Ġodd": 4150,
      "store": 4151,
      "Ġmel": 4152,
      "itious": 4153,
      "imate": 4154,
      "Ġspagh": 4155,
      "Ġloan": 4156,
      "Ġcomment": 4157,
      "Ġconcl": 4158,
      "Ġwaiter": 4159,
      "Ġrooms": 4160,
      "Ġpoker": 4161,
      "Ġbrain": 4162,
      "Ġsurger": 4163,
      "Ġ200": 4164,
      "Ġcrack": 4165,
      "Ġhaircut": 4166,
      "Ġrelated": 4167,
      "Ġbegins": 4168,
      "Ġcapable": 4169,
      "Ġdanced": 4170,
      "Ġdistur": 4171,
      "Ġselfish": 4172,
      "Ġcustomers": 4173,
      "Ġhyp": 4174,
      "Ġservice": 4175,
      "Ġnonsense": 4176,
      "etti": 4177,
      "Ġambulance": 4178,
      "Ġspaghetti": 4179,
      "Ġsurgery": 4180,
      "zed": 4181,
      "Ġwol": 4182,
      "Ġhiking": 4183,
      "Ġcere": 4184,
      "Ġpink": 4185,
      "Ġinh": 4186,
      "ope": 4187,
      "anding": 4188,
      "usion": 4189,
      "Ġhomeless": 4190,
      "Ġrob": 4191,
      "Ġvase": 4192,
      "Ġlovely": 4193,
      "Ġflood": 4194,
      "Ġhandwrit": 4195,
      "Ġfinal": 4196,
      "Ġsings": 4197,
      "Ġreput": 4198,
      "Ġcrush": 4199,
      "Ġsentences": 4200,
      "Ġlessons": 4201,
      "Ġprisoner": 4202,
      "Ġsubway": 4203,
      "Ġterribly": 4204,
      "Ġconsidering": 4205,
      "Ġsquare": 4206,
      "Ġenemies": 4207,
      "Ġfingers": 4208,
      "Ġsuffering": 4209,
      "Ġimpression": 4210,
      "Ġcelebrate": 4211,
      "Ġpersuade": 4212,
      "Ġflew": 4213,
      "Ġissue": 4214,
      "Ġhorrible": 4215,
      "gy": 4216,
      "town": 4217,
      "reen": 4218,
      "Ġmix": 4219,
      "anes": 4220,
      "Ġfog": 4221,
      "Ġpapers": 4222,
      "Ġshook": 4223,
      "ales": 4224,
      "ential": 4225,
      "Ġsew": 4226,
      "Ġchat": 4227,
      "Ġdele": 4228,
      "Ġintended": 4229,
      "Ġuns": 4230,
      "issors": 4231,
      "Ġcompared": 4232,
      "Ġunderstanding": 4233,
      "Ġscissors": 4234,
      "Ġturns": 4235,
      "Ġaccess": 4236,
      "Ġrainy": 4237,
      "Ġowner": 4238,
      "Ġdesign": 4239,
      "cient": 4240,
      "Ġwarmer": 4241,
      "Ġridiculous": 4242,
      "place": 4243,
      "Ġconditions": 4244,
      "Ġfluently": 4245,
      "Ġautom": 4246,
      "Ġautumn": 4247,
      "Ġcommun": 4248,
      "Ġprofessional": 4249,
      "Ġdamage": 4250,
      "Ġknocked": 4251,
      "Ġsearched": 4252,
      "Ġcounting": 4253,
      "Ġinternet": 4254,
      "Ġclouds": 4255,
      "Ġstabbed": 4256,
      "Ġhandwriting": 4257,
      "bow": 4258,
      "kn": 4259,
      "min": 4260,
      "rup": 4261,
      "rees": 4262,
      "Ġdust": 4263,
      "Ġmask": 4264,
      "eral": 4265,
      "Ġcave": 4266,
      "eds": 4267,
      "Ġport": 4268,
      "Ġliter": 4269,
      "Ġjew": 4270,
      "cture": 4271,
      "Ġtrunk": 4272,
      "Ġhelm": 4273,
      "Ġrobbed": 4274,
      "Ġvan": 4275,
      "Ġputting": 4276,
      "Ġawful": 4277,
      "izing": 4278,
      "Ġscold": 4279,
      "Ġaccent": 4280,
      "ysit": 4281,
      "Ġpercent": 4282,
      "Ġcontest": 4283,
      "Ġcanada": 4284,
      "Ġbabysit": 4285,
      "Ġweekends": 4286,
      "Ġsells": 4287,
      "Ġtouched": 4288,
      "Ġbreathe": 4289,
      "Ġpackage": 4290,
      "Ġgenerally": 4291,
      "Ġpolitician": 4292,
      "Ġresponsibility": 4293,
      "Ġdivorce": 4294,
      "Ġcommitted": 4295,
      "Ġmodel": 4296,
      "Ġeffect": 4297,
      "Ġdesperate": 4298,
      "Ġopposite": 4299,
      "pes": 4300,
      "Ġtied": 4301,
      "Ġtune": 4302,
      "Ġtatt": 4303,
      "Ġwound": 4304,
      "Ġwrap": 4305,
      "Ġcd": 4306,
      "Ġpig": 4307,
      "Ġwhist": 4308,
      "stick": 4309,
      "Ġlit": 4310,
      "Ġmark": 4311,
      "Ġnotes": 4312,
      "Ġshoulders": 4313,
      "epend": 4314,
      "Ġconven": 4315,
      "Ġoffended": 4316,
      "Ġvoted": 4317,
      "Ġpean": 4318,
      "Ġbelow": 4319,
      "Ġplanet": 4320,
      "ption": 4321,
      "Ġopening": 4322,
      "Ġslam": 4323,
      "Ġchem": 4324,
      "300": 4325,
      "Ġchanging": 4326,
      "Ġreluct": 4327,
      "Ġreasonable": 4328,
      "Ġgrandpa": 4329,
      "Ġcolors": 4330,
      "Ġsoldier": 4331,
      "Ġillness": 4332,
      "Ġsilver": 4333,
      "Ġclimate": 4334,
      "Ġargument": 4335,
      "Ġoccas": 4336,
      "Ġcousins": 4337,
      "Ġmirac": 4338,
      "Ġtricks": 4339,
      "Ġparticularly": 4340,
      "Ġkilomet": 4341,
      "Ġnegot": 4342,
      "Ġblanket": 4343,
      "Ġemergency": 4344,
      "Ġcitiz": 4345,
      "Ġtattoo": 4346,
      "squ": 4347,
      "uary": 4348,
      "yard": 4349,
      "ounce": 4350,
      "Ġdump": 4351,
      "Ġcult": 4352,
      "Ġfries": 4353,
      "vert": 4354,
      "Ġshave": 4355,
      "Ġspot": 4356,
      "Ġspicy": 4357,
      "Ġhappier": 4358,
      "Ġovers": 4359,
      "Ġtwins": 4360,
      "Ġpoll": 4361,
      "Ġdowntown": 4362,
      "Ġapplic": 4363,
      "Ġstops": 4364,
      "Ġuseless": 4365,
      "acy": 4366,
      "Ġyoungest": 4367,
      "onscious": 4368,
      "Ġinvented": 4369,
      "enses": 4370,
      "shi": 4371,
      "Ġinterrupt": 4372,
      "Ġdeter": 4373,
      "Ġdetect": 4374,
      "Ġdiscussion": 4375,
      "Ġpublished": 4376,
      "Ġringing": 4377,
      "Ġyelling": 4378,
      "Ġexception": 4379,
      "Ġhanging": 4380,
      "Ġlocated": 4381,
      "Ġtextbook": 4382,
      "Ġunexp": 4383,
      "Ġpills": 4384,
      "Ġinvestig": 4385,
      "Ġexchange": 4386,
      "Ġhomesick": 4387,
      "Ġcruel": 4388,
      "Ġapparently": 4389,
      ",\"": 4390,
      "cin": 4391,
      "xy": 4392,
      "Ġyard": 4393,
      "Ġdra": 4394,
      "Ġled": 4395,
      "Ġfant": 4396,
      "asing": 4397,
      "Ġpitch": 4398,
      "Ġge": 4399,
      "thank": 4400,
      "Ġstared": 4401,
      "Ġonline": 4402,
      "icing": 4403,
      "Ġchairs": 4404,
      "Ġtech": 4405,
      "iles": 4406,
      "Ġclar": 4407,
      "Ġmosqu": 4408,
      "Ġarr": 4409,
      "mploy": 4410,
      "Ġroommate": 4411,
      "Ġblond": 4412,
      "Ġremove": 4413,
      "Ġhurried": 4414,
      "aughters": 4415,
      "Ġcontrib": 4416,
      "Ġdesp": 4417,
      "Ġwondering": 4418,
      "Ġactive": 4419,
      "Ġsnowed": 4420,
      "Ġconfident": 4421,
      "Ġeleven": 4422,
      "Ġrespond": 4423,
      "Ġtranslation": 4424,
      "Ġgifts": 4425,
      "Ġindepend": 4426,
      "Ġirrit": 4427,
      "Ġnewspapers": 4428,
      "Ġpacked": 4429,
      "Ġcentury": 4430,
      "Ġdocuments": 4431,
      "Ġstealing": 4432,
      "Ġunconscious": 4433,
      "Ġassistance": 4434,
      "Ġcancel": 4435,
      "Ġprevented": 4436,
      "Ġweapons": 4437,
      "Ġastron": 4438,
      "Ġoccurred": 4439,
      "Ġpredict": 4440,
      "Ġsurrounded": 4441,
      "Ġpleasant": 4442,
      "Ġinterpreter": 4443,
      "Ġexperienced": 4444,
      "Ġunexpected": 4445,
      "yle": 4446,
      "Ġtar": 4447,
      "Ġtip": 4448,
      "Ġsore": 4449,
      "Ġdipl": 4450,
      "Ġdaughters": 4451,
      "Ġtomato": 4452,
      "Ġhallow": 4453,
      "Ġmexic": 4454,
      "Ġstock": 4455,
      "Ġreject": 4456,
      "Ġsushi": 4457,
      "Ġchall": 4458,
      "Ġrow": 4459,
      "Ġrate": 4460,
      "Ġboil": 4461,
      "Ġadj": 4462,
      "Ġmisses": 4463,
      "Ġanswering": 4464,
      "Ġmater": 4465,
      "Ġattic": 4466,
      "Ġcontent": 4467,
      "Ġsnoring": 4468,
      "Ġpassword": 4469,
      "Ġsupplies": 4470,
      "Ġconfessed": 4471,
      "Ġdreaming": 4472,
      "Ġincident": 4473,
      "Ġbottles": 4474,
      "Ġhidden": 4475,
      "Ġcrossing": 4476,
      "Ġtyph": 4477,
      "Ġcurrently": 4478,
      "Ġvalu": 4479,
      "Ġtower": 4480,
      "Ġmentioned": 4481,
      "Ġlocal": 4482,
      "Ġswitched": 4483,
      "Ġdawn": 4484,
      "Ġsquirrels": 4485,
      "Ġreservation": 4486,
      "Ġdiplom": 4487,
      "Ġhalloween": 4488,
      "aire": 4489,
      "can": 4490,
      "gage": 4491,
      "me": 4492,
      "Ġtask": 4493,
      "atient": 4494,
      "Ġlab": 4495,
      "lled": 4496,
      "Ġpin": 4497,
      "Ġpear": 4498,
      "Ġpra": 4499,
      "arily": 4500,
      "Ġgained": 4501,
      "Ġdozen": 4502,
      "though": 4503,
      "they": 4504,
      "Ġmeters": 4505,
      "Ġwasted": 4506,
      "Ġcandle": 4507,
      "Ġalthough": 4508,
      "Ġrare": 4509,
      "Ġuses": 4510,
      "Ġspite": 4511,
      "eless": 4512,
      "aches": 4513,
      "Ġcompare": 4514,
      "Ġoverlook": 4515,
      "Ġcares": 4516,
      "Ġstrang": 4517,
      "Ġcheek": 4518,
      "Ġcrash": 4519,
      "Ġconsult": 4520,
      "Ġvisitors": 4521,
      "shirt": 4522,
      "Ġregard": 4523,
      "Ġapology": 4524,
      "Ġexperiment": 4525,
      "Ġmagic": 4526,
      "Ġcows": 4527,
      "Ġbleeding": 4528,
      "Ġfrog": 4529,
      "Ġfrozen": 4530,
      "Ġapplied": 4531,
      "Ġcigarette": 4532,
      "Ġcigarettes": 4533,
      "Ġghosts": 4534,
      "Ġdrowned": 4535,
      "Ġdegrees": 4536,
      "Ġrabbits": 4537,
      "Ġuncomfortable": 4538,
      "Ġflashlight": 4539,
      "Ġnarrow": 4540,
      "ipped": 4541,
      "Ġtun": 4542,
      "Ġsilly": 4543,
      "Ġdiz": 4544,
      "Ġdumb": 4545,
      "Ġmr": 4546,
      "erved": 4547,
      "Ġbatt": 4548,
      "Ġfal": 4549,
      "vere": 4550,
      "Ġstays": 4551,
      "itten": 4552,
      "allow": 4553,
      "ppy": 4554,
      "Ġsail": 4555,
      "Ġsafet": 4556,
      "que": 4557,
      "Ġprinc": 4558,
      "Ġmayor": 4559,
      "Ġimpatient": 4560,
      "Ġgrant": 4561,
      "Ġgreet": 4562,
      "Ġresist": 4563,
      "Ġfoc": 4564,
      "Ġsnake": 4565,
      "Ġarriving": 4566,
      "Ġgreatest": 4567,
      "Ġskirt": 4568,
      "ucky": 4569,
      "Ġpreparing": 4570,
      "Ġexplos": 4571,
      "Ġpunish": 4572,
      "Ġmemor": 4573,
      "Ġbenef": 4574,
      "Ġdamaged": 4575,
      "Ġunemploy": 4576,
      "Ġproperly": 4577,
      "Ġdepartment": 4578,
      "Ġmisunderstood": 4579,
      "Ġcandles": 4580,
      "Ġsalesman": 4581,
      "Ġinflu": 4582,
      "Ġnegoti": 4583,
      "Ġmosquit": 4584,
      "Ġdizzy": 4585,
      "Ġsafety": 4586,
      "Ġprincip": 4587,
      "bag": 4588,
      "ges": 4589,
      "vard": 4590,
      "Ġimit": 4591,
      "Ġmow": 4592,
      "Ġmud": 4593,
      "eria": 4594,
      "Ġcro": 4595,
      "Ġleak": 4596,
      "Ġnational": 4597,
      "thirty": 4598,
      "Ġbee": 4599,
      "Ġancient": 4600,
      "Ġky": 4601,
      "Ġshaved": 4602,
      "itude": 4603,
      "ril": 4604,
      "Ġchop": 4605,
      "Ġchest": 4606,
      "Ġnodd": 4607,
      "Ġspan": 4608,
      "Ġplastic": 4609,
      "Ġupon": 4610,
      "ilities": 4611,
      "unate": 4612,
      "Ġtalkative": 4613,
      "Ġcoin": 4614,
      "Ġcoins": 4615,
      "Ġunif": 4616,
      "Ġvain": 4617,
      "Ġbackyard": 4618,
      "Ġgray": 4619,
      "Ġswims": 4620,
      "Ġrecons": 4621,
      "whose": 4622,
      "Ġ15": 4623,
      "Ġapril": 4624,
      "Ġlightning": 4625,
      "Ġregular": 4626,
      "Ġincor": 4627,
      "Ġcorrectly": 4628,
      "Ġindia": 4629,
      "Ġterrif": 4630,
      "Ġtasted": 4631,
      "Ġslee": 4632,
      "Ġburg": 4633,
      "Ġmurd": 4634,
      "Ġrecommended": 4635,
      "Ġleader": 4636,
      "Ġtalent": 4637,
      "Ġharvard": 4638,
      "Ġpillow": 4639,
      "Ġquality": 4640,
      "Ġsplit": 4641,
      "Ġinstructions": 4642,
      "Ġgunshot": 4643,
      "Ġconstruction": 4644,
      "Ġreputation": 4645,
      "Ġuniform": 4646,
      "!\"": 4647,
      "fl": 4648,
      "gu": 4649,
      "ka": 4650,
      "law": 4651,
      "nal": 4652,
      "Ġtires": 4653,
      "Ġtore": 4654,
      "inting": 4655,
      "Ġcraw": 4656,
      "Ġcities": 4657,
      "Ġfas": 4658,
      "Ġnon": 4659,
      "Ġgri": 4660,
      "Ġgath": 4661,
      "Ġgym": 4662,
      "Ġlips": 4663,
      "Ġstage": 4664,
      "anta": 4665,
      "Ġsev": 4666,
      "Ġsees": 4667,
      "amm": 4668,
      "Ġaltern": 4669,
      "Ġsoap": 4670,
      "Ġload": 4671,
      "Ġunw": 4672,
      "Ġbookstore": 4673,
      "Ġadults": 4674,
      "Ġparties": 4675,
      "ians": 4676,
      "Ġshovel": 4677,
      "Ġcolder": 4678,
      "Ġcheated": 4679,
      "Ġconfusing": 4680,
      "Ġhigher": 4681,
      "Ġcomplex": 4682,
      "Ġmedical": 4683,
      "ibly": 4684,
      "Ġcomplaints": 4685,
      "Ġsoul": 4686,
      "Ġseconds": 4687,
      "Ġcalcul": 4688,
      "Ġunlucky": 4689,
      "Ġdirect": 4690,
      "Ġbutterf": 4691,
      "Ġengineer": 4692,
      "Ġassistant": 4693,
      "Ġbowl": 4694,
      "Ġeconomy": 4695,
      "Ġbomb": 4696,
      "Ġafrica": 4697,
      "Ġpilot": 4698,
      "known": 4699,
      "Ġkilometers": 4700,
      "Ġfantastic": 4701,
      "cles": 4702,
      "nel": 4703,
      "year": 4704,
      "Ġhost": 4705,
      "lley": 4706,
      "Ġpork": 4707,
      "idays": 4708,
      "Ġange": 4709,
      "Ġeast": 4710,
      "Ġstung": 4711,
      "Ġjune": 4712,
      "eable": 4713,
      "Ġalb": 4714,
      "illed": 4715,
      "Ġtools": 4716,
      "Ġunb": 4717,
      "Ġpref": 4718,
      "Ġlemon": 4719,
      "Ġthoughts": 4720,
      "Ġbelt": 4721,
      "Ġblamed": 4722,
      "ization": 4723,
      "Ġwatches": 4724,
      "Ġwishes": 4725,
      "Ġowes": 4726,
      "Ġfox": 4727,
      "Ġminor": 4728,
      "acter": 4729,
      "Ġfarmer": 4730,
      "Ġtries": 4731,
      "Ġbaggage": 4732,
      "Ġfully": 4733,
      "Ġheavier": 4734,
      "Ġvolley": 4735,
      "Ġfrequ": 4736,
      "Ġdelayed": 4737,
      "Ġburning": 4738,
      "Ġrequire": 4739,
      "Ġthousands": 4740,
      "Ġreplace": 4741,
      "Ġvolunteer": 4742,
      "Ġvolunteers": 4743,
      "Ġweighs": 4744,
      "Ġreleased": 4745,
      "Ġoriginal": 4746,
      "Ġbeside": 4747,
      "Ġscratch": 4748,
      "Ġrelieved": 4749,
      "Ġtechn": 4750,
      "Ġrejected": 4751,
      "Ġfalse": 4752,
      "Ġalternative": 4753,
      "Ġvolleyball": 4754,
      "com": 4755,
      "gth": 4756,
      "hib": 4757,
      "jam": 4758,
      "ob": 4759,
      "Ġtid": 4760,
      "Ġmass": 4761,
      "Ġlines": 4762,
      "orthy": 4763,
      "Ġhaun": 4764,
      "Ġeve": 4765,
      "vering": 4766,
      "Ġstren": 4767,
      "ament": 4768,
      "iring": 4769,
      "Ġnois": 4770,
      "Ġrot": 4771,
      "Ġruss": 4772,
      "Ġrushed": 4773,
      "Ġspr": 4774,
      "Ġreads": 4775,
      "Ġpepper": 4776,
      "Ġrights": 4777,
      "Ġtwin": 4778,
      "Ġpoc": 4779,
      "Ġshowing": 4780,
      "Ġshoe": 4781,
      "Ġstruck": 4782,
      "Ġadvent": 4783,
      "Ġsnakes": 4784,
      "Ġslice": 4785,
      "Ġforgetting": 4786,
      "Ġconfirm": 4787,
      "Ġdiscount": 4788,
      "Ġnumbers": 4789,
      "Ġrestaurants": 4790,
      "Ġhumili": 4791,
      "Ġgrapes": 4792,
      "Ġpacking": 4793,
      "Ġcloset": 4794,
      "Ġ300": 4795,
      "Ġcreative": 4796,
      "Ġembarrassing": 4797,
      "Ġneckl": 4798,
      "Ġemployees": 4799,
      "Ġtowards": 4800,
      "Ġitaly": 4801,
      "Ġconcentrate": 4802,
      "Ġelephants": 4803,
      "Ġteenager": 4804,
      "Ġbritish": 4805,
      "Ġhelmet": 4806,
      "Ġvaluable": 4807,
      "Ġexplosion": 4808,
      "Ġmosquito": 4809,
      "Ġnodded": 4810,
      "Ġhaunted": 4811,
      "Ġstrength": 4812,
      "ples": 4813,
      "tub": 4814,
      "wise": 4815,
      "Ġsanta": 4816,
      "erk": 4817,
      "Ġfought": 4818,
      "Ġpays": 4819,
      "thus": 4820,
      "Ġhammer": 4821,
      "Ġine": 4822,
      "Ġinfect": 4823,
      "Ġlif": 4824,
      "itor": 4825,
      "Ġmars": 4826,
      "Ġalike": 4827,
      "Ġworn": 4828,
      "Ġrome": 4829,
      "ender": 4830,
      "ieth": 4831,
      "olic": 4832,
      "Ġlottery": 4833,
      "Ġbreaking": 4834,
      "Ġprettier": 4835,
      "Ġmetal": 4836,
      "Ġcrashed": 4837,
      "Ġheading": 4838,
      "Ġdisco": 4839,
      "Ġeyesight": 4840,
      "Ġobl": 4841,
      "pecially": 4842,
      "Ġexamined": 4843,
      "Ġsett": 4844,
      "mony": 4845,
      "Ġbathtub": 4846,
      "Ġarmy": 4847,
      "Ġheavily": 4848,
      "Ġespecially": 4849,
      "Ġdistract": 4850,
      "Ġtopic": 4851,
      "Ġprotest": 4852,
      "Ġunlocked": 4853,
      "Ġbarn": 4854,
      "Ġpressed": 4855,
      "Ġrisks": 4856,
      "Ġcourageous": 4857,
      "Ġambitious": 4858,
      "Ġfluent": 4859,
      "Ġcustomer": 4860,
      "Ġproducts": 4861,
      "Ġpositive": 4862,
      "Ġunderest": 4863,
      "Ġrolled": 4864,
      "Ġscientist": 4865,
      "Ġoperation": 4866,
      "Ġassumed": 4867,
      "Ġcriminal": 4868,
      "Ġjournal": 4869,
      "Ġspinach": 4870,
      "Ġslippery": 4871,
      "Ġconvenient": 4872,
      "Ġtarget": 4873,
      "Ġincorrect": 4874,
      "Ġalbum": 4875,
      "thusi": 4876,
      "back": 4877,
      "iven": 4878,
      "jud": 4879,
      "uries": 4880,
      "worthy": 4881,
      "Ġath": 4882,
      "Ġyog": 4883,
      "res": 4884,
      "Ġske": 4885,
      "ony": 4886,
      "Ġcart": 4887,
      "Ġciv": 4888,
      "Ġlaughter": 4889,
      "Ġfirm": 4890,
      "Ġnic": 4891,
      "Ġwhales": 4892,
      "iders": 4893,
      "Ġbeef": 4894,
      "Ġstress": 4895,
      "Ġshared": 4896,
      "Ġforb": 4897,
      "Ġwiped": 4898,
      "Ġknowing": 4899,
      "adays": 4900,
      "Ġability": 4901,
      "erer": 4902,
      "Ġchim": 4903,
      "Ġtrad": 4904,
      "Ġtrap": 4905,
      "Ġrac": 4906,
      "ulse": 4907,
      "Ġworker": 4908,
      "Ġnowadays": 4909,
      "Ġrocks": 4910,
      "Ġbump": 4911,
      "Ġbackpack": 4912,
      "Ġlevel": 4913,
      "mbered": 4914,
      "Ġbuses": 4915,
      "Ġadult": 4916,
      "Ġblock": 4917,
      "Ġhurting": 4918,
      "Ġpolicy": 4919,
      "Ġfuneral": 4920,
      "Ġlistens": 4921,
      "Ġfastest": 4922,
      "Ġwalls": 4923,
      "Ġluckily": 4924,
      "Ġlegal": 4925,
      "Ġprisoners": 4926,
      "Ġhonor": 4927,
      "Ġpostc": 4928,
      "Ġdrawing": 4929,
      "Ġapprop": 4930,
      "Ġmagn": 4931,
      "Ġladies": 4932,
      "Ġreminds": 4933,
      "Ġaccomplish": 4934,
      "Ġcarpet": 4935,
      "Ġrelaxed": 4936,
      "Ġscarf": 4937,
      "Ġpersuaded": 4938,
      "Ġparticipate": 4939,
      "Ġtourists": 4940,
      "Ġscene": 4941,
      "Ġfinancial": 4942,
      "Ġconnect": 4943,
      "Ġslammed": 4944,
      "Ġdeterm": 4945,
      "Ġburgl": 4946,
      "Ġfascin": 4947,
      "Ġgathered": 4948,
      "aven": 4949,
      "iving": 4950,
      "ole": 4951,
      "rument": 4952,
      "ware": 4953,
      "Ġdiss": 4954,
      "Ġmult": 4955,
      "Ġbare": 4956,
      "Ġlin": 4957,
      "ingu": 4958,
      "Ġfurious": 4959,
      "Ġfainted": 4960,
      "Ġpages": 4961,
      "ids": 4962,
      "idate": 4963,
      "Ġitself": 4964,
      "child": 4965,
      "Ġsteak": 4966,
      "Ġshirts": 4967,
      "Ġfork": 4968,
      "Ġsocial": 4969,
      "Ġspiders": 4970,
      "Ġenthusi": 4971,
      "Ġprohib": 4972,
      "ession": 4973,
      "Ġvar": 4974,
      "igner": 4975,
      "Ġcompl": 4976,
      "Ġtruly": 4977,
      "Ġflour": 4978,
      "Ġpajam": 4979,
      "Ġdisaster": 4980,
      "Ġident": 4981,
      "ogr": 4982,
      "tee": 4983,
      "prints": 4984,
      "Ġaction": 4985,
      "Ġtreasure": 4986,
      "Ġstreets": 4987,
      "Ġdifferently": 4988,
      "Ġinstrument": 4989,
      "Ġcharged": 4990,
      "Ġrug": 4991,
      "Ġhonesty": 4992,
      "Ġinformed": 4993,
      "Ġcops": 4994,
      "Ġmurdered": 4995,
      "Ġedge": 4996,
      "Ġholidays": 4997,
      "Ġnormally": 4998,
      "Ġscreamed": 4999,
      "Ġcommittee": 5000,
      "Ġturning": 5001,
      "Ġturkey": 5002,
      "Ġsavings": 5003,
      "Ġdrugs": 5004,
      "Ġprovide": 5005,
      "Ġslightly": 5006,
      "Ġperformance": 5007,
      "Ġenvy": 5008,
      "Ġrelatives": 5009,
      "Ġpostponed": 5010,
      "Ġstatue": 5011,
      "Ġapplication": 5012,
      "Ġclarinet": 5013,
      "Ġtyphoon": 5014,
      "Ġgreeted": 5015,
      "Ġmurderer": 5016,
      "Ġprefers": 5017,
      "Ġforbid": 5018,
      "Ġappropriate": 5019,
      "Ġpajamas": 5020,
      "corn": 5021,
      "ially": 5022,
      "ipt": 5023,
      "mail": 5024,
      "Ġtank": 5025,
      "Ġtoss": 5026,
      "Ġded": 5027,
      "ero": 5028,
      "Ġfake": 5029,
      "Ġpor": 5030,
      "Ġpal": 5031,
      "Ġpure": 5032,
      "Ġpunch": 5033,
      "Ġhaw": 5034,
      "verse": 5035,
      "verted": 5036,
      "otion": 5037,
      "oos": 5038,
      "Ġstro": 5039,
      "Ġut": 5040,
      "Ġshed": 5041,
      "Ġatm": 5042,
      "Ġatom": 5043,
      "Ġsum": 5044,
      "Ġoutdo": 5045,
      "Ġmanners": 5046,
      "Ġdefe": 5047,
      "Ġhers": 5048,
      "Ġconce": 5049,
      "Ġcoach": 5050,
      "aud": 5051,
      "mbur": 5052,
      "Ġpride": 5053,
      "Ġplayers": 5054,
      "Ġremains": 5055,
      "Ġforgiven": 5056,
      "Ġnights": 5057,
      "Ġdecent": 5058,
      "Ġphil": 5059,
      "Ġshows": 5060,
      "Ġcontain": 5061,
      "Ġcontains": 5062,
      "Ġentering": 5063,
      "Ġpopcorn": 5064,
      "Ġinsisted": 5065,
      "Ġdefend": 5066,
      "Ġgrab": 5067,
      "Ġpracticing": 5068,
      "Ġforeigners": 5069,
      "Ġvalent": 5070,
      "Ġpunct": 5071,
      "Ġ50": 5072,
      "Ġ500": 5073,
      "Ġpolitical": 5074,
      "Ġsuffer": 5075,
      "Ġsuffered": 5076,
      "Ġpump": 5077,
      "Ġproduct": 5078,
      "Ġdeceived": 5079,
      "Ġclaimed": 5080,
      "going": 5081,
      "Ġlatest": 5082,
      "Ġoccasion": 5083,
      "Ġbattle": 5084,
      "Ġpockets": 5085,
      "Ġsettled": 5086,
      "lph": 5087,
      "vant": 5088,
      "oudy": 5089,
      "Ġbaking": 5090,
      "Ġlacks": 5091,
      "Ġlung": 5092,
      "Ġlapt": 5093,
      "orge": 5094,
      "Ġpess": 5095,
      "Ġpens": 5096,
      "Ġgamb": 5097,
      "Ġdolph": 5098,
      "Ġhambur": 5099,
      "Ġmeas": 5100,
      "Ġlion": 5101,
      "itam": 5102,
      "Ġjunk": 5103,
      "Ġanytime": 5104,
      "Ġcherry": 5105,
      "Ġrise": 5106,
      "Ġplumber": 5107,
      "Ġwhoever": 5108,
      "Ġcloudy": 5109,
      "Ġunp": 5110,
      "Ġunmar": 5111,
      "Ġvitam": 5112,
      "Ġarrog": 5113,
      "Ġmakeup": 5114,
      "Ġcompos": 5115,
      "Ġresour": 5116,
      "Ġwins": 5117,
      "Ġimportance": 5118,
      "Ġlaughs": 5119,
      "Ġstands": 5120,
      "Ġconscious": 5121,
      "Ġregards": 5122,
      "Ġregrets": 5123,
      "Ġboxes": 5124,
      "Ġabsor": 5125,
      "Ġabsence": 5126,
      "Ġdisappoint": 5127,
      "Ġmedication": 5128,
      "Ġindust": 5129,
      "Ġbillion": 5130,
      "Ġcauses": 5131,
      "ival": 5132,
      "Ġmaid": 5133,
      "Ġbreathing": 5134,
      "Ġwooden": 5135,
      "Ġrented": 5136,
      "Ġhabits": 5137,
      "Ġequal": 5138,
      "Ġkilogr": 5139,
      "Ġquarre": 5140,
      "Ġbattery": 5141,
      "Ġerr": 5142,
      "Ġbullet": 5143,
      "Ġbriefcase": 5144,
      "Ġresearch": 5145,
      "Ġdislike": 5146,
      "Ġstrike": 5147,
      "Ġsympath": 5148,
      "Ġcatholic": 5149,
      "Ġbald": 5150,
      "Ġcommunic": 5151,
      "Ġscolded": 5152,
      "Ġdumped": 5153,
      "Ġchallen": 5154,
      "Ġspanish": 5155,
      "Ġnoisy": 5156,
      "Ġnecklace": 5157,
      "children": 5158,
      "Ġlaptop": 5159,
      "Ġpessim": 5160,
      "Ġunmarried": 5161,
      "aving": 5162,
      "bar": 5163,
      "fire": 5164,
      "oard": 5165,
      "ux": 5166,
      "Ġtig": 5167,
      "Ġtick": 5168,
      "Ġdated": 5169,
      "Ġmut": 5170,
      "Ġbible": 5171,
      "Ġcott": 5172,
      "edy": 5173,
      "Ġpour": 5174,
      "Ġgree": 5175,
      "Ġbeans": 5176,
      "Ġang": 5177,
      "chief": 5178,
      "Ġonions": 5179,
      "icop": 5180,
      "icip": 5181,
      "alled": 5182,
      "Ġasp": 5183,
      "Ġseated": 5184,
      "Ġaboard": 5185,
      "cel": 5186,
      "Ġchew": 5187,
      "Ġalib": 5188,
      "Ġshel": 5189,
      "cked": 5190,
      "Ġspy": 5191,
      "Ġspir": 5192,
      "Ġhelicop": 5193,
      "Ġfrustr": 5194,
      "Ġtool": 5195,
      "ivered": 5196,
      "aker": 5197,
      "Ġcondu": 5198,
      "Ġunre": 5199,
      "Ġunrel": 5200,
      "Ġoffend": 5201,
      "Ġleather": 5202,
      "Ġlecture": 5203,
      "ures": 5204,
      "agious": 5205,
      "agement": 5206,
      "izes": 5207,
      "Ġimpol": 5208,
      "Ġgrade": 5209,
      "Ġremembers": 5210,
      "Ġremembered": 5211,
      "Ġsleeps": 5212,
      "Ġmission": 5213,
      "Ġrecovered": 5214,
      "Ġcontagious": 5215,
      "Ġexpectations": 5216,
      "Ġcleared": 5217,
      "Ġclassical": 5218,
      "Ġskip": 5219,
      "Ġsurprising": 5220,
      "Ġheaded": 5221,
      "Ġdiag": 5222,
      "Ġdiscouraged": 5223,
      "Ġrefu": 5224,
      "Ġmenu": 5225,
      "Ġgrows": 5226,
      "Ġopinions": 5227,
      "Ġbuildings": 5228,
      "azz": 5229,
      "Ġinde": 5230,
      "Ġcafet": 5231,
      "Ġanni": 5232,
      "Ġoption": 5233,
      "Ġignoring": 5234,
      "Ġeighteen": 5235,
      "Ġmiser": 5236,
      "Ġdirections": 5237,
      "Ġjudging": 5238,
      "Ġconstantly": 5239,
      "Ġfiles": 5240,
      "Ġaccomplished": 5241,
      "screen": 5242,
      "Ġbanana": 5243,
      "Ġproperty": 5244,
      "Ġanticip": 5245,
      "Ġdegree": 5246,
      "Ġsensitive": 5247,
      "Ġleaned": 5248,
      "Ġnightmares": 5249,
      "Ġceremony": 5250,
      "Ġoblig": 5251,
      "Ġcivil": 5252,
      "Ġprohibited": 5253,
      "Ġdedic": 5254,
      "Ġkilograms": 5255,
      "Ġhelicopter": 5256,
      "Ġcafeteria": 5257,
      "fo": 5258,
      "hear": 5259,
      "po": 5260,
      "pered": 5261,
      "Ã©": 5262,
      "Ġtoler": 5263,
      "rett": 5264,
      "inate": 5265,
      "onse": 5266,
      "Ġtherap": 5267,
      "Ġlamp": 5268,
      "Ġner": 5269,
      "Ġgro": 5270,
      "Ġos": 5271,
      "Ġome": 5272,
      "lept": 5273,
      "keep": 5274,
      "oto": 5275,
      "cher": 5276,
      "ooth": 5277,
      "Ġshade": 5278,
      "Ġsevere": 5279,
      "Ġtrack": 5280,
      "Ġrat": 5281,
      "Ġplain": 5282,
      "istry": 5283,
      "Ġprec": 5284,
      "osen": 5285,
      "osoph": 5286,
      "Ġtwent": 5287,
      "Ġremote": 5288,
      "Ġearring": 5289,
      "Ġappet": 5290,
      "Ġflute": 5291,
      "Ġhandbag": 5292,
      "Ġbran": 5293,
      "Ġdecor": 5294,
      "Ġbedtime": 5295,
      "Ġvisa": 5296,
      "Ġ12": 5297,
      "Ġtrusts": 5298,
      "uded": 5299,
      "Ġclosely": 5300,
      "Ġsentenced": 5301,
      "Ġokay": 5302,
      "Ġgrandchildren": 5303,
      "Ġsunscreen": 5304,
      "Ġinterrup": 5305,
      "Ġsignal": 5306,
      "Ġresponse": 5307,
      "wards": 5308,
      "Ġsettle": 5309,
      "Ġincome": 5310,
      "Ġindo": 5311,
      "Ġdoubts": 5312,
      "Ġtempor": 5313,
      "fficient": 5314,
      "Ġgrave": 5315,
      "Ġzeal": 5316,
      "Ġyelled": 5317,
      "Ġreminded": 5318,
      "Ġpencils": 5319,
      "Ġtotal": 5320,
      "Ġfortunately": 5321,
      "Ġsandwiches": 5322,
      "Ġharvest": 5323,
      "Ġcollection": 5324,
      "Ġwhispered": 5325,
      "Ġcompetition": 5326,
      "Ġmicrophone": 5327,
      "Ġspecific": 5328,
      "Ġspoiled": 5329,
      "Ġsixty": 5330,
      "Ġchemistry": 5331,
      "Ġangel": 5332,
      "Ġphilosoph": 5333,
      "cakes": 5334,
      "ivor": 5335,
      "king": 5336,
      "name": 5337,
      "oth": 5338,
      "rain": 5339,
      "rite": 5340,
      "tured": 5341,
      "wood": 5342,
      "xible": 5343,
      "Ġtit": 5344,
      "Ġtoast": 5345,
      "Ġsank": 5346,
      "Ġmer": 5347,
      "Ġbent": 5348,
      "lli": 5349,
      "Ġheaven": 5350,
      "Ġham": 5351,
      "str": 5352,
      "Ġstyle": 5353,
      "Ġnotify": 5354,
      "Ġchosen": 5355,
      "Ġworries": 5356,
      "Ġtex": 5357,
      "Ġfem": 5358,
      "Ġcomb": 5359,
      "Ġaggress": 5360,
      "iev": 5361,
      "boy": 5362,
      "Ġpoints": 5363,
      "Ġswallow": 5364,
      "Ġkindness": 5365,
      "Ġ25": 5366,
      "Ġwindy": 5367,
      "Ġcooks": 5368,
      "Ġarrives": 5369,
      "Ġ16": 5370,
      "Ġcamer": 5371,
      "Ġcompleted": 5372,
      "Ġblackboard": 5373,
      "Ġseatbel": 5374,
      "Ġfalls": 5375,
      "Ġdealing": 5376,
      "Ġdiscussing": 5377,
      "Ġmotion": 5378,
      "Ġpatients": 5379,
      "Ġparcel": 5380,
      "Ġ196": 5381,
      "Ġsurvivor": 5382,
      "Ġpaintings": 5383,
      "Ġavoiding": 5384,
      "ode": 5385,
      "Ġpersonality": 5386,
      "Ġcellphone": 5387,
      "Ġcounter": 5388,
      "Ġbetray": 5389,
      "Ġclaims": 5390,
      "Ġhesitate": 5391,
      "Ġcoughing": 5392,
      "Ġdeclined": 5393,
      "Ġinsects": 5394,
      "Ġincredible": 5395,
      "Ġbloom": 5396,
      "Ġtomatoes": 5397,
      "Ġmexico": 5398,
      "Ġgranted": 5399,
      "Ġkyoto": 5400,
      "Ġcompliment": 5401,
      "Ġoutdoors": 5402,
      "Ġvalentine": 5403,
      "Ġalibi": 5404,
      "Ġimpolite": 5405,
      "Ġannivers": 5406,
      "house": 5407,
      "hroom": 5408,
      "Ġthunder": 5409,
      "Ġdy": 5410,
      "Ġdia": 5411,
      "Ġmall": 5412,
      "Ġbake": 5413,
      "Ġbound": 5414,
      "Ġborder": 5415,
      "Ġfaint": 5416,
      "Ġpipe": 5417,
      "Ġbeating": 5418,
      "Ġshr": 5419,
      "Ġshake": 5420,
      "Ġmyst": 5421,
      "entive": 5422,
      "Ġjazz": 5423,
      "Ġtrous": 5424,
      "Ġspain": 5425,
      "Ġspoon": 5426,
      "Ġletting": 5427,
      "Ġcoal": 5428,
      "Ġhopeless": 5429,
      "Ġblushed": 5430,
      "Ġguide": 5431,
      "Ġguards": 5432,
      "Ġswam": 5433,
      "Ġhandker": 5434,
      "Ġparts": 5435,
      "Ġmatches": 5436,
      "Ġcontr": 5437,
      "Ġsnee": 5438,
      "Ġpassion": 5439,
      "Ġslapped": 5440,
      "Ġcheating": 5441,
      "ciation": 5442,
      "Ġmushroom": 5443,
      "Ġaccidentally": 5444,
      "Ġhats": 5445,
      "Ġpicky": 5446,
      "Ġsolar": 5447,
      "Ġricher": 5448,
      "Ġagreement": 5449,
      "Ġsuitable": 5450,
      "Ġassure": 5451,
      "Ġlocker": 5452,
      "Ġpianist": 5453,
      "Ġsafely": 5454,
      "Ġcharming": 5455,
      "Ġcharacter": 5456,
      "Ġtemple": 5457,
      "Ġfreed": 5458,
      "Ġbrilli": 5459,
      "Ġimagined": 5460,
      "Ġ199": 5461,
      "Ġcontacted": 5462,
      "Ġmemories": 5463,
      "Ġfortunate": 5464,
      "Ġpanic": 5465,
      "Ġsuggestions": 5466,
      "Ġskinny": 5467,
      "Ġerror": 5468,
      "Ġdaily": 5469,
      "Ġmisunderstanding": 5470,
      "Ġpronounce": 5471,
      "Ġtorn": 5472,
      "ophone": 5473,
      "Ġresemb": 5474,
      "Ġvictims": 5475,
      "Ġjewel": 5476,
      "Ġpeanuts": 5477,
      "Ġprincipal": 5478,
      "Ġrotten": 5479,
      "Ġpunctual": 5480,
      "Ġquarreling": 5481,
      "Ġzealand": 5482,
      "Ġfemale": 5483,
      "Ġanniversary": 5484,
      "Ġhandkerchief": 5485,
      "aff": 5486,
      "bell": 5487,
      "kind": 5488,
      "live": 5489,
      "pea": 5490,
      "rom": 5491,
      "tch": 5492,
      "tered": 5493,
      "Ġthor": 5494,
      "Ġwis": 5495,
      "Ġwink": 5496,
      "Ġwest": 5497,
      "Ġwra": 5498,
      "Ġsides": 5499,
      "atisf": 5500,
      "Ġpulse": 5501,
      "omed": 5502,
      "Ġink": 5503,
      "Ġinches": 5504,
      "otes": 5505,
      "Ġkore": 5506,
      "Ġkitten": 5507,
      "Ġshakes": 5508,
      "Ġseas": 5509,
      "iron": 5510,
      "Ġtrash": 5511,
      "Ġrail": 5512,
      "Ġsailing": 5513,
      "geon": 5514,
      "Ġgoods": 5515,
      "aka": 5516,
      "Ġcock": 5517,
      "Ġpregn": 5518,
      "Ġwatered": 5519,
      "Ġexport": 5520,
      "Ġketch": 5521,
      "Ġadvert": 5522,
      "Ġunderw": 5523,
      "Ġotherwise": 5524,
      "Ġblowing": 5525,
      "Ġdownlo": 5526,
      "Ġbroad": 5527,
      "Ġflir": 5528,
      "ressing": 5529,
      "Ġdisp": 5530,
      "Ġshown": 5531,
      "Ġaccur": 5532,
      "Ġreserved": 5533,
      "Ġengagement": 5534,
      "Ġwhichever": 5535,
      "why": 5536,
      "Ġdesire": 5537,
      "phones": 5538,
      "Ġpainter": 5539,
      "Ġbehaved": 5540,
      "Ġobst": 5541,
      "Ġrefle": 5542,
      "Ġregrett": 5543,
      "Ġsunny": 5544,
      "Ġpurch": 5545,
      "Ġtravels": 5546,
      "ivid": 5547,
      "Ġthrown": 5548,
      "Ġinjuries": 5549,
      "Ġgradually": 5550,
      "olution": 5551,
      "Ġgeneral": 5552,
      "Ġpuppy": 5553,
      "Ġviolence": 5554,
      "Ġtreatment": 5555,
      "Ġcommand": 5556,
      "Ġcreated": 5557,
      "Ġmillionaire": 5558,
      "Ġreplaced": 5559,
      "Ġquarter": 5560,
      "Ġtends": 5561,
      "Ġ40": 5562,
      "Ġalcoholic": 5563,
      "Ġachieved": 5564,
      "Ġscientists": 5565,
      "Ġshouted": 5566,
      "Ġsource": 5567,
      "Ġenviron": 5568,
      "Ġattempted": 5569,
      "Ġdrummer": 5570,
      "Ġincredibly": 5571,
      "Ġrescued": 5572,
      "Ġprincess": 5573,
      "Ġskills": 5574,
      "Ġwolf": 5575,
      "Ġgrandparents": 5576,
      "Ġoverslept": 5577,
      "Ġstrangers": 5578,
      "Ġunderestimate": 5579,
      "Ġpostcard": 5580,
      "Ġporch": 5581,
      "Ġpessimistic": 5582,
      "Ġaggressive": 5583,
      "Ġmystery": 5584,
      "Ġtrousers": 5585,
      "Ġbrilliant": 5586,
      "Ġthorough": 5587,
      "Ġketchup": 5588,
      "bl": 5589,
      "dom": 5590,
      "gen": 5591,
      "kward": 5592,
      "ral": 5593,
      "Ġdried": 5594,
      "Ġdug": 5595,
      "iny": 5596,
      "Ġbach": 5597,
      "Ġcage": 5598,
      "Ġcuri": 5599,
      "edge": 5600,
      "Ġfate": 5601,
      "Ġpi": 5602,
      "arant": 5603,
      "Ġank": 5604,
      "sters": 5605,
      "Ġlip": 5606,
      "Ġlimp": 5607,
      "Ġlions": 5608,
      "Ġstink": 5609,
      "Ġstret": 5610,
      "Ġstressed": 5611,
      "iter": 5612,
      "Ġgoals": 5613,
      "roph": 5614,
      "ama": 5615,
      "Ġtrade": 5616,
      "Ġracket": 5617,
      "Ġlobby": 5618,
      "Ġcomed": 5619,
      "Ġintim": 5620,
      "Ġlongest": 5621,
      "Ġunim": 5622,
      "Ġunbel": 5623,
      "agers": 5624,
      "Ġbush": 5625,
      "osity": 5626,
      "Ġschools": 5627,
      "Ġblow": 5628,
      "Ġblink": 5629,
      "Ġblouse": 5630,
      "Ġgull": 5631,
      "Ġguarant": 5632,
      "Ġawfully": 5633,
      "Ġawkward": 5634,
      "Ġelbow": 5635,
      "Ġfewer": 5636,
      "Ġkilling": 5637,
      "Ġbitter": 5638,
      "Ġactiv": 5639,
      "Ġskate": 5640,
      "Ġforehead": 5641,
      "Ġrefer": 5642,
      "Ġadded": 5643,
      "Ġsuits": 5644,
      "Ġterror": 5645,
      "Ġsweat": 5646,
      "Ġmessages": 5647,
      "Ġdealt": 5648,
      "Ġbankrupt": 5649,
      "Ġinsane": 5650,
      "Ġtempt": 5651,
      "Ġguitarist": 5652,
      "Ġprior": 5653,
      "Ġthrowing": 5654,
      "Ġchairman": 5655,
      "Ġlowered": 5656,
      "Ġuniverse": 5657,
      "Ġfits": 5658,
      "Ġrequires": 5659,
      "Ġimpressive": 5660,
      "Ġinviting": 5661,
      "Ġfarmers": 5662,
      "Ġmagazines": 5663,
      "Ġdevoted": 5664,
      "Ġwhisper": 5665,
      "Ġincrease": 5666,
      "Ġfrankly": 5667,
      "Ġefforts": 5668,
      "Ġdisgust": 5669,
      "Ġessay": 5670,
      "Ġdivided": 5671,
      "Ġreligious": 5672,
      "Ġmiracle": 5673,
      "Ġcitizen": 5674,
      "Ġmaterial": 5675,
      "guard": 5676,
      "Ġfrequently": 5677,
      "Ġdistracted": 5678,
      "Ġtossed": 5679,
      "Ġunreliable": 5680,
      "Ġdiagn": 5681,
      "Ġnerves": 5682,
      "Ġosaka": 5683,
      "peare": 5684,
      "Ġshakespeare": 5685,
      "Ġenvironment": 5686,
      "Ġunbeliev": 5687,
      "actor": 5688,
      "gers": 5689,
      "nes": 5690,
      "zer": 5691,
      "Ġvers": 5692,
      "Ġthri": 5693,
      "Ġsake": 5694,
      "Ġbased": 5695,
      "anic": 5696,
      "Ġfol": 5697,
      "Ġgain": 5698,
      "Ġgang": 5699,
      "stances": 5700,
      "Ġstew": 5701,
      "Ġshamp": 5702,
      "Ġreward": 5703,
      "Ġdonated": 5704,
      "Ġknees": 5705,
      "adow": 5706,
      "Ġwanting": 5707,
      "iration": 5708,
      "Ġsue": 5709,
      "Ġspider": 5710,
      "Ġframed": 5711,
      "Ġouts": 5712,
      "Ġexit": 5713,
      "Ġcomfort": 5714,
      "Ġcode": 5715,
      "ift": 5716,
      "Ġbud": 5717,
      "Ġjoined": 5718,
      "Ġwaved": 5719,
      "Ġexpenses": 5720,
      "Ġopera": 5721,
      "Ġsword": 5722,
      "Ġmustache": 5723,
      "Ġgreedy": 5724,
      "Ġsits": 5725,
      "Ġshoel": 5726,
      "elled": 5727,
      "Ġminds": 5728,
      "clear": 5729,
      "Ġskating": 5730,
      "Ġstopping": 5731,
      "Ġexplaining": 5732,
      "Ġclothing": 5733,
      "Ġforecast": 5734,
      "Ġforeigner": 5735,
      "Ġfreezing": 5736,
      "Ġsunset": 5737,
      "Ġasso": 5738,
      "Ġcomplains": 5739,
      "Ġtaxes": 5740,
      "Ġslower": 5741,
      "Ġcharity": 5742,
      "Ġaffairs": 5743,
      "Ġrising": 5744,
      "Ġcoats": 5745,
      "Ġruin": 5746,
      "coln": 5747,
      "Ġdenying": 5748,
      "Ġdelight": 5749,
      "Ġdelivered": 5750,
      "Ġvalid": 5751,
      "Ġavoided": 5752,
      "Ġcopies": 5753,
      "Ġrequired": 5754,
      "Ġappearance": 5755,
      "Ġchickens": 5756,
      "Ġadmired": 5757,
      "Ġviolent": 5758,
      "Ġinnoc": 5759,
      "Ġaccompan": 5760,
      "Ġconditioner": 5761,
      "ength": 5762,
      "Ġattracted": 5763,
      "Ġdebts": 5764,
      "Ġspelling": 5765,
      "Ġapplaud": 5766,
      "Ġdevast": 5767,
      "Ġresigned": 5768,
      "Ġdeparture": 5769,
      "Ġbecomes": 5770,
      "Ġitalian": 5771,
      "Ġattempt": 5772,
      "Ġarchite": 5773,
      "Ġconclusion": 5774,
      "Ġdisturb": 5775,
      "Ġrobber": 5776,
      "Ġliterature": 5777,
      "Ġdetective": 5778,
      "Ġindependent": 5779,
      "Ġlincoln": 5780,
      "Ġhawai": 5781,
      "Ġatomic": 5782,
      "Ġtwentieth": 5783,
      "Ġappetite": 5784,
      "Ġcuriosity": 5785,
      "Ġgullible": 5786,
      "Ġshampoo": 5787,
      "10": 5788,
      "ials": 5789,
      "oons": 5790,
      "zil": 5791,
      "Ġaid": 5792,
      "Ġhook": 5793,
      "ata": 5794,
      "Ġcree": 5795,
      "Ġcrew": 5796,
      "Ġloose": 5797,
      "Ġpir": 5798,
      "Ġpand": 5799,
      "Ġheels": 5800,
      "ester": 5801,
      "Ġoxy": 5802,
      "Ġitem": 5803,
      "step": 5804,
      "chair": 5805,
      "Ġlim": 5806,
      "Ġstain": 5807,
      "Ġstun": 5808,
      "Ġshark": 5809,
      "Ġren": 5810,
      "itary": 5811,
      "Ġformed": 5812,
      "Ġneat": 5813,
      "Ġatl": 5814,
      "Ġchau": 5815,
      "Ġchamp": 5816,
      "Ġsomeplace": 5817,
      "Ġsauce": 5818,
      "Ġplat": 5819,
      "Ġexe": 5820,
      "uled": 5821,
      "Ġdemon": 5822,
      "Ġunpack": 5823,
      "Ġbug": 5824,
      "Ġfaces": 5825,
      "Ġflies": 5826,
      "Ġcared": 5827,
      "Ġbrushed": 5828,
      "Ġglanced": 5829,
      "Ġpartner": 5830,
      "Ġdriven": 5831,
      "Ġinterests": 5832,
      "Ġminister": 5833,
      "Ġsneak": 5834,
      "Ġdesert": 5835,
      "Ġacts": 5836,
      "Ġactions": 5837,
      "Ġhunger": 5838,
      "Ġowned": 5839,
      "Ġwashes": 5840,
      "Ġconfidence": 5841,
      "Ġbrings": 5842,
      "Ġbeginner": 5843,
      "Ġregist": 5844,
      "Ġdollar": 5845,
      "Ġsunlight": 5846,
      "Ġsmokes": 5847,
      "Ġimmigr": 5848,
      "Ġreported": 5849,
      "Ġlawyers": 5850,
      "Ġinsulted": 5851,
      "Ġannounced": 5852,
      "Ġcrowbar": 5853,
      "Ġgrades": 5854,
      "Ġappreciated": 5855,
      "Ġmale": 5856,
      "Ġ194": 5857,
      "Ġ195": 5858,
      "Ġbrazil": 5859,
      "Ġstarving": 5860,
      "Ġvolume": 5861,
      "Ġclaus": 5862,
      "Ġexhib": 5863,
      "Ġfroze": 5864,
      "Ġobjection": 5865,
      "Ġcelebrating": 5866,
      "Ġreplied": 5867,
      "Ġscarce": 5868,
      "Ġhyd": 5869,
      "Ġdemands": 5870,
      "Ġordinary": 5871,
      "Ġphotographer": 5872,
      "Ġinternational": 5873,
      "Ġtourist": 5874,
      "Ġtypical": 5875,
      "Ġexchanged": 5876,
      "Ġaffected": 5877,
      "Ġassuming": 5878,
      "Ġfolded": 5879,
      "Ġcircum": 5880,
      "Ġnails": 5881,
      "Ġdigging": 5882,
      "Ġreaction": 5883,
      "Ġculture": 5884,
      "Ġunemployed": 5885,
      "Ġreconsider": 5886,
      "Ġskept": 5887,
      "Ġchimney": 5888,
      "Ġdetermined": 5889,
      "Ġburglar": 5890,
      "Ġarrogant": 5891,
      "Ġchallenge": 5892,
      "Ġindoors": 5893,
      "Ġcameras": 5894,
      "Ġresembles": 5895,
      "Ġpregnant": 5896,
      "Ġoxygen": 5897,
      "bi": 5898,
      "rise": 5899,
      "Ġven": 5900,
      "Ġtap": 5901,
      "Ġtues": 5902,
      "Ġtoes": 5903,
      "Ġwre": 5904,
      "Ġwings": 5905,
      "Ġsip": 5906,
      "Ġduck": 5907,
      "Ġmild": 5908,
      "atically": 5909,
      "Ġcaut": 5910,
      "Ġfountain": 5911,
      "Ġnut": 5912,
      "Ġninet": 5913,
      "thm": 5914,
      "Ġknives": 5915,
      "Ġchased": 5916,
      "Ġchances": 5917,
      "Ġrh": 5918,
      "ilies": 5919,
      "unciation": 5920,
      "Ġloving": 5921,
      "arten": 5922,
      "iece": 5923,
      "Ġripe": 5924,
      "Ġclient": 5925,
      "iforn": 5926,
      "Ġvir": 5927,
      "apse": 5928,
      "Ġspeakers": 5929,
      "Ġorch": 5930,
      "Ġcomprom": 5931,
      "Ġblocked": 5932,
      "Ġhandy": 5933,
      "Ġmonkey": 5934,
      "Ġfamilies": 5935,
      "Ġkinderg": 5936,
      "Ġsurren": 5937,
      "Ġrecent": 5938,
      "Ġrecall": 5939,
      "Ġrecipe": 5940,
      "ails": 5941,
      "phere": 5942,
      "Ġ17": 5943,
      "upied": 5944,
      "Ġhunter": 5945,
      "Ġdining": 5946,
      "Ġserve": 5947,
      "Ġending": 5948,
      "Ġnuclear": 5949,
      "brush": 5950,
      "Ġcollapse": 5951,
      "Ġdolls": 5952,
      "Ġdarker": 5953,
      "Ġsunrise": 5954,
      "Ġdeadline": 5955,
      "Ġdisappointing": 5956,
      "Ġcomplaint": 5957,
      "Ġsuggesting": 5958,
      "Ġcaliforn": 5959,
      "Ġironed": 5960,
      "Ġunlo": 5961,
      "Ġhundreds": 5962,
      "Ġdoubtful": 5963,
      "Ġemot": 5964,
      "Ġcloses": 5965,
      "Ġloser": 5966,
      "rolog": 5967,
      "Ġpairs": 5968,
      "lights": 5969,
      "Ġaccompany": 5970,
      "Ġknocking": 5971,
      "Ġshooting": 5972,
      "Ġdescribed": 5973,
      "Ġtoothp": 5974,
      "Ġmodest": 5975,
      "Ġcriticism": 5976,
      "Ġpronunciation": 5977,
      "Ġdrowning": 5978,
      "Ġbiology": 5979,
      "Ġmajority": 5980,
      "Ġencouraged": 5981,
      "Ġpuzzle": 5982,
      "Ġexaggerating": 5983,
      "Ġcongratulate": 5984,
      "Ġdisturbed": 5985,
      "Ġinher": 5986,
      "Ġdeleted": 5987,
      "minute": 5988,
      "Ġarrange": 5989,
      "Ġastronaut": 5990,
      "Ġsleeve": 5991,
      "Ġrussia": 5992,
      "Ġyoga": 5993,
      "Ġmiserable": 5994,
      "Ġtemporary": 5995,
      "Ġdiab": 5996,
      "Ġregretted": 5997,
      "Ġbachel": 5998,
      "Ġankle": 5999,
      "Ġshoelaces": 6000,
      "Ġinnocence": 6001,
      "Ġapplauded": 6002,
      "Ġcircumstances": 6003,
      "Ġskeptical": 6004,
      "Ġtuesday": 6005,
      "Ġkindergarten": 6006,
      "Ġcalifornia": 6007,
      "bre": 6008,
      "come": 6009,
      "cake": 6010,
      "did": 6011,
      "obile": 6012,
      "Ġtape": 6013,
      "Ġhorn": 6014,
      "Ġsir": 6015,
      "Ġment": 6016,
      "Ġmile": 6017,
      "Ġcust": 6018,
      "Ġpets": 6019,
      "Ġnation": 6020,
      "Ġnick": 6021,
      "Ġgorge": 6022,
      "Ġheating": 6023,
      "Ġolive": 6024,
      "Ġbegged": 6025,
      "Ġep": 6026,
      "Ġshi": 6027,
      "Ġshining": 6028,
      "aly": 6029,
      "Ġgoss": 6030,
      "ading": 6031,
      "irmed": 6032,
      "Ġsax": 6033,
      "Ġplus": 6034,
      "Ġfry": 6035,
      "Ġoutra": 6036,
      "ula": 6037,
      "Ġloaded": 6038,
      "Ġcomments": 6039,
      "Ġqueen": 6040,
      "Ġconse": 6041,
      "Ġboiling": 6042,
      "Ġclue": 6043,
      "Ġunne": 6044,
      "Ġunknown": 6045,
      "Ġprecious": 6046,
      "ague": 6047,
      "Ġamusing": 6048,
      "Ġsmooth": 6049,
      "osis": 6050,
      "Ġovernight": 6051,
      "abor": 6052,
      "Ġputs": 6053,
      "Ġpac": 6054,
      "gger": 6055,
      "ffeur": 6056,
      "Ġperio": 6057,
      "Ġbreaks": 6058,
      "Ġpassing": 6059,
      "Ġrunner": 6060,
      "bec": 6061,
      "Ġreality": 6062,
      "spect": 6063,
      "Ġdifficulties": 6064,
      "Ġconserv": 6065,
      "Ġconfirmed": 6066,
      "Ġpicking": 6067,
      "Ġcollaps": 6068,
      "Ġinterf": 6069,
      "Ġterm": 6070,
      "Ġhorror": 6071,
      "Ġjuly": 6072,
      "Ġarmed": 6073,
      "Ġinstin": 6074,
      "Ġhumans": 6075,
      "Ġsilk": 6076,
      "Ġconsideration": 6077,
      "Ġfooled": 6078,
      "Ġacceptable": 6079,
      "ground": 6080,
      "Ġvolcan": 6081,
      "Ġsuspected": 6082,
      "Ġtreaty": 6083,
      "Ġhistor": 6084,
      "Ġcollecting": 6085,
      "Ġquarrel": 6086,
      "Ġdescription": 6087,
      "Ġaston": 6088,
      "Ġpancakes": 6089,
      "Ġrepairing": 6090,
      "Ġprovided": 6091,
      "Ġbiased": 6092,
      "Ġdrums": 6093,
      "Ġdivide": 6094,
      "Ġelephant": 6095,
      "Ġreligion": 6096,
      "Ġwhistle": 6097,
      "Ġreluctantly": 6098,
      "Ġblonde": 6099,
      "Ġirritated": 6100,
      "Ġbutterfly": 6101,
      "Ġmosquitoes": 6102,
      "Ġconnection": 6103,
      "Ġdissatisf": 6104,
      "Ġvarious": 6105,
      "Ġresources": 6106,
      "Ġerrors": 6107,
      "Ġaspir": 6108,
      "Ġshelter": 6109,
      "Ġdedicated": 6110,
      "Ġseatbelt": 6111,
      "Ġfreedom": 6112,
      "Ġwrapped": 6113,
      "Ġflirting": 6114,
      "Ġaccurate": 6115,
      "Ġaccompanied": 6116,
      "Ġchauffeur": 6117,
      "Ġgorgeous": 6118,
      "Ġperiod": 6119,
      "af": 6120,
      "dri": 6121,
      "dream": 6122,
      "for": 6123,
      "have": 6124,
      "jo": 6125,
      "mind": 6126,
      "sed": 6127,
      "ugged": 6128,
      "umbers": 6129,
      "walk": 6130,
      "wash": 6131,
      "yal": 6132,
      "Ġthumb": 6133,
      "Ġdim": 6134,
      "onent": 6135,
      "Ġbone": 6136,
      "Ġbul": 6137,
      "Ġbunch": 6138,
      "Ġcure": 6139,
      "Ġcorn": 6140,
      "Ġcuc": 6141,
      "Ġlanes": 6142,
      "enger": 6143,
      "Ġpard": 6144,
      "Ġnag": 6145,
      "Ġkar": 6146,
      "Ġkick": 6147,
      "Ġstead": 6148,
      "Ġstaff": 6149,
      "Ġult": 6150,
      "Ġshaking": 6151,
      "Ġrew": 6152,
      "Ġreun": 6153,
      "ades": 6154,
      "Ġseeds": 6155,
      "eag": 6156,
      "Ġsumm": 6157,
      "Ġchan": 6158,
      "Ġaloud": 6159,
      "thern": 6160,
      "Ġspect": 6161,
      "Ġspilled": 6162,
      "aste": 6163,
      "Ġupside": 6164,
      "Ġdeer": 6165,
      "Ġloaves": 6166,
      "olve": 6167,
      "oline": 6168,
      "Ġproved": 6169,
      "Ġripped": 6170,
      "Ġprejud": 6171,
      "Ġprince": 6172,
      "Ġprime": 6173,
      "Ġwaitress": 6174,
      "Ġorph": 6175,
      "Ġamused": 6176,
      "Ġbuys": 6177,
      "Ġblank": 6178,
      "Ġstrate": 6179,
      "Ġattitude": 6180,
      "Ġattentive": 6181,
      "Ġpainful": 6182,
      "Ġforgetful": 6183,
      "Ġrested": 6184,
      "Ġkidna": 6185,
      "Ġsincere": 6186,
      "Ġsnowman": 6187,
      "berg": 6188,
      "cessary": 6189,
      "Ġheadlights": 6190,
      "Ġbicycles": 6191,
      "Ġcolleag": 6192,
      "Ġaddressed": 6193,
      "Ġaddicted": 6194,
      "Ġlaws": 6195,
      "Ġmedit": 6196,
      "cling": 6197,
      "Ġdepos": 6198,
      "Ġdisappointment": 6199,
      "Ġguessed": 6200,
      "Ġincomp": 6201,
      "Ġfootstep": 6202,
      "Ġholds": 6203,
      "Ġsmelled": 6204,
      "Ġsuspended": 6205,
      "Ġwelcomed": 6206,
      "Ġagrees": 6207,
      "Ġsatisfactor": 6208,
      "Ġinjury": 6209,
      "Ġmagician": 6210,
      "Ġdeserved": 6211,
      "Ġignor": 6212,
      "Ġwednes": 6213,
      "Ġlandl": 6214,
      "Ġlanded": 6215,
      "Ġmailbox": 6216,
      "Ġdependable": 6217,
      "Ġmillions": 6218,
      "Ġtowels": 6219,
      "attered": 6220,
      "Ġamazed": 6221,
      "Ġfund": 6222,
      "Ġmajored": 6223,
      "Ġrepeated": 6224,
      "Ġastrolog": 6225,
      "Ġauthority": 6226,
      "Ġdemanded": 6227,
      "Ġflexible": 6228,
      "Ġbatter": 6229,
      "Ġcircle": 6230,
      "Ġvegetarians": 6231,
      "Ġcriticized": 6232,
      "Ġcandidate": 6233,
      "Ġincreased": 6234,
      "Ġanti": 6235,
      "Ġcarelessness": 6236,
      "Ġapproached": 6237,
      "handed": 6238,
      "Ġrubbed": 6239,
      "Ġessential": 6240,
      "Ġrecovery": 6241,
      "Ġsurface": 6242,
      "Ġverge": 6243,
      "Ġeffective": 6244,
      "sticks": 6245,
      "Ġoverlooked": 6246,
      "Ġmemorize": 6247,
      "Ġsevent": 6248,
      "Ġunbear": 6249,
      "Ġtidy": 6250,
      "Ġrefuge": 6251,
      "Ġearrings": 6252,
      "Ġinterrupted": 6253,
      "Ġdye": 6254,
      "Ġcontrad": 6255,
      "Ġjewelry": 6256,
      "Ġdemonstr": 6257,
      "Ġunnecessary": 6258,
      "Ġaspirin": 6259,
      "Ġkidnapped": 6260,
      "Ġfootsteps": 6261,
      "Ġwednesday": 6262,
      "aid": 6263,
      "bal": 6264,
      "ckey": 6265,
      "fle": 6266,
      "five": 6267,
      "ked": 6268,
      "now": 6269,
      "ody": 6270,
      "rid": 6271,
      "son": 6272,
      "ties": 6273,
      "ube": 6274,
      "yr": 6275,
      "zes": 6276,
      "Ġamp": 6277,
      "Ġhedge": 6278,
      "Ġdyed": 6279,
      "Ġdata": 6280,
      "atory": 6281,
      "Ġcakes": 6282,
      "Ġlink": 6283,
      "Ġlength": 6284,
      "Ġfried": 6285,
      "isis": 6286,
      "Ġwhale": 6287,
      "iding": 6288,
      "Ġeager": 6289,
      "Ġkite": 6290,
      "Ġreck": 6291,
      "Ġdonuts": 6292,
      "rig": 6293,
      "Ġwithd": 6294,
      "Ġsection": 6295,
      "Ġjan": 6296,
      "Ġalph": 6297,
      "Ġtrim": 6298,
      "Ġplates": 6299,
      "Ġexting": 6300,
      "istics": 6301,
      "ously": 6302,
      "Ġuneas": 6303,
      "Ġroot": 6304,
      "apid": 6305,
      "Ġprim": 6306,
      "Ġbluff": 6307,
      "Ġearned": 6308,
      "Ġbrakes": 6309,
      "Ġdoorbell": 6310,
      "Ġscot": 6311,
      "Ġpharm": 6312,
      "Ġideal": 6313,
      "Ġsurgeon": 6314,
      "Ġengland": 6315,
      "Ġsnore": 6316,
      "Ġchef": 6317,
      "Ġrestroom": 6318,
      "Ġinvention": 6319,
      "Ġlaz": 6320,
      "Ġtrustworthy": 6321,
      "Ġcrisis": 6322,
      "spons": 6323,
      "apping": 6324,
      "Ġfasten": 6325,
      "Ġstove": 6326,
      "Ġfiref": 6327,
      "Ġdresses": 6328,
      "Ġcostume": 6329,
      "Ġreduce": 6330,
      "Ġaddict": 6331,
      "Ġexams": 6332,
      "Ġbabies": 6333,
      "Ġcatching": 6334,
      "Ġroads": 6335,
      "Ġcorrected": 6336,
      "Ġgifted": 6337,
      "Ġsubst": 6338,
      "Ġcausing": 6339,
      "Ġreceipt": 6340,
      "Ġballoon": 6341,
      "Ġrides": 6342,
      "Ġnecessarily": 6343,
      "Ġapproval": 6344,
      "Ġdeserted": 6345,
      "Ġ197": 6346,
      "Ġprotection": 6347,
      "cription": 6348,
      "Ġclosing": 6349,
      "Ġskipped": 6350,
      "Ġleads": 6351,
      "Ġsuffers": 6352,
      "Ġdemoc": 6353,
      "Ġshallow": 6354,
      "Ġsticks": 6355,
      "Ġorganic": 6356,
      "Ġequip": 6357,
      "Ġrumors": 6358,
      "Ġcabinet": 6359,
      "Ġtoothbrush": 6360,
      "Ġdecember": 6361,
      "Ġintentionally": 6362,
      "Ġdisagre": 6363,
      "Ġairplanes": 6364,
      "Ġapproaching": 6365,
      "Ġaffection": 6366,
      "Ġsoftware": 6367,
      "Ġorigin": 6368,
      "Ġmicrosc": 6369,
      "Ġrelatively": 6370,
      "Ġinspired": 6371,
      "Ġinspiration": 6372,
      "Ġobserv": 6373,
      "Ġcheerful": 6374,
      "Ġremarkable": 6375,
      "Ġscrewdri": 6376,
      "Ġmelted": 6377,
      "Ġwolves": 6378,
      "Ġpunishment": 6379,
      "Ġinfluence": 6380,
      "Ġchopsticks": 6381,
      "Ġtechnology": 6382,
      "Ġtradition": 6383,
      "Ġmeasured": 6384,
      "Ġconsciousness": 6385,
      "Ġfrustrated": 6386,
      "Ġguarantee": 6387,
      "Ġassoci": 6388,
      "Ġhawaii": 6389,
      "Ġlimited": 6390,
      "Ġtoothpaste": 6391,
      "Ġcustody": 6392,
      "Ġgossip": 6393,
      "Ġsaxophone": 6394,
      "Ġcollapsed": 6395,
      "Ġseventeen": 6396,
      "Ġalphab": 6397,
      "Ġextingu": 6398,
      "Ġscrewdriver": 6399,
      "ae": 6400,
      "awn": 6401,
      "bon": 6402,
      "cr": 6403,
      "kin": 6404,
      "lin": 6405,
      "mons": 6406,
      "over": 6407,
      "oven": 6408,
      "uum": 6409,
      "wife": 6410,
      "Ġwand": 6411,
      "Ġyawn": 6412,
      "Ġmice": 6413,
      "Ġbones": 6414,
      "Ġfuss": 6415,
      "eness": 6416,
      "Ġped": 6417,
      "Ġpier": 6418,
      "Ġnerve": 6419,
      "Ġgall": 6420,
      "Ġguts": 6421,
      "Ġheated": 6422,
      "Ġoly": 6423,
      "Ġbees": 6424,
      "Ġinit": 6425,
      "Ġmech": 6426,
      "Ġliber": 6427,
      "etown": 6428,
      "Ġsting": 6429,
      "itzer": 6430,
      "Ġnotified": 6431,
      "Ġjar": 6432,
      "Ġchap": 6433,
      "Ġsheets": 6434,
      "Ġsock": 6435,
      "Ġsoci": 6436,
      "Ġsacri": 6437,
      "Ġneedle": 6438,
      "ulated": 6439,
      "Ġfee": 6440,
      "Ġdeals": 6441,
      "Ġrifle": 6442,
      "Ġcoast": 6443,
      "Ġvom": 6444,
      "boat": 6445,
      "Ġjoy": 6446,
      "assy": 6447,
      "Ġprayed": 6448,
      "Ġfax": 6449,
      "Ġfacing": 6450,
      "osaur": 6451,
      "Ġoverd": 6452,
      "Ġbeforehand": 6453,
      "Ġforgave": 6454,
      "Ġpace": 6455,
      "Ġcareer": 6456,
      "Ġbru": 6457,
      "Ġopener": 6458,
      "Ġgram": 6459,
      "Ġpolish": 6460,
      "Ġrecy": 6461,
      "Ġpromotion": 6462,
      "who": 6463,
      "Ġkidn": 6464,
      "cience": 6465,
      "Ġrealistic": 6466,
      "Ġdinosaur": 6467,
      "Ġserving": 6468,
      "Ġrichest": 6469,
      "Ġbringing": 6470,
      "Ġmedal": 6471,
      "Ġsecretly": 6472,
      "Ġsignific": 6473,
      "Ġgardener": 6474,
      "Ġsimpl": 6475,
      "Ġinstant": 6476,
      "Ġcaptured": 6477,
      "Ġtestify": 6478,
      "Ġindian": 6479,
      "Ġinsult": 6480,
      "Ġvacuum": 6481,
      "Ġcardi": 6482,
      "Ġvegetable": 6483,
      "Ġrisky": 6484,
      "Ġbarber": 6485,
      "Ġsmartphone": 6486,
      "ilton": 6487,
      "Ġzero": 6488,
      "Ġbasically": 6489,
      "Ġloses": 6490,
      "iked": 6491,
      "Ġconstant": 6492,
      "Ġcommunity": 6493,
      "Ġdestination": 6494,
      "Ġobjective": 6495,
      "Ġorganization": 6496,
      "Ġcritical": 6497,
      "Ġcabin": 6498,
      "Ġdeceive": 6499,
      "Ġpathetic": 6500,
      "Ġhometown": 6501,
      "Ġdiamonds": 6502,
      "Ġeconomic": 6503,
      "Ġqualified": 6504,
      "Ġestab": 6505,
      "Ġbesides": 6506,
      "Ġirrespons": 6507,
      "Ġsurfing": 6508,
      "Ġknitting": 6509,
      "Ġbalance": 6510,
      "Ġacquainted": 6511,
      "Ġfinancially": 6512,
      "Ġdeveloped": 6513,
      "Ġaimed": 6514,
      "Ġlogical": 6515,
      "Ġsixteen": 6516,
      "Ġmixed": 6517,
      "Ġpollution": 6518,
      "Ġastronom": 6519,
      "Ġfocus": 6520,
      "Ġimitating": 6521,
      "Ġhumiliated": 6522,
      "Ġjournalist": 6523,
      "Ġdolphins": 6524,
      "Ġcotton": 6525,
      "Ġspirits": 6526,
      "Ġconduct": 6527,
      "Ġcockro": 6528,
      "Ġwreck": 6529,
      "Ġcompromise": 6530,
      "Ġinherited": 6531,
      "Ġconsequ": 6532,
      "Ġconservative": 6533,
      "Ġinterfere": 6534,
      "Ġstrategy": 6535,
      "Ġsatisfactory": 6536,
      "Ġequipment": 6537,
      "Ġmicroscope": 6538,
      "Ġalphabet": 6539,
      "Ġolymp": 6540,
      "Ġsacrif": 6541,
      "Ġirresponsible": 6542,
      "avery": 6543,
      "bur": 6544,
      "gir": 6545,
      "mel": 6546,
      "moon": 6547,
      "ray": 6548,
      "ration": 6549,
      "Ġii": 6550,
      "Ġton": 6551,
      "Ġhilton": 6552,
      "Ġyach": 6553,
      "Ġsan": 6554,
      "Ġsaint": 6555,
      "Ġmort": 6556,
      "Ġther": 6557,
      "Ġbass": 6558,
      "Ġbars": 6559,
      "Ġcub": 6560,
      "Ġpow": 6561,
      "Ġnaught": 6562,
      "Ġgig": 6563,
      "Ġgather": 6564,
      "esome": 6565,
      "the": 6566,
      "Ġhay": 6567,
      "Ġbeers": 6568,
      "Ġease": 6569,
      "lected": 6570,
      "ching": 6571,
      "Ġonto": 6572,
      "Ġshift": 6573,
      "itable": 6574,
      "Ġneph": 6575,
      "Ġsem": 6576,
      "ami": 6577,
      "Ġchain": 6578,
      "Ġchips": 6579,
      "Ġali": 6580,
      "Ġrud": 6581,
      "Ġrapid": 6582,
      "Ġupd": 6583,
      "uls": 6584,
      "Ġcomic": 6585,
      "Ġprocess": 6586,
      "Ġboiled": 6587,
      "Ġdaydream": 6588,
      "Ġexpressed": 6589,
      "tte": 6590,
      "agne": 6591,
      "osphere": 6592,
      "Ġswore": 6593,
      "Ġswitzer": 6594,
      "Ġawesome": 6595,
      "Ġtrump": 6596,
      "Ġmonster": 6597,
      "umes": 6598,
      "Ġcouples": 6599,
      "Ġwatermel": 6600,
      "Ġbothered": 6601,
      "Ġmistook": 6602,
      "Ġcolds": 6603,
      "Ġtraining": 6604,
      "Ġattach": 6605,
      "Ġslavery": 6606,
      "Ġsupply": 6607,
      "Ġkiller": 6608,
      "oked": 6609,
      "Ġvisits": 6610,
      "Ġvisitor": 6611,
      "Ġwheat": 6612,
      "Ġmilitary": 6613,
      "Ġsalmon": 6614,
      "Ġsignature": 6615,
      "Ġchristian": 6616,
      "lings": 6617,
      "Ġhoriz": 6618,
      "Ġpreferred": 6619,
      "Ġfixing": 6620,
      "Ġvoices": 6621,
      "Ġdictionaries": 6622,
      "Ġtraitor": 6623,
      "Ġsidewalk": 6624,
      "Ġbelongings": 6625,
      "Ġfeeding": 6626,
      "Ġpractical": 6627,
      "Ġshops": 6628,
      "Ġopposed": 6629,
      "Ġeighty": 6630,
      "Ġjumping": 6631,
      "Ġgarlic": 6632,
      "grand": 6633,
      "Ġclosest": 6634,
      "Ġgasoline": 6635,
      "Ġwashington": 6636,
      "Ġembassy": 6637,
      "Ġintends": 6638,
      "Ġambition": 6639,
      "Ġcampus": 6640,
      "Ġpeacefully": 6641,
      "Ġtales": 6642,
      "Ġproposed": 6643,
      "Ġadvantages": 6644,
      "Ġlifted": 6645,
      "Ġvolunteered": 6646,
      "Ġdemanding": 6647,
      "Ġfrighten": 6648,
      "Ġearthquakes": 6649,
      "Ġwhiskey": 6650,
      "Ġparticipated": 6651,
      "Ġpredicted": 6652,
      "Ġexpression": 6653,
      "Ġoperate": 6654,
      "Ġincreasing": 6655,
      "writer": 6656,
      "Ġhesitated": 6657,
      "Ġestate": 6658,
      "Ġrequested": 6659,
      "Ġstatement": 6660,
      "Ġphysical": 6661,
      "Ġgunshots": 6662,
      "Ġpostpone": 6663,
      "Ġjourney": 6664,
      "Ġpuzzled": 6665,
      "Ġbrandy": 6666,
      "Ġrescue": 6667,
      "Ġsewing": 6668,
      "Ġautomobile": 6669,
      "Ġbabysitter": 6670,
      "Ġreluctant": 6671,
      "Ġcitizens": 6672,
      "Ġexceptionally": 6673,
      "Ġarranged": 6674,
      "Ġterrific": 6675,
      "Ġbumped": 6676,
      "inguish": 6677,
      "Ġenthusiastic": 6678,
      "Ġutter": 6679,
      "Ġhamburgers": 6680,
      "Ġvitamin": 6681,
      "Ġgrocer": 6682,
      "Ġprecise": 6683,
      "Ġbranch": 6684,
      "Ġpurchase": 6685,
      "Ġcomedian": 6686,
      "Ġintimid": 6687,
      "Ġunbelievable": 6688,
      "Ġdelighted": 6689,
      "Ġexecut": 6690,
      "Ġbachelor": 6691,
      "Ġignorance": 6692,
      "Ġjanuary": 6693,
      "Ġdinosaurs": 6694,
      "Ġnaughty": 6695,
      "Ġnephew": 6696,
      "Ġswitzerland": 6697,
      "bro": 6698,
      "burn": 6699,
      "dka": 6700,
      "nces": 6701,
      "oe": 6702,
      "rant": 6703,
      "will": 6704,
      "Ġtiny": 6705,
      "Ġtoe": 6706,
      "Ġack": 6707,
      "Ġwitch": 6708,
      "Ġhilar": 6709,
      "Ġsen": 6710,
      "Ġyouth": 6711,
      "Ġdice": 6712,
      "Ġdirt": 6713,
      "Ġmashed": 6714,
      "Ġber": 6715,
      "Ġbart": 6716,
      "asy": 6717,
      "Ġpist": 6718,
      "Ġpound": 6719,
      "Ġpud": 6720,
      "Ġnav": 6721,
      "that": 6722,
      "omen": 6723,
      "Ġbeeth": 6724,
      "Ġweb": 6725,
      "keys": 6726,
      "Ġmere": 6727,
      "oog": 6728,
      "oops": 6729,
      "Ġstir": 6730,
      "Ġstare": 6731,
      "itted": 6732,
      "Ġwire": 6733,
      "imately": 6734,
      "Ġmyster": 6735,
      "Ġmarath": 6736,
      "Ġgoat": 6737,
      "Ġjerk": 6738,
      "Ġsomewhat": 6739,
      "Ġsomehow": 6740,
      "Ġrats": 6741,
      "urs": 6742,
      "illa": 6743,
      "Ġhappiest": 6744,
      "Ġfebr": 6745,
      "athers": 6746,
      "erson": 6747,
      "Ġpropose": 6748,
      "Ġrip": 6749,
      "Ġbutt": 6750,
      "auc": 6751,
      "Ġjog": 6752,
      "mbled": 6753,
      "Ġfaults": 6754,
      "Ġovertime": 6755,
      "abled": 6756,
      "Ġblush": 6757,
      "Ġintoxic": 6758,
      "umed": 6759,
      "ewrit": 6760,
      "Ġdiffer": 6761,
      "Ġremembering": 6762,
      "Ġpolitely": 6763,
      "Ġminer": 6764,
      "Ġrepres": 6765,
      "Ġtense": 6766,
      "Ġfoods": 6767,
      "Ġforgets": 6768,
      "Ġcounted": 6769,
      "Ġ13": 6770,
      "Ġdriveway": 6771,
      "Ġmeetings": 6772,
      "Ġconsists": 6773,
      "Ġfirewood": 6774,
      "Ġhockey": 6775,
      "Ġsolving": 6776,
      "working": 6777,
      "ception": 6778,
      "Ġaddition": 6779,
      "Ġtrial": 6780,
      "Ġtransfer": 6781,
      "Ġtransport": 6782,
      "Ġsmoked": 6783,
      "Ġsigns": 6784,
      "Ġsetting": 6785,
      "Ġfacebook": 6786,
      "Ġveter": 6787,
      "Ġtranslator": 6788,
      "Ġtests": 6789,
      "Ġstores": 6790,
      "Ġvodka": 6791,
      "Ġaffair": 6792,
      "Ġdistinguish": 6793,
      "Ġhumming": 6794,
      "Ġtempted": 6795,
      "Ġpriest": 6796,
      "Ġdishwash": 6797,
      "Ġmachines": 6798,
      "Ġparall": 6799,
      "Ġparade": 6800,
      "coat": 6801,
      "Ġpulling": 6802,
      "Ġjacksons": 6803,
      "Ġprofile": 6804,
      "Ġspecialist": 6805,
      "Ġmuseums": 6806,
      "Ġsteam": 6807,
      "Ġfuel": 6808,
      "Ġprivacy": 6809,
      "ounts": 6810,
      "Ġcelebrated": 6811,
      "Ġsearching": 6812,
      "Ġbowed": 6813,
      "Ġthreatening": 6814,
      "Ġorganize": 6815,
      "Ġphotographs": 6816,
      "Ġironing": 6817,
      "Ġvictory": 6818,
      "Ġtypewrit": 6819,
      "Ġexistence": 6820,
      "Ġstrawberry": 6821,
      "Ġhoneymoon": 6822,
      "Ġdisgu": 6823,
      "Ġdeclared": 6824,
      "Ġdelivery": 6825,
      "Ġphysics": 6826,
      "Ġcooperative": 6827,
      "Ġacquaint": 6828,
      "Ġmeasures": 6829,
      "Ġstruggled": 6830,
      "Ġinhab": 6831,
      "Ġmiracles": 6832,
      "Ġindependence": 6833,
      "Ġdiplomat": 6834,
      "Ġlabor": 6835,
      "Ġnegotiations": 6836,
      "Ġdiscovery": 6837,
      "Ġnicer": 6838,
      "Ġforbidden": 6839,
      "Ġatmosphere": 6840,
      "Ġlungs": 6841,
      "Ġgambling": 6842,
      "Ġsympathy": 6843,
      "Ġmutual": 6844,
      "Ġtolerate": 6845,
      "Ġtherapy": 6846,
      "Ġsurvivors": 6847,
      "Ġwhispering": 6848,
      "Ġdisgusting": 6849,
      "Ġversion": 6850,
      "Ġdevastated": 6851,
      "Ġchampagne": 6852,
      "aborate": 6853,
      "Ġpacific": 6854,
      "Ġdissatisfied": 6855,
      "minded": 6856,
      "Ġreunion": 6857,
      "Ġincompet": 6858,
      "Ġlandlord": 6859,
      "nowled": 6860,
      "Ġuneasy": 6861,
      "Ġassociate": 6862,
      "Ġestablished": 6863,
      "Ġacknowled": 6864,
      "Ġhilarious": 6865,
      "Ġpistol": 6866,
      "Ġbeethoven": 6867,
      "Ġmarathon": 6868,
      "Ġfebruary": 6869,
      "Ġdishwasher": 6870,
      "ba": 6871,
      "food": 6872,
      "fish": 6873,
      "li": 6874,
      "oid": 6875,
      "py": 6876,
      "rated": 6877,
      "ta": 6878,
      "ysters": 6879,
      "zart": 6880,
      "Ġwid": 6881,
      "Ġwoken": 6882,
      "Ġwounds": 6883,
      "Ġdub": 6884,
      "Ġdates": 6885,
      "Ġmal": 6886,
      "Ġmamm": 6887,
      "oning": 6888,
      "ators": 6889,
      "Ġbak": 6890,
      "Ġbac": 6891,
      "Ġlux": 6892,
      "Ġfbi": 6893,
      "enomen": 6894,
      "isc": 6895,
      "asm": 6896,
      "arried": 6897,
      "Ġgoog": 6898,
      "owed": 6899,
      "Ġoysters": 6900,
      "Ġing": 6901,
      "Ġinapp": 6902,
      "lette": 6903,
      "ste": 6904,
      "verty": 6905,
      "Ġliqu": 6906,
      "Ġstiff": 6907,
      "Ġreven": 6908,
      "Ġreno": 6909,
      "Ġwipe": 6910,
      "Ġcane": 6911,
      "Ġasse": 6912,
      "uting": 6913,
      "Ġchoos": 6914,
      "Ġtroub": 6915,
      "Ġtracks": 6916,
      "urd": 6917,
      "urt": 6918,
      "urous": 6919,
      "Ġteles": 6920,
      "Ġplaced": 6921,
      "asty": 6922,
      "Ġmanner": 6923,
      "ourage": 6924,
      "olished": 6925,
      "Ġproven": 6926,
      "Ġhomemade": 6927,
      "Ġvoy": 6928,
      "Ġvirt": 6929,
      "Ġmozart": 6930,
      "orted": 6931,
      "Ġwaves": 6932,
      "aging": 6933,
      "Ġbusier": 6934,
      "Ġcompass": 6935,
      "Ġoverwork": 6936,
      "Ġplanes": 6937,
      "Ġpoverty": 6938,
      "Ġbless": 6939,
      "Ġblog": 6940,
      "Ġremarried": 6941,
      "Ġhandc": 6942,
      "Ġhandled": 6943,
      "ums": 6944,
      "Ġbrick": 6945,
      "Ġdisre": 6946,
      "Ġdrivers": 6947,
      "Ġopens": 6948,
      "Ġphones": 6949,
      "Ġphenomen": 6950,
      "Ġshowered": 6951,
      "Ġcattle": 6952,
      "Ġbrew": 6953,
      "Ġfounded": 6954,
      "Ġreserve": 6955,
      "Ġsingers": 6956,
      "Ġtrained": 6957,
      "Ġadvis": 6958,
      "while": 6959,
      "Ġsnack": 6960,
      "proof": 6961,
      "Ġbites": 6962,
      "Ġ11": 6963,
      "Ġgreatly": 6964,
      "Ġsurprises": 6965,
      "Ġserves": 6966,
      "Ġhaird": 6967,
      "Ġmusical": 6968,
      "Ġrelief": 6969,
      "Ġpresence": 6970,
      "Ġheads": 6971,
      "Ġheadphones": 6972,
      "Ġconfuse": 6973,
      "ological": 6974,
      "Ġtreating": 6975,
      "Ġredu": 6976,
      "Ġquicker": 6977,
      "Ġdisappear": 6978,
      "Ġsalty": 6979,
      "Ġvet": 6980,
      "Ġfootprints": 6981,
      "Ġimmature": 6982,
      "Ġinstantly": 6983,
      "Ġquitting": 6984,
      "Ġextent": 6985,
      "Ġdistr": 6986,
      "Ġinsist": 6987,
      "Ġnervously": 6988,
      "Ġrings": 6989,
      "Ġfeedback": 6990,
      "Ġguns": 6991,
      "Ġ193": 6992,
      "Ġstuffed": 6993,
      "Ġunique": 6994,
      "Ġdependent": 6995,
      "Ġimproving": 6996,
      "Ġappointed": 6997,
      "cony": 6998,
      "Ġoccupied": 6999,
      "ikes": 7000,
      "Ġautograph": 7001,
      "Ġbanjo": 7002,
      "Ġglobal": 7003,
      "Ġcellar": 7004,
      "Ġcounts": 7005,
      "Ġpoisoned": 7006,
      "Ġpoisonous": 7007,
      "Ġgentlemen": 7008,
      "Ġstomachache": 7009,
      "Ġ186": 7010,
      "Ġadopt": 7011,
      "Ġshouting": 7012,
      "Ġinterpret": 7013,
      "Ġrelease": 7014,
      "Ġeffects": 7015,
      "Ġpoetry": 7016,
      "Ġrecover": 7017,
      "Ġbalcony": 7018,
      "Ġsymptom": 7019,
      "Ġcooperating": 7020,
      "Ġbritain": 7021,
      "Ġlatin": 7022,
      "Ġconnected": 7023,
      "Ġprinter": 7024,
      "Ġseparate": 7025,
      "Ġcycling": 7026,
      "Ġhypoc": 7027,
      "Ġflooded": 7028,
      "Ġdelete": 7029,
      "Ġunsure": 7030,
      "Ġpoliticians": 7031,
      "Ġpeanut": 7032,
      "Ġpraise": 7033,
      "Ġcheeks": 7034,
      "Ġfocused": 7035,
      "Ġbenefit": 7036,
      "Ġcrops": 7037,
      "Ġseventy": 7038,
      "Ġmassage": 7039,
      "Ġadventurous": 7040,
      "Ġstressful": 7041,
      "Ġblocks": 7042,
      "Ġdefeated": 7043,
      "Ġtiger": 7044,
      "Ġunreason": 7045,
      "Ġtitle": 7046,
      "Ġlipstick": 7047,
      "Ġtemptation": 7048,
      "Ġrobbery": 7049,
      "Ġninety": 7050,
      "Ġnickname": 7051,
      "Ġpardon": 7052,
      "Ġsteady": 7053,
      "Ġrewrite": 7054,
      "Ġorphan": 7055,
      "Ġbatteries": 7056,
      "Ġunbearable": 7057,
      "Ġfirefight": 7058,
      "Ġdisagreed": 7059,
      "Ġmechanic": 7060,
      "Ġgrammar": 7061,
      "Ġyacht": 7062,
      "Ġtrumpet": 7063,
      "Ġbartender": 7064,
      "Ġbakery": 7065,
      "Ġbacon": 7066,
      "Ġinapprop": 7067,
      "Ġrenov": 7068,
      "Ġchoosing": 7069,
      "Ġtelesc": 7070,
      "Ġvoyage": 7071,
      "dles": 7072,
      "my": 7073,
      "mark": 7074,
      "nam": 7075,
      "oll": 7076,
      "tles": 7077,
      "yl": 7078,
      "Ġsin": 7079,
      "Ġsigh": 7080,
      "Ġder": 7081,
      "Ġdread": 7082,
      "Ġdict": 7083,
      "inative": 7084,
      "Ġcas": 7085,
      "Ġfest": 7086,
      "Ġnasty": 7087,
      "idered": 7088,
      "Ġbears": 7089,
      "Ġweeds": 7090,
      "Ġanth": 7091,
      "Ġeaves": 7092,
      "Ġmelo": 7093,
      "che": 7094,
      "Ġstad": 7095,
      "Ġstable": 7096,
      "Ġshore": 7097,
      "Ġreception": 7098,
      "ites": 7099,
      "ima": 7100,
      "imet": 7101,
      "imated": 7102,
      "rial": 7103,
      "Ġmarks": 7104,
      "alley": 7105,
      "ppers": 7106,
      "Ġjung": 7107,
      "eah": 7108,
      "Ġchuck": 7109,
      "Ġtear": 7110,
      "asted": 7111,
      "Ġoutst": 7112,
      "Ġfellow": 7113,
      "Ġjustice": 7114,
      "Ġquote": 7115,
      "Ġcarbon": 7116,
      "Ġunion": 7117,
      "Ġbutcher": 7118,
      "Ġrole": 7119,
      "Ġvague": 7120,
      "Ġvalley": 7121,
      "Ġarrow": 7122,
      "Ġbooked": 7123,
      "Ġbacked": 7124,
      "igence": 7125,
      "Ġthoughtful": 7126,
      "Ġpeek": 7127,
      "Ġprint": 7128,
      "Ġkettle": 7129,
      "Ġadapt": 7130,
      "Ġcompan": 7131,
      "Ġovercast": 7132,
      "Ġafterwards": 7133,
      "Ġhardworking": 7134,
      "Ġmustn": 7135,
      "Ġappeal": 7136,
      "Ġimply": 7137,
      "Ġbrains": 7138,
      "Ġdisor": 7139,
      "Ġthankful": 7140,
      "Ġrainbow": 7141,
      "Ġminim": 7142,
      "redient": 7143,
      "Ġrepub": 7144,
      "Ġadvanced": 7145,
      "aceable": 7146,
      "Ġcontro": 7147,
      "Ġlistener": 7148,
      "Ġwarming": 7149,
      "Ġwinner": 7150,
      "igned": 7151,
      "Ġinvent": 7152,
      "Ġpolicemen": 7153,
      "Ġconscience": 7154,
      "ubby": 7155,
      "Ġconfession": 7156,
      "Ġhighest": 7157,
      "Ġfollows": 7158,
      "shine": 7159,
      "Ġcuts": 7160,
      "Ġflows": 7161,
      "Ġtrigger": 7162,
      "Ġexcuses": 7163,
      "Ġsunshine": 7164,
      "Ġsmoker": 7165,
      "Ġshortly": 7166,
      "Ġstrangely": 7167,
      "Ġworthwhile": 7168,
      "Ġreports": 7169,
      "Ġtrips": 7170,
      "Ġsubs": 7171,
      "Ġbanks": 7172,
      "Ġdoubted": 7173,
      "Ġhumid": 7174,
      "iolet": 7175,
      "Ġdefense": 7176,
      "Ġvacant": 7177,
      "Ġbribe": 7178,
      "Ġcurry": 7179,
      "Ġcurrent": 7180,
      "Ġfairy": 7181,
      "Ġmoody": 7182,
      "Ġpotential": 7183,
      "Ġdelay": 7184,
      "Ġsuperior": 7185,
      "Ġintroverted": 7186,
      "Ġfifth": 7187,
      "Ġeuros": 7188,
      "Ġdocumentary": 7189,
      "Ġbeaten": 7190,
      "Ġpossess": 7191,
      "Ġtreats": 7192,
      "Ġappointments": 7193,
      "Ġcustoms": 7194,
      "Ġcheesecake": 7195,
      "Ġfilthy": 7196,
      "Ġ60": 7197,
      "Ġcreate": 7198,
      "Ġobjected": 7199,
      "Ġrelaxing": 7200,
      "Ġsharpen": 7201,
      "Ġbowling": 7202,
      "Ġpicass": 7203,
      "Ġfactories": 7204,
      "ocated": 7205,
      "Ġresignation": 7206,
      "Ġtighten": 7207,
      "Ġbullied": 7208,
      "Ġpronounced": 7209,
      "Ġestimate": 7210,
      "Ġheights": 7211,
      "rogen": 7212,
      "Ġteenagers": 7213,
      "Ġbloss": 7214,
      "Ġdesigned": 7215,
      "Ġvanilla": 7216,
      "Ġunemployment": 7217,
      "Ġregularly": 7218,
      "Ġsleeves": 7219,
      "Ġcrawling": 7220,
      "Ġbutterflies": 7221,
      "Ġpalace": 7222,
      "Ġdefeat": 7223,
      "Ġabsorbed": 7224,
      "Ġcommunicate": 7225,
      "Ġgreek": 7226,
      "Ġanticipated": 7227,
      "point": 7228,
      "keeper": 7229,
      "Ġphilosophy": 7230,
      "Ġobstinate": 7231,
      "iterate": 7232,
      "Ġarchitect": 7233,
      "Ġstunned": 7234,
      "Ġplatform": 7235,
      "Ġvolcano": 7236,
      "Ġcucumbers": 7237,
      "Ġpharmacy": 7238,
      "Ġsubstit": 7239,
      "Ġgigg": 7240,
      "Ġrapidly": 7241,
      "grandfather": 7242,
      "Ġintoxicated": 7243,
      "Ġtypewriter": 7244,
      "Ġingredient": 7245,
      "Ġrevenge": 7246,
      "Ġhandcuff": 7247,
      "Ġinappropriate": 7248,
      "Ġmelody": 7249,
      "Ġstadium": 7250,
      "Ġjungle": 7251,
      "Ġrepublic": 7252,
      "bu": 7253,
      "hic": 7254,
      "ham": 7255,
      "mble": 7256,
      "overs": 7257,
      "ping": 7258,
      "put": 7259,
      "rot": 7260,
      "tuce": 7261,
      "xed": 7262,
      "Ġicy": 7263,
      "Ġthurs": 7264,
      "Ġaust": 7265,
      "Ġwool": 7266,
      "Ġwrest": 7267,
      "Ġsam": 7268,
      "Ġsib": 7269,
      "Ġditch": 7270,
      "Ġmp": 7271,
      "Ġmand": 7272,
      "Ġmug": 7273,
      "Ġcases": 7274,
      "Ġlid": 7275,
      "Ġfist": 7276,
      "enic": 7277,
      "asp": 7278,
      "Ġnet": 7279,
      "Ġhairsty": 7280,
      "ido": 7281,
      "oms": 7282,
      "Ġko": 7283,
      "Ġken": 7284,
      "Ġdonate": 7285,
      "Ġforces": 7286,
      "Ġformer": 7287,
      "seas": 7288,
      "section": 7289,
      "Ġmarch": 7290,
      "Ġjet": 7291,
      "ctic": 7292,
      "ctive": 7293,
      "Ġrust": 7294,
      "Ġsober": 7295,
      "geons": 7296,
      "unities": 7297,
      "Ġmanual": 7298,
      "Ġlettuce": 7299,
      "Ġloyal": 7300,
      "Ġproceed": 7301,
      "Ġclut": 7302,
      "Ġcliff": 7303,
      "race": 7304,
      "Ġcarries": 7305,
      "Ġunkind": 7306,
      "Ġvot": 7307,
      "Ġvivid": 7308,
      "Ġlemons": 7309,
      "Ġwaist": 7310,
      "Ġleaf": 7311,
      "Ġoverseas": 7312,
      "Ġgum": 7313,
      "Ġdrinker": 7314,
      "Ġdiso": 7315,
      "Ġscore": 7316,
      "Ġscreen": 7317,
      "Ġdecre": 7318,
      "Ġliking": 7319,
      "Ġhurric": 7320,
      "ogenic": 7321,
      "Ġowed": 7322,
      "Ġstring": 7323,
      "Ġbeds": 7324,
      "Ġfinishing": 7325,
      "Ġ24": 7326,
      "Ġexpects": 7327,
      "Ġslices": 7328,
      "Ġarrival": 7329,
      "Ġparks": 7330,
      "Ġrestart": 7331,
      "Ġ14": 7332,
      "ups": 7333,
      "Ġhunt": 7334,
      "udes": 7335,
      "berries": 7336,
      "Ġdiscreet": 7337,
      "Ġobed": 7338,
      "Ġobese": 7339,
      "works": 7340,
      "Ġflown": 7341,
      "etime": 7342,
      "Ġdarkness": 7343,
      "Ġinterven": 7344,
      "Ġintersection": 7345,
      "Ġblackmail": 7346,
      "Ġabsurd": 7347,
      "Ġsets": 7348,
      "Ġhealthier": 7349,
      "Ġvehic": 7350,
      "Ġstrongly": 7351,
      "Ġtranslating": 7352,
      "Ġtaxis": 7353,
      "Ġilliterate": 7354,
      "Ġindic": 7355,
      "Ġships": 7356,
      "Ġexperts": 7357,
      "Ġfreak": 7358,
      "Ġprepar": 7359,
      "ivity": 7360,
      "Ġcalmed": 7361,
      "Ġpatiently": 7362,
      "Ġgrav": 7363,
      "Ġbarg": 7364,
      "Ġbarbec": 7365,
      "friendly": 7366,
      "Ġsquee": 7367,
      "Ġargued": 7368,
      "Ġbrace": 7369,
      "Ġopponent": 7370,
      "Ġsuperst": 7371,
      "Ġcope": 7372,
      "Ġgeneration": 7373,
      "Ġedition": 7374,
      "Ġrespected": 7375,
      "Ġchocolates": 7376,
      "Ġsupported": 7377,
      "Ġgrandma": 7378,
      "Ġcampfire": 7379,
      "Ġofficers": 7380,
      "Ġofficial": 7381,
      "Ġturtles": 7382,
      "Ġdamages": 7383,
      "Ġconditioning": 7384,
      "Ġbrightly": 7385,
      "Ġpowerful": 7386,
      "Ġidiots": 7387,
      "Ġboarded": 7388,
      "Ġboarding": 7389,
      "Ġgroups": 7390,
      "Ġweighed": 7391,
      "Ġprograms": 7392,
      "Ġunusually": 7393,
      "Ġopportunities": 7394,
      "Ġemployee": 7395,
      "Ġmeaningless": 7396,
      "Ġcompetent": 7397,
      "Ġhipp": 7398,
      "Ġextraord": 7399,
      "Ġsurround": 7400,
      "Ġrubber": 7401,
      "Ġfancy": 7402,
      "Ġfolder": 7403,
      "Ġdeliver": 7404,
      "Ġdeliber": 7405,
      "Ġpetition": 7406,
      "Ġobsessed": 7407,
      "Ġcongratulations": 7408,
      "Ġincluded": 7409,
      "Ġrevol": 7410,
      "Ġrevolution": 7411,
      "Ġvanished": 7412,
      "Ġpigs": 7413,
      "Ġpolluted": 7414,
      "Ġinvestigation": 7415,
      "Ġcontributed": 7416,
      "Ġadjust": 7417,
      "Ġdiplomatic": 7418,
      "Ġtunnel": 7419,
      "Ġbenefits": 7420,
      "Ġreconsidered": 7421,
      "kaido": 7422,
      "Ġcrawled": 7423,
      "Ġshoveling": 7424,
      "Ġhostages": 7425,
      "coming": 7426,
      "Ġsprained": 7427,
      "Ġadventure": 7428,
      "Ġfascinated": 7429,
      "Ġbarefo": 7430,
      "Ġrugby": 7431,
      "Ġconceited": 7432,
      "Ġindustry": 7433,
      "Ġindustrial": 7434,
      "Ġomelet": 7435,
      "Ġomelette": 7436,
      "Ġmushrooms": 7437,
      "Ġwisdom": 7438,
      "Ġwinked": 7439,
      "Ġseaside": 7440,
      "Ġunderwear": 7441,
      "Ġbroadcast": 7442,
      "Ġpigeons": 7443,
      "Ġstinks": 7444,
      "Ġdiagnosed": 7445,
      "Ġrenew": 7446,
      "Ġregistered": 7447,
      "Ġscarcely": 7448,
      "Ġshivering": 7449,
      "Ġchannel": 7450,
      "Ġastrology": 7451,
      "Ġrefugees": 7452,
      "Ġbluffing": 7453,
      "Ġsemester": 7454,
      "Ġtransferred": 7455,
      "Ġparallel": 7456,
      "Ġincompetent": 7457,
      "Ġeavesd": 7458,
      "Ġoutstanding": 7459,
      "Ġpicasso": 7460,
      "Ġthursday": 7461,
      "500": 7462,
      "ders": 7463,
      "ember": 7464,
      "fact": 7465,
      "great": 7466,
      "has": 7467,
      "hold": 7468,
      "lim": 7469,
      "park": 7470,
      "rous": 7471,
      "uated": 7472,
      "ufact": 7473,
      "ziest": 7474,
      "Ġtang": 7475,
      "Ġties": 7476,
      "Ġtrop": 7477,
      "Ġari": 7478,
      "Ġara": 7479,
      "Ġwow": 7480,
      "Ġhitch": 7481,
      "resh": 7482,
      "Ġsar": 7483,
      "Ġdang": 7484,
      "Ġdies": 7485,
      "Ġdamp": 7486,
      "Ġmount": 7487,
      "Ġmugged": 7488,
      "onven": 7489,
      "Ġbore": 7490,
      "Ġloo": 7491,
      "Ġlingu": 7492,
      "Ġlyr": 7493,
      "Ġfauc": 7494,
      "Ġpad": 7495,
      "Ġpony": 7496,
      "Ġnest": 7497,
      "Ġheater": 7498,
      "Ġinch": 7499,
      "Ġants": 7500,
      "Ġegy": 7501,
      "lete": 7502,
      "levant": 7503,
      "stand": 7504,
      "Ġmeter": 7505,
      "chy": 7506,
      "Ġkim": 7507,
      "ety": 7508,
      "Ġstall": 7509,
      "Ġshine": 7510,
      "Ġshadow": 7511,
      "Ġreve": 7512,
      "Ġdonation": 7513,
      "alt": 7514,
      "ria": 7515,
      "Ġasian": 7516,
      "Ġsept": 7517,
      "Ġsexy": 7518,
      "Ġjes": 7519,
      "Ġabst": 7520,
      "Ġchalk": 7521,
      "Ġchubby": 7522,
      "Ġsheet": 7523,
      "Ġtrace": 7524,
      "Ġtroops": 7525,
      "ending": 7526,
      "endar": 7527,
      "urally": 7528,
      "Ġteased": 7529,
      "illing": 7530,
      "Ġmanufact": 7531,
      "ulf": 7532,
      "Ġdear": 7533,
      "Ġquant": 7534,
      "rav": 7535,
      "elt": 7536,
      "ifying": 7537,
      "Ġbudd": 7538,
      "Ġbackup": 7539,
      "igning": 7540,
      "Ġexpelled": 7541,
      "Ġadap": 7542,
      "Ġschol": 7543,
      "about": 7544,
      "Ġpole": 7545,
      "Ġpointing": 7546,
      "Ġblames": 7547,
      "Ġguilt": 7548,
      "Ġswoll": 7549,
      "Ġquestioned": 7550,
      "Ġbelieving": 7551,
      "Ġbrake": 7552,
      "Ġelaborate": 7553,
      "Ġcamel": 7554,
      "teous": 7555,
      "Ġperman": 7556,
      "Ġfunn": 7557,
      "Ġpasses": 7558,
      "Ġmostly": 7559,
      "Ġslo": 7560,
      "Ġslave": 7561,
      "Ġslip": 7562,
      "Ġcheered": 7563,
      "Ġlighter": 7564,
      "Ġconsent": 7565,
      "Ġdifferences": 7566,
      "Ġrelied": 7567,
      "Ġsnowboard": 7568,
      "Ġfireworks": 7569,
      "Ġheadaches": 7570,
      "Ġsolid": 7571,
      "Ġreform": 7572,
      "Ġchoir": 7573,
      "Ġchopped": 7574,
      "Ġelement": 7575,
      "Ġbeginners": 7576,
      "Ġregion": 7577,
      "Ġregister": 7578,
      "Ġhotels": 7579,
      "Ġpenny": 7580,
      "Ġapologizing": 7581,
      "Ġdrunken": 7582,
      "Ġlocks": 7583,
      "Ġhalfway": 7584,
      "Ġinconven": 7585,
      "Ġsweep": 7586,
      "Ġsending": 7587,
      "Ġbusinessman": 7588,
      "Ġcraziest": 7589,
      "Ġcaf": 7590,
      "Ġbanker": 7591,
      "Ġhumble": 7592,
      "Ġlending": 7593,
      "Ġpointless": 7594,
      "Ġballs": 7595,
      "Ġconsiderate": 7596,
      "Ġcalendar": 7597,
      "Ġridden": 7598,
      "Ġphotogenic": 7599,
      "Ġdishon": 7600,
      "Ġsatisfy": 7601,
      "Ġburns": 7602,
      "Ġdelicate": 7603,
      "Ġholes": 7604,
      "Ġleading": 7605,
      "oded": 7606,
      "Ġsubjects": 7607,
      "Ġeuropean": 7608,
      "Ġfilter": 7609,
      "ography": 7610,
      "Ġproduced": 7611,
      "Ġproduces": 7612,
      "ouncer": 7613,
      "Ġurged": 7614,
      "Ġbrighter": 7615,
      "Ġbowls": 7616,
      "Ġoptimist": 7617,
      "Ġfurnished": 7618,
      "Ġkilos": 7619,
      "Ġdebate": 7620,
      "Ġprogrammer": 7621,
      "Ġtendency": 7622,
      "Ġmaintain": 7623,
      "Ġsaturdays": 7624,
      "Ġ187": 7625,
      "Ġnegative": 7626,
      "Ġdiseases": 7627,
      "Ġsensible": 7628,
      "Ġissues": 7629,
      "ributed": 7630,
      "Ġdisgusted": 7631,
      "Ġblankets": 7632,
      "Ġcrimes": 7633,
      "Ġirrelevant": 7634,
      "Ġnotebooks": 7635,
      "Ġbalanced": 7636,
      "Ġexaggerate": 7637,
      "Ġwheelchair": 7638,
      "Ġstrictly": 7639,
      "Ġcathed": 7640,
      "Ġseparated": 7641,
      "Ġslippers": 7642,
      "Ġ2003": 7643,
      "Ġhypnot": 7644,
      "Ġwhistling": 7645,
      "Ġpraised": 7646,
      "Ġregarded": 7647,
      "Ġleaks": 7648,
      "Ġterrified": 7649,
      "Ġuniforms": 7650,
      "Ġdirectly": 7651,
      "amental": 7652,
      "Ġlifetime": 7653,
      "Ġmultip": 7654,
      "Ġcommunication": 7655,
      "Ġtigers": 7656,
      "Ġanticipate": 7657,
      "Ġtexting": 7658,
      "Ġkorea": 7659,
      "Ġadvertising": 7660,
      "Ġlimping": 7661,
      "Ġactivities": 7662,
      "Ġterrorists": 7663,
      "Ġthrilled": 7664,
      "Ġfolk": 7665,
      "Ġbudget": 7666,
      "Ġcreepy": 7667,
      "Ġatlantic": 7668,
      "Ġexhibition": 7669,
      "Ġsurrender": 7670,
      "Ġemotional": 7671,
      "Ġastonished": 7672,
      "Ġprejudiced": 7673,
      "Ġobservant": 7674,
      "Ġstingy": 7675,
      "Ġsociety": 7676,
      "Ġsignificant": 7677,
      "Ġsimpler": 7678,
      "Ġastronomy": 7679,
      "Ġcockroaches": 7680,
      "Ġconsequences": 7681,
      "Ġrudeness": 7682,
      "Ġdaydreaming": 7683,
      "Ġwatermelon": 7684,
      "Ġhorizon": 7685,
      "Ġexecuted": 7686,
      "Ġnavy": 7687,
      "Ġinhabit": 7688,
      "Ġdisrespect": 7689,
      "Ġunreasonable": 7690,
      "Ġtelescope": 7691,
      "Ġfestival": 7692,
      "Ġsiblings": 7693,
      "Ġhairstyle": 7694,
      "Ġbargain": 7695,
      "Ġdeliberately": 7696,
      "Ġlyrics": 7697,
      "Ġfaucet": 7698,
      "Ġegypt": 7699,
      "Ġswollen": 7700,
      "Ġpermanent": 7701,
      "bes": 7702,
      "bike": 7703,
      "cra": 7704,
      "fall": 7705,
      "four": 7706,
      "free": 7707,
      "gon": 7708,
      "hop": 7709,
      "kirts": 7710,
      "liest": 7711,
      "meal": 7712,
      "nical": 7713,
      "nuts": 7714,
      "pan": 7715,
      "sion": 7716,
      "tress": 7717,
      "uke": 7718,
      "war": 7719,
      "Ġx": 7720,
      "Ġthread": 7721,
      "Ġthirst": 7722,
      "Ġax": 7723,
      "Ġwaking": 7724,
      "Ġhen": 7725,
      "Ġhok": 7726,
      "Ġhars": 7727,
      "Ġhike": 7728,
      "react": 7729,
      "Ġsket": 7730,
      "Ġdj": 7731,
      "Ġdil": 7732,
      "Ġdough": 7733,
      "Ġdorm": 7734,
      "inated": 7735,
      "inals": 7736,
      "inations": 7737,
      "Ġmitten": 7738,
      "onna": 7739,
      "Ġtheft": 7740,
      "aned": 7741,
      "ania": 7742,
      "Ġlenses": 7743,
      "Ġfulf": 7744,
      "orable": 7745,
      "asive": 7746,
      "Ġniece": 7747,
      "Ġgently": 7748,
      "Ġdozed": 7749,
      "Ġisol": 7750,
      "owned": 7751,
      "Ġoat": 7752,
      "omb": 7753,
      "Ġeigh": 7754,
      "char": 7755,
      "Ġstake": 7756,
      "Ġstones": 7757,
      "Ġuk": 7758,
      "Ġufo": 7759,
      "Ġshaving": 7760,
      "itled": 7761,
      "Ġwhatso": 7762,
      "imp": 7763,
      "Ġareas": 7764,
      "rier": 7765,
      "Ġmarsh": 7766,
      "ador": 7767,
      "inkill": 7768,
      "aming": 7769,
      "ooked": 7770,
      "Ġabilities": 7771,
      "Ġchores": 7772,
      "Ġtrail": 7773,
      "Ġrout": 7774,
      "Ġrural": 7775,
      "urable": 7776,
      "Ġusa": 7777,
      "Ġspade": 7778,
      "andal": 7779,
      "asts": 7780,
      "Ġexists": 7781,
      "Ġgoodnight": 7782,
      "Ġjustify": 7783,
      "Ġagent": 7784,
      "oler": 7785,
      "Ġintrig": 7786,
      "Ġintoler": 7787,
      "Ġclerk": 7788,
      "Ġuncon": 7789,
      "Ġunatt": 7790,
      "Ġunfriendly": 7791,
      "Ġmole": 7792,
      "Ġmoves": 7793,
      "Ġbugged": 7794,
      "Ġbackwards": 7795,
      "Ġwaving": 7796,
      "Ġsmiles": 7797,
      "Ġcomposed": 7798,
      "Ġoverwh": 7799,
      "Ġoverreact": 7800,
      "Ġchildish": 7801,
      "Ġsurely": 7802,
      "Ġswed": 7803,
      "Ġaward": 7804,
      "Ġawoke": 7805,
      "Ġleftovers": 7806,
      "Ġquestioning": 7807,
      "resser": 7808,
      "Ġpainkill": 7809,
      "Ġmonkeys": 7810,
      "Ġbride": 7811,
      "Ġdisple": 7812,
      "Ġdisorder": 7813,
      "Ġscr": 7814,
      "Ġgrin": 7815,
      "Ġgramm": 7816,
      "ggy": 7817,
      "Ġaccus": 7818,
      "Ġgreasy": 7819,
      "mostat": 7820,
      "Ġlifeguard": 7821,
      "Ġreporter": 7822,
      "Ġmattress": 7823,
      "Ġsnores": 7824,
      "nothing": 7825,
      "Ġimported": 7826,
      "Ġenjoyable": 7827,
      "Ġowners": 7828,
      "Ġstandards": 7829,
      "Ġairmail": 7830,
      "Ġrelations": 7831,
      "Ġpresume": 7832,
      "orns": 7833,
      "Ġhobb": 7834,
      "she": 7835,
      "Ġstupidest": 7836,
      "Ġrefuses": 7837,
      "Ġchoices": 7838,
      "Ġdepressing": 7839,
      "Ġpatron": 7840,
      "Ġartistic": 7841,
      "Ġartific": 7842,
      "Ġmessenger": 7843,
      "Ġsecondhand": 7844,
      "azed": 7845,
      "Ġpasta": 7846,
      "Ġguitars": 7847,
      "Ġsubt": 7848,
      "Ġcafe": 7849,
      "Ġballpoint": 7850,
      "Ġimage": 7851,
      "Ġriddle": 7852,
      "Ġbelonged": 7853,
      "Ġfourth": 7854,
      "Ġunlock": 7855,
      "Ġimaginary": 7856,
      "Ġannounce": 7857,
      "Ġcurly": 7858,
      "Ġze": 7859,
      "Ġexploded": 7860,
      "Ġapproved": 7861,
      "Ġcolorful": 7862,
      "Ġbasic": 7863,
      "Ġpractices": 7864,
      "Ġpractically": 7865,
      "Ġfilling": 7866,
      "Ġfruits": 7867,
      "Ġmah": 7868,
      "Ġescaping": 7869,
      "Ġbothers": 7870,
      "Ġexceptions": 7871,
      "Ġcontinent": 7872,
      "cod": 7873,
      "Ġdetailed": 7874,
      "Ġstarved": 7875,
      "Ġlanding": 7876,
      "Ġfails": 7877,
      "Ġburnt": 7878,
      "Ġrespects": 7879,
      "Ġpupp": 7880,
      "Ġclocks": 7881,
      "Ġplanting": 7882,
      "Ġamaze": 7883,
      "awning": 7884,
      "Ġmotorbike": 7885,
      "Ġpermitting": 7886,
      "Ġcollected": 7887,
      "Ġorganized": 7888,
      "Ġoptimism": 7889,
      "Ġsuspicion": 7890,
      "Ġtoothache": 7891,
      "Ġfingerprints": 7892,
      "Ġtightly": 7893,
      "Ġ80": 7894,
      "Ġservants": 7895,
      "Ġharmful": 7896,
      "Ġsources": 7897,
      "Ġsensed": 7898,
      "Ġmotivation": 7899,
      "Ġeducated": 7900,
      "Ġsinking": 7901,
      "Ġabandon": 7902,
      "Ġfolding": 7903,
      "Ġspecies": 7904,
      "Ġpsychology": 7905,
      "Ġpuzzles": 7906,
      "Ġfields": 7907,
      "Ġafrican": 7908,
      "Ġseparately": 7909,
      "Ġlogic": 7910,
      "Ġremarks": 7911,
      "Ġstruggling": 7912,
      "Ġcynical": 7913,
      "Ġcracked": 7914,
      "Ġcds": 7915,
      "Ġtextbooks": 7916,
      "Ġdespite": 7917,
      "Ġpredictable": 7918,
      "Ġfrogs": 7919,
      "Ġnegotiate": 7920,
      "Ġswimsuit": 7921,
      "Ġalternatives": 7922,
      "Ġrussian": 7923,
      "Ġinfected": 7924,
      "Ġprotested": 7925,
      "Ġathlet": 7926,
      "Ġracing": 7927,
      "Ġenthusiasm": 7928,
      "Ġstroke": 7929,
      "Ġpumpkin": 7930,
      "Ġhamburger": 7931,
      "Ġvitamins": 7932,
      "Ġcomposition": 7933,
      "Ġpassionate": 7934,
      "Ġkorean": 7935,
      "Ġrailroad": 7936,
      "Ġexports": 7937,
      "Ġneatly": 7938,
      "Ġducks": 7939,
      "Ġcaution": 7940,
      "thmetic": 7941,
      "Ġunload": 7942,
      "Ġdiabetic": 7943,
      "alyzed": 7944,
      "Ġkarate": 7945,
      "Ġcolleagues": 7946,
      "Ġprimary": 7947,
      "Ġextinguish": 7948,
      "Ġliberty": 7949,
      "Ġcardiologist": 7950,
      "Ġtons": 7951,
      "Ġthermostat": 7952,
      "Ġdisguised": 7953,
      "Ġhairdresser": 7954,
      "Ġsymptoms": 7955,
      "Ġcompanies": 7956,
      "Ġaustria": 7957,
      "Ġkoal": 7958,
      "Ġhurricane": 7959,
      "Ġobedient": 7960,
      "Ġbarbecue": 7961,
      "Ġtropical": 7962,
      "Ġarithmetic": 7963,
      "Ġarab": 7964,
      "Ġsarc": 7965,
      "Ġkimon": 7966,
      "Ġseptember": 7967,
      "Ġjesus": 7968,
      "ĠcafÃ©": 7969,
      "Ġhokkaido": 7970,
      "Ġmittens": 7971,
      "Ġeighth": 7972,
      "Ġwhatsoever": 7973,
      "Ġunconv": 7974,
      "Ġoverwhel": 7975,
      "Ġhobbies": 7976,
      "%.": 7977,
      "11": 7978,
      "fashion": 7979,
      "giving": 7980,
      "iar": 7981,
      "mic": 7982,
      "oed": 7983,
      "vitable": 7984,
      "yen": 7985,
      "Ġtub": 7986,
      "Ġip": 7987,
      "Ġain": 7988,
      "Ġaug": 7989,
      "Ġwing": 7990,
      "Ġdull": 7991,
      "ina": 7992,
      "incing": 7993,
      "Ġmowing": 7994,
      "erous": 7995,
      "Ġbon": 7996,
      "Ġcant": 7997,
      "Ġcork": 7998,
      "Ġloos": 7999,
      "Ġfet": 8000,
      "Ġfiction": 8001,
      "lly": 8002,
      "lling": 8003,
      "isive": 8004,
      "isode": 8005,
      "Ġnations": 8006,
      "Ġdogh": 8007,
      "ths": 8008,
      "Ġec": 8009,
      "Ġeld": 8010,
      "Ġshots": 8011,
      "Ġreass": 8012,
      "itution": 8013,
      "Ġforth": 8014,
      "Ġforks": 8015,
      "Ġwig": 8016,
      "alator": 8017,
      "Ġmargar": 8018,
      "Ġasia": 8019,
      "tering": 8020,
      "Ġseed": 8021,
      "Ġchilly": 8022,
      "Ġalert": 8023,
      "Ġalps": 8024,
      "Ġnod": 8025,
      "ends": 8026,
      "Ġsoaking": 8027,
      "renting": 8028,
      "Ġteasing": 8029,
      "Ġsafer": 8030,
      "Ġseek": 8031,
      "anded": 8032,
      "usions": 8033,
      "Ġframe": 8034,
      "quet": 8035,
      "ulate": 8036,
      "istent": 8037,
      "Ġenorm": 8038,
      "Ġenabled": 8039,
      "Ġproph": 8040,
      "Ġproves": 8041,
      "racy": 8042,
      "Ġtalker": 8043,
      "venir": 8044,
      "Ġunint": 8045,
      "Ġrod": 8046,
      "Ġoffensive": 8047,
      "Ġbookcase": 8048,
      "Ġprevious": 8049,
      "Ġbackground": 8050,
      "mbol": 8051,
      "mbling": 8052,
      "Ġpeppers": 8053,
      "Ġadmission": 8054,
      "Ġadores": 8055,
      "Ġblown": 8056,
      "Ġblaming": 8057,
      "Ġswiss": 8058,
      "Ġflip": 8059,
      "Ġpaused": 8060,
      "Ġparenting": 8061,
      "Ġaustralian": 8062,
      "Ġdisk": 8063,
      "Ġgrat": 8064,
      "Ġaccusing": 8065,
      "Ġgreater": 8066,
      "text": 8067,
      "oya": 8068,
      "Ġowl": 8069,
      "Ġowls": 8070,
      "Ġtheirs": 8071,
      "Ġrecorder": 8072,
      "Ġ26": 8073,
      "Ġvisible": 8074,
      "Ġuntr": 8075,
      "Ġslim": 8076,
      "Ġslashed": 8077,
      "pron": 8078,
      "Ġresting": 8079,
      "Ġskis": 8080,
      "Ġmuscles": 8081,
      "Ġrealizes": 8082,
      "Ġcrushed": 8083,
      "Ġgladly": 8084,
      "Ġconsulted": 8085,
      "icycle": 8086,
      "Ġcutting": 8087,
      "Ġrefresh": 8088,
      "Ġfreeze": 8089,
      "Ġcupboard": 8090,
      "Ġdropping": 8091,
      "Ġcountryside": 8092,
      "cloth": 8093,
      "Ġexcused": 8094,
      "Ġinterrog": 8095,
      "Ġpattern": 8096,
      "Ġcheckers": 8097,
      "Ġshortest": 8098,
      "Ġshortage": 8099,
      "Ġstrongest": 8100,
      "Ġsweating": 8101,
      "Ġthanksgiving": 8102,
      "Ġworthy": 8103,
      "Ġhearts": 8104,
      "Ġsouvenir": 8105,
      "Ġwarmly": 8106,
      "Ġindivid": 8107,
      "Ġtrapped": 8108,
      "Ġtemples": 8109,
      "Ġperfection": 8110,
      "Ġescalator": 8111,
      "Ġfeeds": 8112,
      "plant": 8113,
      "Ġgraduation": 8114,
      "Ġdeepest": 8115,
      "Ġprotected": 8116,
      "Ġprotective": 8117,
      "Ġhangover": 8118,
      "Ġmisjud": 8119,
      "Ġsymbol": 8120,
      "Ġcowboy": 8121,
      "Ġcentimet": 8122,
      "Ġabsolute": 8123,
      "Ġseafood": 8124,
      "Ġfatter": 8125,
      "Ġdirector": 8126,
      "Ġambass": 8127,
      "Ġgolden": 8128,
      "Ġselfie": 8129,
      "Ġeuropeans": 8130,
      "Ġblinded": 8131,
      "Ġpossibilities": 8132,
      "Ġintelligence": 8133,
      "Ġsharpening": 8134,
      "Ġroller": 8135,
      "Ġformal": 8136,
      "Ġallergies": 8137,
      "Ġaccepting": 8138,
      "Ġrecorded": 8139,
      "Ġnaturally": 8140,
      "Ġmusicians": 8141,
      "Ġnapole": 8142,
      "Ġimprovement": 8143,
      "Ġcircus": 8144,
      "Ġconcentrating": 8145,
      "Ġphysician": 8146,
      "Ġrecovering": 8147,
      "Ġproofread": 8148,
      "Ġscenery": 8149,
      "Ġcooperation": 8150,
      "Ġpsychic": 8151,
      "Ġarchae": 8152,
      "Ġuncommon": 8153,
      "Ġcongratulated": 8154,
      "Ġinclude": 8155,
      "Ġwitnesses": 8156,
      "Ġscratched": 8157,
      "Ġstruggle": 8158,
      "Ġbabysitting": 8159,
      "Ġcontributing": 8160,
      "Ġmexican": 8161,
      "Ġadjusted": 8162,
      "Ġmaterials": 8163,
      "Ġpearl": 8164,
      "Ġsailors": 8165,
      "Ġmuddy": 8166,
      "Ġcrocod": 8167,
      "Ġinevitable": 8168,
      "Ġathlete": 8169,
      "Ġcartoons": 8170,
      "Ġfascinating": 8171,
      "Ġidentify": 8172,
      "Ġpalm": 8173,
      "Ġpunched": 8174,
      "Ġdolphin": 8175,
      "Ġgreece": 8176,
      "Ġobliged": 8177,
      "hearted": 8178,
      "Ġtherapist": 8179,
      "Ġdecorated": 8180,
      "Ġswallowed": 8181,
      "Ġ1960": 8182,
      "Ġseasick": 8183,
      "Ġunimag": 8184,
      "Ġpirate": 8185,
      "Ġpandas": 8186,
      "Ġimmigrants": 8187,
      "Ġvirus": 8188,
      "Ġepisode": 8189,
      "Ġinstinct": 8190,
      "Ġnagoya": 8191,
      "Ġspectac": 8192,
      "Ġscotland": 8193,
      "Ġbruise": 8194,
      "Ġaliens": 8195,
      "ulsive": 8196,
      "Ġgroceries": 8197,
      "Ġintimidated": 8198,
      "Ġrepresent": 8199,
      "stein": 8200,
      "Ġfirefighter": 8201,
      "Ġimplying": 8202,
      "Ġminimum": 8203,
      "Ġblossoms": 8204,
      "Ġsubstitute": 8205,
      "Ġingredients": 8206,
      "Ġdisobe": 8207,
      "Ġpreparations": 8208,
      "Ġsuperstitious": 8209,
      "Ġextraordinary": 8210,
      "Ġbarefoot": 8211,
      "Ġhitchh": 8212,
      "Ġdangers": 8213,
      "Ġstalling": 8214,
      "Ġadapted": 8215,
      "Ġcathedral": 8216,
      "Ġharsh": 8217,
      "Ġisolated": 8218,
      "Ġoatmeal": 8219,
      "Ġartificial": 8220,
      "Ġunconvinced": 8221,
      "fashioned": 8222,
      "Ġaugust": 8223,
      "Ġdoghouse": 8224,
      "Ġcentimeters": 8225,
      "Ġnapoleon": 8226,
      "100": 8227,
      "ban": 8228,
      "bor": 8229,
      "brow": 8230,
      "bird": 8231,
      "cest": 8232,
      "cond": 8233,
      "ccol": 8234,
      "ev": 8235,
      "eed": 8236,
      "fume": 8237,
      "gam": 8238,
      "husband": 8239,
      "hole": 8240,
      "iat": 8241,
      "iation": 8242,
      "lict": 8243,
      "mou": 8244,
      "mother": 8245,
      "off": 8246,
      "pow": 8247,
      "pressed": 8248,
      "sing": 8249,
      "tray": 8250,
      "uk": 8251,
      "uine": 8252,
      "vation": 8253,
      "wat": 8254,
      "well": 8255,
      "water": 8256,
      "ximately": 8257,
      "Ġtiss": 8258,
      "Ġtact": 8259,
      "Ġtables": 8260,
      "Ġtipt": 8261,
      "Ġthai": 8262,
      "Ġhint": 8263,
      "Ġyawning": 8264,
      "rer": 8265,
      "Ġdive": 8266,
      "Ġdys": 8267,
      "ini": 8268,
      "inating": 8269,
      "inarian": 8270,
      "instein": 8271,
      "Ġmi": 8272,
      "Ġmigr": 8273,
      "onym": 8274,
      "Ġbot": 8275,
      "Ġbakes": 8276,
      "Ġcens": 8277,
      "Ġcrop": 8278,
      "anist": 8279,
      "eded": 8280,
      "edia": 8281,
      "vey": 8282,
      "Ġpoo": 8283,
      "Ġpeak": 8284,
      "Ġpave": 8285,
      "Ġpies": 8286,
      "Ġpip": 8287,
      "Ġpause": 8288,
      "Ġgest": 8289,
      "Ġanch": 8290,
      "Ġancest": 8291,
      "Ġeth": 8292,
      "Ġefficient": 8293,
      "Ġeinstein": 8294,
      "verb": 8295,
      "Ġstream": 8296,
      "Ġshuff": 8297,
      "Ġrear": 8298,
      "alty": 8299,
      "ado": 8300,
      "Ġasyl": 8301,
      "pple": 8302,
      "ustroph": 8303,
      "Ġabused": 8304,
      "Ġabolished": 8305,
      "Ġshell": 8306,
      "Ġnoises": 8307,
      "cking": 8308,
      "oster": 8309,
      "Ġtease": 8310,
      "Ġspit": 8311,
      "Ġspaces": 8312,
      "Ġfrag": 8313,
      "Ġexceed": 8314,
      "estyle": 8315,
      "quil": 8316,
      "Ġmankind": 8317,
      "Ġhappily": 8318,
      "ourned": 8319,
      "Ġcoma": 8320,
      "Ġagency": 8321,
      "arts": 8322,
      "Ġency": 8323,
      "Ġcontext": 8324,
      "Ġunan": 8325,
      "Ġunav": 8326,
      "Ġunicycle": 8327,
      "Ġwrist": 8328,
      "boards": 8329,
      "Ġpeas": 8330,
      "angle": 8331,
      "Ġamounts": 8332,
      "ectual": 8333,
      "Ġoverdo": 8334,
      "Ġhousehold": 8335,
      "Ġplanets": 8336,
      "ability": 8337,
      "abberg": 8338,
      "Ġbroccol": 8339,
      "Ġfled": 8340,
      "Ġflor": 8341,
      "Ġflabberg": 8342,
      "Ġglove": 8343,
      "Ġdispl": 8344,
      "Ġparted": 8345,
      "Ġpartly": 8346,
      "Ġscored": 8347,
      "Ġscandal": 8348,
      "Ġdecency": 8349,
      "Ġdecades": 8350,
      "Ġdrill": 8351,
      "Ġgrumb": 8352,
      "Ġmeets": 8353,
      "Ġraincoat": 8354,
      "Ġmornings": 8355,
      "Ġresulted": 8356,
      "Ġstrings": 8357,
      "Ġwatering": 8358,
      "Ġperfume": 8359,
      "Ġrecession": 8360,
      "Ġattorn": 8361,
      "elly": 8362,
      "Ġwinds": 8363,
      "noxious": 8364,
      "Ġrestless": 8365,
      "Ġrestrain": 8366,
      "Ġimports": 8367,
      "Ġfarther": 8368,
      "oking": 8369,
      "Ġmuslim": 8370,
      "Ġcramp": 8371,
      "Ġsnows": 8372,
      "orders": 8373,
      "Ġfireplace": 8374,
      "Ġconfess": 8375,
      "Ġconflict": 8376,
      "Ġhighway": 8377,
      "Ġcloak": 8378,
      "Ġobnoxious": 8379,
      "Ġcleaner": 8380,
      "Ġtelegram": 8381,
      "Ġagreeing": 8382,
      "Ġdrops": 8383,
      "Ġmeds": 8384,
      "clop": 8385,
      "iety": 8386,
      "Ġcorp": 8387,
      "Ġsunburn": 8388,
      "Ġpresented": 8389,
      "Ġpenalty": 8390,
      "Ġfloating": 8391,
      "Ġcourteous": 8392,
      "Ġmessed": 8393,
      "Ġwarmed": 8394,
      "Ġconvincing": 8395,
      "Ġcharges": 8396,
      "Ġindians": 8397,
      "Ġtractor": 8398,
      "Ġdances": 8399,
      "Ġsadly": 8400,
      "Ġpoorly": 8401,
      "Ġfreaked": 8402,
      "Ġgenuine": 8403,
      "Ġrisen": 8404,
      "Ġruins": 8405,
      "Ġnovelist": 8406,
      "Ġapproximately": 8407,
      "armed": 8408,
      "Ġbasis": 8409,
      "Ġpracticed": 8410,
      "Ġparamed": 8411,
      "Ġparrot": 8412,
      "Ġsqueak": 8413,
      "Ġ198": 8414,
      "Ġhanged": 8415,
      "Ġbury": 8416,
      "Ġeyebrow": 8417,
      "Ġstarve": 8418,
      "cript": 8419,
      "Ġgreenhouse": 8420,
      "Ġprofit": 8421,
      "Ġjoining": 8422,
      "Ġnorthern": 8423,
      "conf": 8424,
      "Ġmoonlight": 8425,
      "Ġislands": 8426,
      "Ġevents": 8427,
      "Ġconstitution": 8428,
      "ganized": 8429,
      "Ġclapped": 8430,
      "Ġclaustroph": 8431,
      "Ġlocate": 8432,
      "Ġbodyguard": 8433,
      "Ġashtray": 8434,
      "Ġintellectual": 8435,
      "Ġtricked": 8436,
      "Ġtexted": 8437,
      "Ġelectrician": 8438,
      "Ġcollector": 8439,
      "Ġundone": 8440,
      "Ġundressing": 8441,
      "Ġfearless": 8442,
      "Ġequipped": 8443,
      "Ġbrushing": 8444,
      "Ġapplies": 8445,
      "Ġapplause": 8446,
      "Ġunfortunate": 8447,
      "Ġpanicked": 8448,
      "Ġhumanity": 8449,
      "Ġweakness": 8450,
      "Ġaudio": 8451,
      "Ġromans": 8452,
      "Ġintentions": 8453,
      "Ġscheduled": 8454,
      "Ġservices": 8455,
      "Ġharmless": 8456,
      "Ġcriticize": 8457,
      "Ġexercises": 8458,
      "Ġcompetitive": 8459,
      "Ġrelationships": 8460,
      "Ġtort": 8461,
      "Ġaffects": 8462,
      "Ġbriefly": 8463,
      "Ġspeeding": 8464,
      "Ġcriminals": 8465,
      "Ġdislocated": 8466,
      "Ġinsec": 8467,
      "Ġknitted": 8468,
      "Ġinterviewed": 8469,
      "xpensive": 8470,
      "Ġpsychiat": 8471,
      "Ġspoil": 8472,
      "Ġspoons": 8473,
      "Ġarche": 8474,
      "Ġpraying": 8475,
      "Ġinterpreted": 8476,
      "Ġlimits": 8477,
      "Ġrelieve": 8478,
      "Ġretirement": 8479,
      "Ġconclusions": 8480,
      "Ġhypoth": 8481,
      "Ġcereal": 8482,
      "Ġautomatically": 8483,
      "Ġjewels": 8484,
      "Ġdraft": 8485,
      "Ġcontribute": 8486,
      "Ġtipsy": 8487,
      "Ġnarrowly": 8488,
      "Ġimitate": 8489,
      "Ġ150": 8490,
      "Ġcalculator": 8491,
      "Ġlemonade": 8492,
      "Ġeverest": 8493,
      "Ġinexpensive": 8494,
      "Ġlifestyle": 8495,
      "Ġyogurt": 8496,
      "Ġutmost": 8497,
      "Ġmaiden": 8498,
      "Ġcottage": 8499,
      "Ġchewing": 8500,
      "Ġtoolbox": 8501,
      "Ġseverely": 8502,
      "Ġdecorating": 8503,
      "Ġmercy": 8504,
      "Ġsneeze": 8505,
      "Ġadvertise": 8506,
      "Ġunimpressed": 8507,
      "Ġelbows": 8508,
      "Ġreferring": 8509,
      "Ġdiagnosis": 8510,
      "Ġfolks": 8511,
      "Ġdisturbing": 8512,
      "break": 8513,
      "Ġmental": 8514,
      "Ġoutrage": 8515,
      "Ġoutraged": 8516,
      "Ġultrav": 8517,
      "Ġmeditating": 8518,
      "Ġrepeatedly": 8519,
      "Ġamput": 8520,
      "Ġdemocracy": 8521,
      "Ġfussy": 8522,
      "girlfriend": 8523,
      "Ġpowers": 8524,
      "Ġpudding": 8525,
      "Ġbuttons": 8526,
      "Ġveterinarian": 8527,
      "Ġacquaintance": 8528,
      "Ġluxury": 8529,
      "Ġphenomenon": 8530,
      "Ġhypocrite": 8531,
      "Ġpeeked": 8532,
      "Ġcontrovers": 8533,
      "Ġgiggled": 8534,
      "Ġhandcuffed": 8535,
      "Ġsqueezed": 8536,
      "Ġsurroundings": 8537,
      "Ġeavesdro": 8538,
      "Ġlinguistics": 8539,
      "Ġquantity": 8540,
      "Ġfunniest": 8541,
      "Ġinconvenience": 8542,
      "Ġunattended": 8543,
      "Ġathletic": 8544,
      "Ġkimono": 8545,
      "Ġmargarine": 8546,
      "Ġenormous": 8547,
      "Ġuninterest": 8548,
      "Ġindividual": 8549,
      "Ġambassador": 8550,
      "Ġpavement": 8551,
      "Ġasylum": 8552,
      "Ġencyclop": 8553,
      "Ġbroccoli": 8554,
      "Ġflabbergasted": 8555,
      "Ġattorney": 8556,
      "Ġclaustrophob": 8557,
      "Ġultraviolet": 8558,
      "cre": 8559,
      "cup": 8560,
      "eem": 8561,
      "fit": 8562,
      "fied": 8563,
      "kno": 8564,
      "lines": 8565,
      "mart": 8566,
      "ov": 8567,
      "ox": 8568,
      "power": 8569,
      "poc": 8570,
      "piece": 8571,
      "person": 8572,
      "ris": 8573,
      "rase": 8574,
      "rum": 8575,
      "sm": 8576,
      "sis": 8577,
      "tail": 8578,
      "uous": 8579,
      "win": 8580,
      "Ġtale": 8581,
      "Ġtiles": 8582,
      "Ġtone": 8583,
      "Ġthie": 8584,
      "Ġthug": 8585,
      "Ġwan": 8586,
      "reh": 8587,
      "Ġsate": 8588,
      "Ġdign": 8589,
      "Ġdash": 8590,
      "Ġmerc": 8591,
      "Ġmerry": 8592,
      "only": 8593,
      "onia": 8594,
      "Ġthesis": 8595,
      "erget": 8596,
      "Ġbin": 8597,
      "Ġbol": 8598,
      "Ġbanged": 8599,
      "Ġcav": 8600,
      "Ġcries": 8601,
      "Ġcels": 8602,
      "anc": 8603,
      "edition": 8604,
      "Ġlamb": 8605,
      "Ġferry": 8606,
      "Ġfathers": 8607,
      "isance": 8608,
      "orters": 8609,
      "Ġpant": 8610,
      "Ġpry": 8611,
      "Ġnit": 8612,
      "Ġnause": 8613,
      "Ġgear": 8614,
      "Ġheal": 8615,
      "esity": 8616,
      "Ġoak": 8617,
      "Ġobo": 8618,
      "think": 8619,
      "third": 8620,
      "Ġbegg": 8621,
      "Ġinput": 8622,
      "Ġanonym": 8623,
      "Ġmeadow": 8624,
      "etes": 8625,
      "Ġstag": 8626,
      "Ġshru": 8627,
      "Ġdonkey": 8628,
      "icket": 8629,
      "imer": 8630,
      "Ġknot": 8631,
      "Ġcanoe": 8632,
      "alistic": 8633,
      "rip": 8634,
      "riot": 8635,
      "termin": 8636,
      "Ġsealed": 8637,
      "aine": 8638,
      "ckles": 8639,
      "Ġsole": 8640,
      "Ġspilt": 8641,
      "Ġneeding": 8642,
      "Ġplot": 8643,
      "Ġpluck": 8644,
      "Ġupcoming": 8645,
      "Ġoutgoing": 8646,
      "Ġextermin": 8647,
      "quate": 8648,
      "few": 8649,
      "ept": 8650,
      "Ġenerget": 8651,
      "Ġintense": 8652,
      "arer": 8653,
      "renched": 8654,
      "Ġcocon": 8655,
      "Ġeater": 8656,
      "Ġunac": 8657,
      "Ġuncer": 8658,
      "Ġvotes": 8659,
      "Ġwage": 8660,
      "Ġorbit": 8661,
      "Ġexpedition": 8662,
      "Ġamm": 8663,
      "Ġamuse": 8664,
      "Ġfaced": 8665,
      "Ġadorable": 8666,
      "Ġunderne": 8667,
      "idext": 8668,
      "Ġcompart": 8669,
      "Ġoverhear": 8670,
      "Ġovercome": 8671,
      "fty": 8672,
      "Ġbroom": 8673,
      "Ġflames": 8674,
      "Ġflattered": 8675,
      "Ġparent": 8676,
      "Ġdoorkno": 8677,
      "Ġscor": 8678,
      "Ġscrap": 8679,
      "Ġdecline": 8680,
      "ictable": 8681,
      "Ġphoning": 8682,
      "Ġgrind": 8683,
      "Ġpersp": 8684,
      "Ġbreast": 8685,
      "Ġstruct": 8686,
      "Ġstranded": 8687,
      "Ġeaster": 8688,
      "redictable": 8689,
      "Ġrepay": 8690,
      "Ġrepairs": 8691,
      "Ġpromising": 8692,
      "acity": 8693,
      "acles": 8694,
      "active": 8695,
      "Ġnicely": 8696,
      "Ġmonthly": 8697,
      "Ġbiting": 8698,
      "Ġclassmate": 8699,
      "Ġeyel": 8700,
      "Ġactual": 8701,
      "Ġfisher": 8702,
      "Ġtrusting": 8703,
      "Ġkisses": 8704,
      "Ġfireman": 8705,
      "Ġhatch": 8706,
      "Ġhatred": 8707,
      "Ġdial": 8708,
      "Ġdipped": 8709,
      "Ġnuisance": 8710,
      "Ġpickpoc": 8711,
      "Ġobesity": 8712,
      "Ġchopping": 8713,
      "Ġthroughout": 8714,
      "ceptable": 8715,
      "Ġtripped": 8716,
      "Ġmedia": 8717,
      "Ġexamine": 8718,
      "Ġexamples": 8719,
      "Ġrivers": 8720,
      "Ġterrit": 8721,
      "Ġpatriot": 8722,
      "Ġassured": 8723,
      "akened": 8724,
      "Ġchecks": 8725,
      "Ġchecking": 8726,
      "Ġfloat": 8727,
      "Ġfloors": 8728,
      "Ġshortcut": 8729,
      "Ġgrowth": 8730,
      "Ġvegan": 8731,
      "Ġsweeth": 8732,
      "Ġgirlfriends": 8733,
      "Ġsends": 8734,
      "Ġraising": 8735,
      "Ġworthless": 8736,
      "Ġordering": 8737,
      "Ġinstalled": 8738,
      "Ġsouthern": 8739,
      "Ġcaps": 8740,
      "Ġillustr": 8741,
      "Ġextro": 8742,
      "Ġconvicted": 8743,
      "Ġiceberg": 8744,
      "Ġcharger": 8745,
      "Ġsubur": 8746,
      "Ġsubmit": 8747,
      "Ġfreckles": 8748,
      "Ġballet": 8749,
      "Ġtasty": 8750,
      "Ġelectr": 8751,
      "Ġposted": 8752,
      "Ġrises": 8753,
      "Ġmotel": 8754,
      "Ġimagining": 8755,
      "Ġgrape": 8756,
      "Ġcurfew": 8757,
      "Ġsmartest": 8758,
      "Ġdrawers": 8759,
      "placeable": 8760,
      "Ġruled": 8761,
      "Ġemigr": 8762,
      "Ġstepfather": 8763,
      "Ġparalyzed": 8764,
      "Ġceases": 8765,
      "ugal": 8766,
      "Ġdepending": 8767,
      "Ġcontacts": 8768,
      "Ġedible": 8769,
      "Ġcentral": 8770,
      "Ġpeaches": 8771,
      "Ġambidext": 8772,
      "Ġpeaceful": 8773,
      "aneous": 8774,
      "ounces": 8775,
      "Ġcelebrity": 8776,
      "bbing": 8777,
      "Ġequally": 8778,
      "Ġequals": 8779,
      "Ġrolling": 8780,
      "Ġrepeating": 8781,
      "Ġrecords": 8782,
      "Ġmainly": 8783,
      "Ġfrightening": 8784,
      "Ġfingern": 8785,
      "Ġgovernor": 8786,
      "Ġbarks": 8787,
      "Ġwisely": 8788,
      "Ġadmirer": 8789,
      "Ġromance": 8790,
      "umpy": 8791,
      "Ġthinner": 8792,
      "Ġ90": 8793,
      "Ġsipped": 8794,
      "parable": 8795,
      "Ġhesitant": 8796,
      "Ġperformed": 8797,
      "Ġcoughed": 8798,
      "Ġviolinist": 8799,
      "Ġrubb": 8800,
      "Ġirreplaceable": 8801,
      "Ġcarpenters": 8802,
      "Ġinseparable": 8803,
      "Ġmembership": 8804,
      "Ġdesperately": 8805,
      "Ġconcerns": 8806,
      "Ġbombs": 8807,
      "Ġdeveloping": 8808,
      "Ġprayers": 8809,
      "Ġroughly": 8810,
      "Ġfaithful": 8811,
      "Ġrobots": 8812,
      "Ġchatted": 8813,
      "Ġchemical": 8814,
      "Ġarguments": 8815,
      "Ġoversleep": 8816,
      "Ġinvestigating": 8817,
      "Ġchalleng": 8818,
      "Ġboils": 8819,
      "Ġpinea": 8820,
      "Ġsailor": 8821,
      "Ġinfluenced": 8822,
      "Ġloads": 8823,
      "Ġunwell": 8824,
      "Ġunwilling": 8825,
      "Ġfrequent": 8826,
      "Ġtidied": 8827,
      "Ġinfection": 8828,
      "Ġnicest": 8829,
      "Ġblocking": 8830,
      "Ġoccasionally": 8831,
      "Ġunpredictable": 8832,
      "Ġcomposer": 8833,
      "Ġticklish": 8834,
      "Ġunrealistic": 8835,
      "Ġsurprisingly": 8836,
      "Ġindeed": 8837,
      "Ġobligation": 8838,
      "Ġbranches": 8839,
      "Ġtexas": 8840,
      "Ġcompliments": 8841,
      "Ġsneezing": 8842,
      "Ġtornado": 8843,
      "Ġunderwater": 8844,
      "Ġdownload": 8845,
      "Ġstretch": 8846,
      "Ġrewarded": 8847,
      "Ġitems": 8848,
      "Ġbugs": 8849,
      "Ġ1945": 8850,
      "Ġhydrogen": 8851,
      "Ġcautious": 8852,
      "Ġunloaded": 8853,
      "Ġdiabetes": 8854,
      "Ġdeposited": 8855,
      "Ġfundamental": 8856,
      "Ġwithdraw": 8857,
      "Ġlazier": 8858,
      "Ġkidnapp": 8859,
      "Ġolympics": 8860,
      "Ġattached": 8861,
      "Ġprecisely": 8862,
      "Ġmysterious": 8863,
      "Ġtransportation": 8864,
      "Ġacknowledged": 8865,
      "Ġcompassion": 8866,
      "Ġoverworked": 8867,
      "Ġbricks": 8868,
      "Ġdistrict": 8869,
      "Ġdisorganized": 8870,
      "Ġvoting": 8871,
      "Ġvehicle": 8872,
      "Ġgravity": 8873,
      "Ġbracelet": 8874,
      "Ġsloppy": 8875,
      "Ġelementary": 8876,
      "Ġhypnotize": 8877,
      "Ġmultiple": 8878,
      "Ġinhabitants": 8879,
      "Ġintrigued": 8880,
      "Ġdispleased": 8881,
      "Ġgratitude": 8882,
      "Ġcloakroom": 8883,
      "Ġpsychiatrist": 8884,
      "Ġamputated": 8885,
      "Ġclaustrophobic": 8886,
      "Ġthieves": 8887,
      "Ġsatell": 8888,
      "Ġcelsius": 8889,
      "Ġoboe": 8890,
      "Ġexterminator": 8891,
      "Ġenergetic": 8892,
      "Ġunacceptable": 8893,
      "Ġuncertain": 8894,
      "Ġunderneath": 8895,
      "Ġdoorknob": 8896,
      "Ġpickpockets": 8897,
      "Ġsweethear": 8898,
      "Ġambidextrous": 8899,
      "45": 8900,
      "affe": 8901,
      "avor": 8902,
      "ahol": 8903,
      "bulous": 8904,
      "cers": 8905,
      "cred": 8906,
      "cled": 8907,
      "dies": 8908,
      "def": 8909,
      "down": 8910,
      "ec": 8911,
      "ecy": 8912,
      "eba": 8913,
      "gment": 8914,
      "gones": 8915,
      "hour": 8916,
      "ipper": 8917,
      "liness": 8918,
      "mond": 8919,
      "mallow": 8920,
      "sa": 8921,
      "sist": 8922,
      "test": 8923,
      "would": 8924,
      "zhe": 8925,
      "Ġtourn": 8926,
      "Ġace": 8927,
      "Ġapt": 8928,
      "Ġhood": 8929,
      "Ġyeah": 8930,
      "Ġdup": 8931,
      "Ġdrenched": 8932,
      "inis": 8933,
      "inist": 8934,
      "inium": 8935,
      "Ġmuff": 8936,
      "oni": 8937,
      "oner": 8938,
      "onies": 8939,
      "Ġbik": 8940,
      "Ġbamb": 8941,
      "Ġbacter": 8942,
      "Ġborders": 8943,
      "Ġcia": 8944,
      "Ġcord": 8945,
      "Ġcured": 8946,
      "ano": 8947,
      "anol": 8948,
      "Ġlun": 8949,
      "Ġlous": 8950,
      "ingly": 8951,
      "Ġfer": 8952,
      "Ġfiring": 8953,
      "enna": 8954,
      "oral": 8955,
      "aser": 8956,
[...]
